[PAD]
[UNK]
[CLS]
[SEP]
[MASK]
!
"
#
$
%
&
'
(
)
*
+
,
-
.
/
0
1
2
3
4
5
6
7
8
9
:
;
<
=
>
?
@
[
\
]
^
_
`
a
b
c
d
e
f
g
h
i
j
k
l
m
n
o
p
q
r
s
t
u
v
w
x
y
z
{
|
}
~
¤
##o
##l
##i
##n
##2
##0
##1
##6
##u
##t
##e
##5
##b
##r
##d
##c
##h
##s
##m
##a
##y
##p
##4
##v
##g
##f
##k
##9
##3
##w
##7
##x
##z
##q
##8
##j
##¤
th
##ti
##on
##er
the
##es
##in
##en
##al
##or
##tion
of
##ed
##at
in
##ar
an
##an
##it
##ro
##ic
##ing
##is
##el
and
##ec
##ation
##et
##as
##ur
to
##ent
##ac
##le
##om
##tr
##ul
for
we
##re
##ol
##im
pro
con
##od
is
##si
##ve
##tic
##ly
##ith
##st
##em
##am
on
##ow
##uc
ex
st
with
##ou
##ig
##per
that
##um
##ce
##il
##ter
##ity
##ts
##os
al
re
##ot
com
##pl
as
wh
##ate
##ir
sp
##ver
##ab
##id
##tin
mod
##ff
##ge
##ain
be
are
this
##qu
##ect
##ations
by
res
##se
##ut
##ting
##nd
pr
##iz
tr
de
comp
su
##ch
dis
sh
##ical
model
##ad
##ess
##ap
##ant
##ear
at
en
##tions
qu
##rom
##ag
##ure
ch
##sion
or
ap
par
##orm
##igh
##tive
sy
##ay
##oc
##ud
##ib
##th
ne
us
im
from
##ated
##ich
##ence
##og
cl
ob
str
di
##us
##form
##un
##ies
##ers
ph
##op
which
ac
##if
can
##pro
met
##ork
##ents
##ere
##erm
inter
##etw
##ari
##duc
##vel
##ble
##and
sc
un
mat
##iv
##ally
##ass
##ons
gen
dat
##ach
##able
##ore
int
##ous
show
##stem
resul
system
per
##all
##der
##rou
co
sim
gener
ad
eff
##av
##tim
tran
gr
##ution
bas
our
fin
##ell
##etr
##ati
##ance
rel
fi
##end
##ave
tw
##ary
diff
##enti
le
tim
##eld
ev
##ties
cons
meth
##ectr
method
non
##ment
##ace
op
##res
##uct
appro
##ri
##ak
##ular
##ase
me
it
ar
##ign
##ial
##pos
##act
##ys
det
##ple
##ine
stud
##ates
two
data
##unc
se
##tical
##erg
anal
pres
##tain
form
rec
sol
high
##por
##ound
##erv
##yn
##ens
field
pa
po
equ
these
el
cor
##ong
using
based
##agn
inc
fl
func
results
##ack
##ory
##ility
pl
em
des
##uch
##ization
##so
##ors
##ard
num
acc
all
differ
obs
time
##ax
trans
##our
##ension
##est
##ight
##age
propos
##enc
##trib
fr
also
ab
##ph
##olog
##ection
##plic
##ative
##ust
vari
mul
##ech
##ue
reg
##ist
have
##ree
mo
disc
##oth
quant
##een
##ite
quantum
##di
##ang
##ew
##ics
##ion
##blem
betw
between
no
problem
inv
##ynam
observ
##ures
such
multi
energ
##ning
##ature
sub
models
not
##ating
new
##ide
lar
super
##etwork
##yp
has
one
und
network
##ond
##ex
study
paper
partic
prov
dec
##port
dim
##cess
exper
meas
magn
scal
##ep
present
struct
es
cont
##gr
inf
col
approach
##etic
##aph
lear
##ied
ind
##ark
dimension
char
##gh
energy
##ential
##ized
over
##ely
##ability
general
##ithm
exp
##gor
ass
##ici
param
##ip
##adi
set
under
sign
##ill
constr
how
experim
pol
perform
state
man
##ual
loc
mass
sur
##ber
val
##ific
##mm
##inear
##les
low
##ev
order
##ther
dynam
its
their
effec
function
math
theory
space
dep
##ome
proper
more
##ob
algor
fe
algorithm
sam
##ros
bound
sm
out
distrib
class
grou
cur
systems
paramet
star
cou
large
process
typ
##mmetr
##anc
ver
simul
find
corr
##ational
li
##vi
##ected
different
##pt
fir
learning
spectr
##her
analys
gal
##action
where
compar
first
##ma
both
##onstr
up
##ian
consi
ag
obtain
##tiv
red
work
tem
##int
id
pre
##ose
estim
well
cal
consider
optim
##olution
##ile
##utions
electr
##edic
##au
##istic
than
graph
rep
##ize
##atic
##br
##ast
##ange
measur
##eng
spin
##fer
depend
lim
##formation
when
analysis
ext
##ise
##out
vi
##sition
expl
number
been
sing
dem
predic
##now
bl
##ail
coll
real
##sive
##dition
##ural
am
spec
phase
use
comple
used
##00
##ement
desc
##ni
applic
##ency
dir
##ator
group
##ole
produc
##old
limit
##ets
some
properties
##atter
##lud
oper
local
dimensional
he
##ically
##ensity
term
uni
##ism
##ently
pos
into
proposed
methods
structure
ge
comm
comput
##acter
##tig
magnetic
##iven
radi
tech
there
sel
hy
##velop
##bit
def
repres
character
know
only
min
##ometr
br
sch
der
fram
galax
##ject
analy
demonstr
sec
##cul
resp
cr
but
other
case
##row
##ior
dom
pot
linear
##ases
temper
inte
##ll
##ined
##over
experiment
##vely
develop
##ks
##ov
coupl
complex
##ord
performance
phys
states
##ub
calcul
dr
##onic
information
inves
phot
investig
##ological
##ty
##als
approx
symmetr
so
strong
##ann
##ication
density
##ish
##earch
##ive
##vers
##rough
##ever
##roduc
represent
includ
##are
impro
##ities
determ
plan
##rop
discus
small
train
introduc
top
10
distribution
effici
##sible
##ission
propose
through
however
contro
sour
three
##ings
if
conf
##par
pow
potential
neu
##ext
clust
type
gl
while
##ene
level
prob
approxim
##ted
surf
##atis
exam
##ption
##gebr
correl
sem
then
##atures
gam
##ions
extr
fact
lat
##ke
aut
##anti
##echan
##ments
discuss
##ality
##ues
##jec
beh
point
##low
reduc
most
fur
incre
##rib
each
fre
neutr
##ology
numer
functions
##ten
particular
##ages
power
allow
single
##ework
##ness
framework
signific
##ength
er
##aces
ray
##ross
##uld
design
requ
##oun
networks
constrain
identi
temperature
finite
mechan
do
integr
tas
##cop
accur
##pr
##ix
algebr
mon
dynamics
lead
##ators
scale
##urb
cap
comb
##und
curr
due
app
provide
parameters
##round
provid
describ
may
any
wave
observed
grav
behav
##ton
##tivity
techni
techniqu
##aus
significant
result
##ta
obtained
##ft
##ns
given
##chi
cent
mean
found
##ector
equation
##ples
##verse
max
theor
##oci
range
rand
##tial
conc
##acy
car
##ertain
##fy
was
random
many
achi
interac
rob
##ete
del
##aw
map
minim
##ort
##ision
long
20
##ucle
##resp
effect
addition
rem
datas
light
parameter
##assi
##tinu
solutions
equations
##ward
##ves
##ier
##vious
##alu
quanti
they
corresp
correspond
here
stand
##astic
exc
near
sever
cod
demonstrate
##con
##ays
therm
terms
bi
##ulation
domain
nucle
sup
import
dist
##ric
flu
within
previous
frequ
evolution
##ind
geometr
evalu
##edi
cos
ent
deg
##ful
mic
effects
##lu
##ffici
##its
main
classi
##itud
##cal
experiments
bet
known
##ines
rate
surface
transition
flow
##fication
second
av
##ditions
associ
deriv
deep
times
##ym
solution
##ces
##ences
conditions
##ements
inst
applications
extend
##otic
ins
numerical
continu
lo
several
mom
prove
##ensi
bec
standard
free
fields
##tice
simil
gamma
exis
matter
recent
##ved
go
will
optical
consist
cosm
effective
detection
##gg
##led
conn
imp
##ving
##sc
theore
galaxies
experimental
simple
neural
control
mak
abs
current
back
##ger
log
compon
assum
pair
image
polar
maxim
stars
band
ful
cri
novel
problems
##ression
similar
##ough
via
emission
schem
like
simulations
observations
possible
features
very
prot
shown
cluster
##ances
##ps
sequ
peri
mathb
##ormal
##ane
##orph
same
##inc
##ost
interaction
##uring
subs
black
##rix
electron
##ath
classical
alph
##och
err
##ice
##put
ini
##ero
conver
training
##ables
weak
const
chall
matrix
self
induc
spati
size
##ern
vis
##cc
##ress
syn
multiple
critical
statis
algorithms
nonl
higher
algebra
sugg
various
including
period
##eg
ele
about
alpha
prec
##roscop
##ellar
##turb
particle
ed
compared
##tively
##get
objec
scatter
##ination
##lish
measurements
conv
##ock
even
optimal
lay
##ateg
coupling
formation
##inary
exist
invari
important
tak
##annel
source
pop
ser
atom
spectrum
mechanism
end
further
mol
four
investigate
associated
underst
quas
orbit
moment
ferm
##ms
symmetry
formul
##pec
add
ke
channel
fil
test
##ron
spectral
without
value
gas
##eter
direct
perturb
were
contrib
##erial
cross
line
vel
cir
mix
improve
ang
mu
##tern
behavior
##ymmetr
analyz
##abil
glob
molec
hyper
sl
mas
lang
compl
lattice
veloc
imple
##amb
mathbb
values
##ping
##ift
frequency
##ections
##ised
orig
rot
search
commun
##mentation
##ade
rati
##tional
origin
##izing
existing
##da
env
call
sum
pi
##plicit
fol
##uction
interactions
##reat
##epend
text
research
relati
give
nonlinear
spe
##ified
way
enh
dark
unc
ii
cy
reson
##oy
ear
circ
independ
##usion
nat
##iron
requir
supercon
achiev
region
appl
boundary
##iter
environ
foc
##ints
indic
corresponding
##ising
robust
zero
progr
efficient
factor
##ould
accuracy
ref
condition
adv
images
noise
construct
compu
af
langu
##omial
sample
dev
coun
##ild
contr
excit
related
scen
open
prim
##te
##ire
##one
mach
posi
gau
scattering
constant
ir
material
specific
##ival
follow
lower
elect
galaxy
##ld
transform
##ner
autom
understand
theorem
##bed
mem
superconduc
theoretical
##sh
conduc
##ifold
those
physical
##ino
focus
##onal
regular
##itude
adap
structures
approximation
studied
finally
##ules
during
thus
techniques
hom
bar
processes
occ
grow
vol
task
##oid
them
tun
##verage
hal
avail
allows
##romagn
separ
introduce
##ropy
nan
relations
##ount
osc
##oss
initial
est
##amil
##esting
consistent
gravit
oscill
lab
contain
discr
##ein
groups
clos
19
need
optimization
lamb
##asing
enc
report
off
recently
##agr
topological
##ling
particles
scenari
##ablish
##idence
pul
##ible
presented
establish
stellar
exact
polyn
tra
physics
bel
bu
##ains
hel
studies
rm
##ants
##ogene
applied
##ensive
application
surve
representation
gauge
provides
##ympt
lambda
##po
tar
wor
velocity
classification
quark
##ral
hole
constraints
asympt
scheme
##ware
##ily
##ching
##tics
shap
correlation
approaches
context
polynomial
explicit
##til
##ense
decay
##ustr
princ
thermal
##of
pe
spatial
##ices
ul
vector
medi
ampl
asymptotic
dependent
spect
ep
hum
att
global
cases
##ensor
bo
##up
##eti
part
error
available
challeng
induced
strateg
##lying
simulation
phen
points
##yst
graphs
infin
bre
##gs
##fore
gu
certain
##ploy
mathcal
scalar
presence
##hib
##eness
##tal
loss
measure
arch
motion
characteristic
path
prom
sig
expon
regim
detail
sk
##not
om
tasks
converg
art
resolution
human
spaces
aff
derived
spectra
##aging
hard
##omen
signal
##ately
##lo
sources
flux
probability
dynamical
##ho
##ochastic
delta
##actic
##ilib
##effici
distance
stochastic
wid
tool
existence
fix
embed
ide
language
##bility
##ield
continuous
sigma
soft
bro
neg
201
key
called
##ule
infer
##ament
after
patter
phenomen
law
could
generalized
fraction
gap
independent
length
##idual
transi
ell
##adr
short
##cept
address
generation
transport
step
machine
##ledge
manifold
##ture
considered
hand
##sequ
knowledge
derive
invol
datasets
sensi
mark
ratio
program
dual
##ilibri
##pret
dataset
3d
radio
transfer
operator
pers
code
##ground
compact
ax
cost
##ient
gaus
##pir
##view
normal
estimation
background
dou
dependence
fut
operators
momentum
##inos
charge
##dro
sin
fluct
embedd
fluctu
feature
enhanc
##tically
##sian
interpret
ground
prop
##fied
bod
reve
coeffici
identify
##de
distributions
anti
##ually
appear
along
##ench
few
future
differential
exhib
##aneous
200
##king
squ
et
uncertain
ion
defined
significantly
loop
##aves
har
cell
ma
hol
objects
ques
##line
technique
relativ
##raph
lum
natural
##oud
intr
valid
generated
gravitational
common
##ibr
##ega
world
##eler
series
describe
##romagnetic
##ared
nod
does
##ining
gravity
chang
relation
##uted
layer
arbit
prof
better
respon
arbitr
au
##angle
##bers
equival
invariant
toward
##igur
moreover
view
production
positive
developed
##lic
role
shows
examples
##ced
fund
less
##red
##iss
sets
util
##ests
omega
descri
##ead
pm
##ins
require
coupled
##therm
setting
binary
ill
##ilibrium
total
seg
modes
beam
stability
##till
##cd
input
quality
full
##eve
##ooth
ultr
##ably
among
measurement
respec
dynamic
caus
driven
occur
complexity
##ute
explain
regions
##izes
##ogeneous
##ause
efficiency
##war
cloud
prediction
break
##tonian
photon
cm
solar
fixed
component
gradi
princi
target
12
##ety
clusters
action
cryst
##itect
aim
symmetric
proof
hydro
synth
univers
fundament
techn
suggest
architect
detect
mode
satis
arg
##equ
environment
around
##thermore
furthermore
##ference
object
od
##itting
atten
central
massive
sequence
cyc
computational
discussed
##ither
calculations
##osph
##iral
gaussian
##taneous
##tit
molecular
ens
cre
##ove
estimate
complete
wide
acceler
suc
diffusion
statistical
plane
##ars
sit
domin
heav
mes
smooth
body
unit
learn
bos
##esis
configur
##val
##af
propag
yield
example
edge
geometry
measured
theories
arr
computation
understanding
being
lin
average
expan
metric
coher
##ick
survey
bounds
disk
##ok
##rm
##omal
support
reconstr
##oint
tri
weight
stable
eig
extended
transm
entropy
hamil
functional
##tices
plas
extension
determine
expansion
ever
##gen
ran
indiv
good
controll
sw
anomal
comparis
tor
neutrino
discover
##que
insi
conject
discrete
fundamental
convergence
degree
relev
spectroscop
expected
prac
regime
##ots
special
representations
increasing
across
resulting
dimensions
maximum
components
let
label
much
##stein
##tor
##ped
redsh
##isions
ro
chem
strongly
agre
leads
modeling
##omorph
often
##eam
right
best
equilibrium
##ecess
dow
respect
bran
year
##mark
impact
types
broad
absor
maj
fast
masses
eigen
whose
larger
##fic
supers
arbitrary
explo
beta
##ymmetric
bul
##vised
##ify
sn
evidence
pub
major
review
##lation
extrem
strength
since
formal
quasi
suffici
leading
##ecting
tel
core
pur
user
respectively
individual
puls
##poral
##ia
infr
visual
relative
##aries
##vex
scaling
##oring
sci
predictions
employ
tensor
necess
introduced
press
wa
ren
##omm
highly
achieve
hamiltonian
altern
attention
possi
eng
##isot
iss
##ges
additional
rates
either
##ticle
11
variables
speed
nature
above
##zation
##iting
upper
lik
parti
parall
uniform
15
wind
population
radiation
##ification
account
version
algebras
neutron
anisot
therefore
##less
bench
estimates
cosmological
fac
every
rad
analyze
implement
emerg
formula
nuclear
##entially
##ged
##sil
##read
partial
vac
compare
heavy
interf
fluctuations
influ
samples
nam
hig
waves
##rees
##pling
benchmark
description
##ium
computing
limited
growth
run
change
post
##hip
gradient
##tinc
##ropic
cho
reveal
accurate
##ured
compute
100
illustr
active
classes
nu
higgs
elements
build
volum
element
decom
response
fully
##ased
analog
recog
behavi
##icity
communication
string
fluid
correlations
far
described
polarization
towards
processing
temporal
las
seman
success
apply
relativistic
agreement
close
consequ
##silon
peak
comparison
minimal
prior
investigated
##abilities
fam
property
event
la
quadr
shape
##olation
product
index
##bol
make
##vari
interest
scales
galactic
parallel
expression
determined
increase
intern
##ially
##pc
confir
closed
2d
##ives
##agram
construction
convex
suit
attack
##for
liter
because
##arch
sat
able
lines
maps
proced
##time
resour
ast
decre
electronic
infinite
systematic
diagram
still
direction
##urst
distributed
##ograph
lif
cosmic
refl
resol
should
##ored
modul
##anglement
trained
great
magnet
cle
memory
##hom
##ether
geometric
##onom
double
least
encod
##li
materials
vide
dust
evaluation
qcd
bounded
spl
micro
##man
imaging
events
performed
##hold
relevant
frac
reas
pressure
##iving
literature
##icul
again
development
variable
spher
ord
changes
question
play
devices
##arrow
pse
##ener
previously
means
pseud
##ides
mathrm
##inal
entanglement
##quid
vir
##ee
accre
##encies
soc
13
universe
##omes
liquid
negative
cand
poly
magnitude
angular
iter
made
numbers
##ensing
##ather
family
conven
##produc
##inosity
luminosity
ess
disper
##cs
counter
fer
##forms
curv
##ective
consis
semi
singular
reduction
explore
##gan
##electr
##tric
energies
collisions
##arse
selection
down
empir
basis
contribution
chiral
specif
cd
periodic
would
##nn
conjecture
##back
cond
planet
##ater
integral
outper
##position
##odynam
concept
##truct
users
inequ
reduced
lie
##ematic
hor
coefficients
infrared
##ming
factors
rank
candid
contrast
tur
curves
ans
connected
polic
inference
provided
##ometric
##air
predict
relax
##rices
heter
years
tau
feed
##ument
gev
filter
strategy
reach
simultaneous
##ects
surfaces
##ptions
##nov
track
##escop
obser
center
extern
redshift
##reshold
improved
underlying
hier
telescop
transitions
specifically
turb
eas
##etric
difference
directly
required
##urity
phases
matrices
scenarios
hierarch
##ef
enti
rotation
##reg
##though
metal
threshold
bey
although
beyond
extract
van
motiv
pairs
##by
##ler
holes
##brid
ellip
qubit
uncertainty
fermi
shar
medium
sym
universal
incor
##monic
difficul
evaluate
wavel
electric
##atory
generate
##most
##dynam
bulk
##ivial
##ss
mill
exch
##warf
metall
variety
limits
generalization
area
ris
condens
flat
volume
chemical
force
recover
abund
hybrid
external
##atively
early
restric
analytical
##lusion
curvature
##xt
amplitude
serv
reason
##order
relationship
orient
detected
##ering
dop
architecture
##nition
fit
resonance
phi
observation
position
solve
scenario
computer
patterns
against
cat
##apid
conform
bay
calculate
atomic
useful
calculated
dwarf
block
##pu
##avity
interm
requires
align
assess
protoc
electro
treat
joint
reproduc
achieved
##icon
##cep
measures
advers
vary
radius
exhibit
orbital
##10
kern
##instein
accretion
turbul
##entr
convolution
absorption
detector
almost
##eless
priv
social
chain
##ash
coord
segmentation
kernel
defin
laser
whether
sampling
distinc
vacu
##plac
bayes
heat
making
following
equivalent
include
article
algebraic
extensive
confirm
infty
challenges
mar
depth
protocol
##inger
##den
next
challenging
unique
projec
einstein
cannot
##ighb
land
thermodynam
neighb
rapid
reli
##let
angle
jet
plasma
thin
interacting
monte
rich
structural
carri
below
signals
principle
precision
carlo
##izations
tree
mixing
inverse
minimum
had
adj
cover
determin
16
advant
##ae
recognition
##fr
implementation
horiz
interesting
14
rev
##aving
##urr
characteristics
word
procedure
domains
##eck
detailed
simpl
incorpor
##ained
what
necessary
superconducting
ring
traject
##bs
adaptive
influence
##pa
##lex
coherent
software
transmission
codes
graphene
corrections
##isation
bright
analytic
##itt
##son
##pose
automatic
slow
##jection
##rt
##omb
practical
hist
##ition
emph
exchange
atoms
sq
capac
designed
##ii
gives
original
norm
conventional
manifolds
temperatures
perm
##atch
##gn
station
statistics
concentr
atm
##berg
smaller
electrons
criter
cam
bias
reduce
##ores
ensem
##reen
attr
##bly
disorder
predicted
tradi
output
##tiveness
trap
combined
pack
act
reconstruction
degener
combination
microscop
sensitivity
##ediate
##osition
hyp
fail
quantit
##ologies
breaking
atmosph
magneti
enhanced
renormal
##hood
behaviour
forms
##hic
access
semantic
engine
levels
video
##he
online
nodes
schemes
suitable
feedback
produced
##yl
##sk
phon
##ope
spectroscopy
public
##ymmetry
sus
bary
clustering
depends
supervised
curve
##oper
kin
##ategor
fermion
summ
become
accord
demonstrated
uses
must
sufficient
proton
##enge
##eline
##omp
vacuum
rig
propagation
link
channels
perturbation
compos
##20
dispersion
empirical
auth
##olds
vert
solving
espec
rather
preserv
##sip
bayesian
approximate
fine
challenge
especially
dip
increases
left
adm
cool
dirac
answ
identified
##oration
evol
width
organ
wavelength
theta
##ensities
color
merg
insigh
yet
static
combin
lh
intrins
toget
together
mechanisms
insul
decision
exponential
##arily
formalism
##ises
charged
complet
##other
final
kine
30
situ
produce
conserv
define
##ights
constructed
effectiveness
radial
adversari
help
coordin
##ott
latter
bal
valu
decays
##pects
##ital
modified
lept
metr
square
section
orth
formulation
quer
clear
leq
##enting
ri
covari
mixed
dense
dissip
halo
layers
contributions
categor
telescope
continuum
sparse
activity
##art
works
##ra
correct
considering
cruc
##ibility
hypoth
flav
##active
content
25
horizon
isot
##electric
##ectors
boson
sensitive
finding
dig
##flow
arti
##pri
##eric
##ema
errors
adversarial
sky
distinct
calculation
plat
decomposition
life
mac
connection
half
tools
fractional
flows
interface
pattern
polynomials
tev
ret
##bert
regression
instr
ga
morph
##ids
observe
adop
presents
implic
rho
regard
bin
matching
##alog
intermediate
correlated
findings
electromagnetic
##bolic
another
agn
transverse
div
metrics
guar
alternative
synch
strategies
##ood
##itz
guarant
supernov
18
enables
##elian
lhc
circu
##tt
construc
namely
elastic
appropri
vertex
##cl
subst
##tors
shell
ones
traditional
impl
homogeneous
ability
satisfy
variation
according
wall
importance
##eli
##gc
objective
quadratic
ve
weighted
promising
rece
epsilon
localization
##sm
wal
cp
tex
##imin
sqrt
##ogen
##ided
##itudes
degrees
indicate
integrated
##io
successful
makes
##ading
host
##zed
##to
remains
typical
devi
stream
generating
testing
eigenval
configuration
sequences
##ematical
constraint
##hz
realistic
relaxation
hall
water
##ug
explicitly
ly
mapping
uns
instead
##bi
established
upd
avoid
bene
environments
constrained
cu
varying
providing
discre
##play
stage
generic
contains
50
shift
oscillations
goal
##roph
possibility
attrib
becomes
basic
crucial
agent
retr
perturbations
##onical
##anced
##ifts
rein
robustness
##arities
intrinsic
##ven
conformal
lagr
subset
probe
axis
##emann
##bo
transformation
neutral
##edom
pass
instability
reported
ads
achieves
##ories
glu
crystal
ox
harmonic
exists
variations
showing
tail
thir
geq
policy
contact
##ah
likely
risk
##ayer
##nel
lack
wr
calibr
aug
trivial
phenomena
##ne
flex
##reh
nuclei
assumptions
med
hot
equal
topology
notion
match
experimentally
having
differences
agents
##agonal
frame
estimated
den
##know
##iles
diver
initi
characterized
capture
nm
ideal
hub
##na
fib
##ategory
compreh
multiplic
upon
competi
##fect
hence
vehic
##mann
earth
##isted
overall
abelian
array
adapt
characterization
##ways
outperforms
##iev
analyzed
synthetic
stationary
rational
characterize
taking
##ocks
visc
widely
##ometry
involving
riemann
seen
internal
forward
device
variational
essential
excitation
##here
inner
profile
decod
suggests
interpretation
five
17
##tingu
speech
exce
inflation
mechanical
illustrate
perspec
##tinguish
implications
convolutional
collap
take
sil
security
dam
interference
identification
amount
module
##wise
embedding
##bon
expect
##omorphic
depending
larg
particularly
simultaneously
wir
densities
yields
sd
ll
desp
assumption
big
eta
taken
intensity
deform
despite
##tz
popular
thick
collision
pic
reaction
cas
##times
pure
delay
configurations
capacity
remain
vanish
separation
solit
computed
##forc
hydrodynam
integer
##omorphism
potentials
##ry
##alities
anomalous
##olar
substanti
unknow
##uter
kinetic
treatment
##iant
##era
typically
monit
##iver
last
examine
virt
privacy
mechanics
modules
canonical
##net
efficiently
orders
mathematical
category
swit
##acts
photons
includes
##ficial
var
agg
##ipar
##utative
tuning
##uments
sense
improvement
proved
composition
ms
##cent
elliptic
relatively
though
locally
third
appropriate
burst
spacetime
applying
tests
markov
resource
##ulations
remark
inters
generally
aspects
unknown
coefficient
consists
conclud
numerically
maximal
ps
parad
see
tunnel
##angian
science
issues
##ters
ram
selected
annot
##alth
##utes
before
conduct
##ips
rules
age
photo
might
consum
##graph
ngc
quantitative
cha
molecules
inver
bund
difficult
##elf
partition
##urally
saf
viol
recomm
##ans
uv
frequencies
game
qual
effectively
orthog
##ancy
supersymmetric
km
choice
ai
##oph
collid
highl
issue
assuming
si
##ited
##ease
##ortex
cut
stat
ensemble
complement
discovery
sr
hop
cub
stress
hil
profiles
##ensors
psi
operations
##forcement
##posed
shock
ratios
pd
facil
##ands
note
collab
side
node
##plet
lagrangian
forming
##gin
perturbative
##idden
intell
shear
kind
explan
199
mut
inspir
##ump
##ites
pc
implemented
sharp
technology
rise
vertices
driving
weakly
controlled
mev
evaluated
##ends
motivated
benef
simulated
##lier
cavity
base
vortex
allowing
programming
anisotropic
htt
face
##ci
attacks
pseudo
precise
embedded
te
solid
##yr
ca
spherical
phenomenon
combining
fermions
now
mi
##puts
iii
symmetries
##aster
aggreg
stabil
usually
mid
argue
kinematic
distinguish
famil
vision
##come
capt
rang
correction
youn
reference
perfect
reinforcement
dm
lor
satisf
mob
##ull
hydrogen
intellig
imm
##arithm
couplings
enab
observational
building
hyperbolic
rule
freedom
##plan
formed
express
hilbert
aver
##odes
probabil
prime
##ote
turn
implies
mm
qualit
##ken
branch
21
additionally
rely
##isson
manip
probabilistic
acceleration
fusion
cycle
radiative
enhancement
inside
edges
diffu
bands
resolved
fill
variability
##cale
satell
classif
diam
comparable
operation
poisson
gain
primary
deploy
sun
subject
detectors
##inement
##fs
rotating
splitting
dominated
renormalization
phonon
##uration
generative
always
anisotropy
tracking
needed
resonant
antifer
exhibits
40
box
integration
offer
inequality
candidate
bor
principles
sensing
improves
subg
narrow
fu
true
##az
combinator
##ffic
polarized
robot
naturally
expressions
planets
##50
pb
##iti
ml
##ocal
purpose
##ucl
nucleon
amplitudes
planar
completely
similarity
interfer
##jected
actions
traffic
feas
aims
##unction
brow
giant
moving
24
localized
doc
##lin
extra
record
containing
fourier
location
concer
spread
imag
pen
moments
scienti
past
white
cold
##erge
latent
observables
media
cop
pulse
turbulence
##orous
duality
##off
questions
##ict
subsequ
dipole
six
digital
cooper
##aul
ow
cohom
virtual
logic
diagn
fair
hierarchical
comprehensive
compan
sensor
community
orthogonal
##ography
species
##press
powerful
carbon
deformation
war
maintain
she
ultra
diverg
comparing
mag
young
nearly
enough
abundance
##actions
##oidal
##ring
products
artificial
exactly
distances
##elihood
interp
gover
appears
settings
quantities
cooling
##way
##atives
##bles
hadr
##sim
##ake
likelihood
resources
enable
rays
logarithm
trig
frag
clouds
autonom
retriev
conclude
orbits
advantage
##ems
translation
air
consistency
bri
sphere
acqu
tight
##otyp
propor
##igu
glass
odd
categories
lever
mobile
perspective
whole
equivalence
experi
deterministic
compati
##ired
transformations
shot
##eed
requirements
##co
##itely
sections
grid
hypothesis
chi
miss
occurs
nav
read
constit
excitations
counterpar
faster
collapse
wireless
##uth
earlier
##oustic
extreme
consequence
dil
##rophys
##eady
draw
sector
metallicity
##ived
datab
variance
ic
cells
causal
synthesis
##entz
synchron
films
instance
baseline
diagnos
easily
thermodynamic
describing
https
directions
##ky
neutrinos
anomaly
modelling
##aded
generalize
improving
spectroscopic
##sp
23
astrophys
semicon
##nns
##mon
parts
hadron
##idel
##ixel
assi
weights
polym
fav
place
##ilt
excited
idea
learned
takes
brief
##tron
##cri
paradig
hidden
health
distor
parametric
unified
violation
increased
subgrou
fron
methodology
investigation
monot
candidates
whereas
caused
lorentz
recommend
##ocation
meson
employed
ur
##ithub
uncertainties
github
absol
facilit
conductivity
project
suppress
volt
22
eucl
##ening
brown
definition
manag
nl
coul
##yc
mir
bose
odot
sizes
describes
poor
diverse
engineering
bil
projective
##zz
modular
quantization
coulomb
spatially
kev
##stellar
##rel
families
circular
collective
mis
analyses
##tives
##ply
##ley
invariants
barri
##ularities
jets
studying
sufficiently
preserving
superconductivity
##ressive
amb
insights
tested
query
extraction
expand
concentration
affine
carried
##ulated
aware
coherence
excess
vers
canc
arise
prefer
autonomous
neighbor
abstr
vl
##ittle
approximately
mn
flavor
web
unli
tre
##oming
nois
##ares
##uper
progress
semiconduc
trees
uniqu
vectors
##go
chains
steady
quantify
triang
degenerate
mainly
magnetization
gluon
asymmetry
bott
recurr
architectures
tunneling
inspired
##ape
conditional
##lap
prox
interval
reveals
manner
bf
##itten
move
modern
mim
pixel
ball
inhom
coinc
stack
microw
##iers
exec
disks
erg
##ds
suppor
arising
currently
##oles
##ious
outer
##elastic
lens
mc
lattices
reduces
##uler
herm
dominant
acoustic
##wid
subsp
valued
superior
catalog
estimator
brane
outflow
##width
conj
##anning
##istance
extensions
entire
##pler
##angled
collected
care
unitary
vor
mil
spon
trajectories
remov
labels
get
solved
classify
alignment
cite
site
bond
modulation
starting
extremely
accurately
isol
forec
ferromagnetic
##tructure
green
##ru
vo
platform
spontaneous
moduli
landau
hardware
negl
forces
compound
theoretically
planning
inequalities
##ret
circum
##cepts
asymptotically
compression
fitting
##enberg
##err
##burst
##abatic
commonly
##ready
already
xi
criterion
##idean
populations
bol
aud
regularization
euclidean
microwave
net
constants
absence
invariance
discrimin
heterogeneous
##unctions
determination
supernova
emphas
unst
##ffer
##12
rough
relativity
recon
diffr
consisting
sal
cohomology
areas
combinatorial
##itted
limitations
conclusion
steps
00
dri
nor
enhance
medical
nonc
transformer
stor
just
ste
pion
trade
surveys
microscopic
ordered
answer
extracted
protein
##idal
##anck
assumed
games
regimes
mess
reliable
little
##oh
parity
approximations
dot
##ging
diagonal
resonances
strain
dissipation
pp
##side
inher
industr
##eties
##uli
discovered
##omic
##set
evolutionary
kap
diagrams
rightarrow
##ectic
bes
showed
attem
deal
baryon
noisy
##ention
suggested
correspondence
rigid
binaries
confidence
explained
projection
crystals
measuring
concepts
##ades
storage
transl
##iction
residual
pip
##aged
scientific
sched
##upervised
planck
pati
insulator
cosmology
brain
asymmetric
##istr
singularities
paths
monitoring
verify
potentially
superf
velocities
unsupervised
ber
usual
exponent
##ectivity
photometric
calibration
accoun
trajectory
allowed
oc
greater
bit
demand
conducted
##emic
indicates
ions
euler
automated
holds
overlap
##ticles
##itive
itself
voltage
inform
capable
weyl
##ili
instant
formulas
ghz
substr
solv
refer
##inding
underg
##ident
predictive
##mc
trace
partially
absolute
##iding
assign
practice
mitig
successfully
derivative
history
cnn
exploit
sound
embeddings
root
holog
##pot
circuit
schr
##cepti
rings
na
kn
differenti
adi
spac
restricted
activ
summar
##osen
regularity
introducing
management
communic
collection
kappa
turbulent
##ze
yang
capabilities
particip
lepton
ra
eigenvalues
ni
walk
retrieval
service
done
hi
built
market
drop
reducing
nucleus
##osity
pose
analyzing
fed
reasoning
gate
##vity
connections
decrease
words
mathbf
structured
quarks
criteria
sequential
involves
##eta
performing
##abol
ban
instrument
appar
improvements
detecting
determining
vibr
signatures
unstable
picture
laws
planetary
coding
camera
thereby
languages
strict
transient
vanishing
##urf
analytically
identifying
reconstruct
cs
reflection
iterative
affect
fold
##oher
60
nearby
##odal
##band
qubits
assem
trac
possibly
paradigm
branching
compatible
rou
oscillation
##ists
##pled
onto
create
holograph
princip
publish
##plectic
##acting
assume
missing
##bl
adiabatic
econ
##eds
superconductors
defects
late
##ographic
fract
##isely
##21
automatically
estimating
##reduc
integrable
theorems
meta
entangled
discon
satellite
##tite
nanos
discreti
lensing
suscepti
##itter
surround
isotropic
observable
clin
flexible
pt
iden
000
score
meaning
infinity
sent
revealed
rotational
bosons
##ivari
##oplan
##versity
proposes
ec
##ulate
unlike
##izable
implicit
##portun
opportun
slight
largest
adaptation
atmospheric
integrals
prototyp
##ees
##app
understood
colum
##mented
advantages
crystall
##cence
chrom
binding
technologies
changing
kpc
##ours
details
boundaries
ising
textit
varieties
theoretic
subm
##okes
##ube
longitud
cov
located
achieving
condensate
cubic
##aton
mesh
later
pulsar
mixture
heating
sensors
precisely
oriented
##eak
never
screen
bh
##fact
##eters
smart
##lusive
ordering
singularity
relies
discussion
##gers
auto
doped
surpr
exploration
geodes
isolated
null
##erior
hierarchy
decreases
outperform
rest
bur
carry
persist
demonstrates
probabilities
orientation
trigger
directed
represented
advanced
ordinary
##luid
focusing
attract
mg
cmb
abundances
highlight
principal
plays
envelop
##vities
##ilation
collider
quite
fidel
##ata
multim
poss
explored
riemannian
validate
parametr
composite
optimized
irreduc
limiting
##well
switching
applicable
corresponds
excell
offers
addi
cycles
extends
##ski
links
introduces
check
mor
rare
jac
antiferromagnetic
mirr
fab
mer
film
growing
hd
permut
anten
fiber
photonic
running
follows
##ik
stokes
rapidly
##arity
signature
labor
revers
protocols
reproduce
##nih
developing
fo
90
card
prev
##har
computationally
##tream
moder
tend
##assive
##odic
##frak
database
eu
too
##60
electrical
##tructures
mathfrak
behaviors
safety
ways
##imeter
needs
logarithmic
##ram
employing
twisted
metallic
bub
competitive
day
hold
mal
scene
thickness
##aim
coordinate
consequences
rigorous
secondary
##entric
##ode
rl
conversion
spiral
chosen
##oll
iner
currents
sites
load
silicon
##oti
hadronic
ded
inputs
proportional
explanation
realized
##acti
elementary
ld
symplectic
included
##ones
##econd
diversity
expressed
longitudinal
nn
excellent
ionization
astrophysical
##gets
chaotic
gw
neb
pairing
superconductor
cone
created
longer
annih
perce
possess
indeed
searches
barrier
##aps
identity
dielectric
oscillator
spins
belong
confirmed
members
pulses
newton
inversion
coordinates
counting
benchmarks
loops
plac
macroscop
easy
her
torus
brid
##ned
fidelity
##uristic
window
extending
cust
##tivities
suggesting
coverage
authors
produces
responsible
emerging
##80
researchers
degr
oth
hubble
surprising
##itian
monol
neur
etc
doping
supersymmetry
substantial
utility
hydrodynamic
broken
predicting
casc
##ession
instances
##kov
mobility
supported
dc
heis
regarding
dots
np
##rs
involved
published
27
##ologically
manif
beli
programs
cause
heisenberg
claim
perp
highest
##abolic
##asting
bursts
biological
conservation
##osp
enabling
count
1d
##17
##oys
tack
shared
leg
hermitian
irreducible
##hd
interpreted
##epsilon
covering
##bal
others
covariance
accept
##ystem
shifts
automorph
arises
##ana
dwarfs
varepsilon
astr
jacob
desired
fall
chern
diffraction
strip
zeta
overcome
realization
##22
travel
reward
custom
qualitative
reactions
viscosity
##ometer
composed
tc
circuits
interstellar
tidal
homology
estimators
unf
occup
interplay
radii
capability
proxim
represents
allocation
insight
constructing
who
modal
muon
##orts
cli
guarantees
expectation
brownian
##uting
split
##14
technical
pin
indicating
factorization
setup
appearance
vehicle
nearest
shapes
35
##ba
80
electrow
oxy
separated
posed
utilizing
list
cyclic
turns
##ompl
mesons
revis
verification
relationships
linearly
macroscopic
brightness
##agnetic
begin
ba
##ilities
days
electroweak
##head
satisfies
cores
fluctuation
astronom
policies
computations
##ogeneity
balance
trunc
patch
sty
##30
ce
heuristic
##la
bandwidth
introduction
discrep
##kin
##pts
author
uniqueness
exploiting
document
additive
inhomogeneous
analogous
modeled
faul
epoch
##opes
motions
display
merger
deviation
ss
maxwell
libr
inclusion
identical
posterior
robotic
wise
##ifying
lowest
redshifts
##15
recur
units
##elines
conjug
concerning
assessment
dynamically
recovery
frames
supp
eigenvalue
besides
##gu
separate
ns
massless
26
clinical
noncomm
combine
periods
replac
sharing
mission
emergence
gold
##ending
oxygen
##sitions
covid
##place
##param
stronger
tension
positions
collabor
uniformly
##ople
##inous
confined
intelligence
scalable
##pus
targets
branes
drift
ranging
own
contin
thermodynamics
derivatives
##oids
affected
defect
wil
##comes
satisfying
##eting
displac
rg
focused
formulate
operating
##hed
mpc
stra
labeled
people
synthes
speak
ideas
retur
bundle
repe
classifier
ia
##els
angles
derivation
room
front
py
commutative
##ordial
complic
primordial
blue
##isms
briefly
photometry
consumption
sti
closely
contribute
adjust
encoder
##rich
disease
##radi
intersection
discontinu
column
benefits
schedul
costs
connectivity
flo
torsion
atmosphere
oppos
straight
modification
05
beams
purely
blocks
quench
systematically
##urc
superfluid
argument
vs
rf
generates
encoding
prepar
arguments
disordered
mills
holographic
multivari
services
simplic
magneto
careful
slightly
formulated
ct
impos
fal
advances
##ressible
predicts
gradients
hypers
named
zone
tom
conductance
cdot
audio
validity
molecule
odinger
fri
situation
acces
95
28
piec
visible
nontr
equip
away
fermionic
300
supernovae
decou
raman
resis
extent
##itation
undergo
bif
generator
vehicles
inelastic
recurrent
nonlocal
entr
suppression
trapped
queries
parabolic
schwar
strings
look
abstract
##ders
iron
exponentially
supergr
##igrou
confinement
followed
prel
recogn
essentially
decoding
mus
dirich
singlet
##placian
divergence
robots
##oted
##tine
subspace
shall
##imension
dirichlet
plate
accelerated
handle
nanop
ensure
polymer
deduc
##uk
consistently
orb
designs
compr
asp
laplacian
gran
mr
outside
##bard
##point
port
examined
morphology
intu
remarkable
doub
internet
spars
cellular
##assical
##ai
reliability
experience
cog
##ipartite
arm
hubbard
##otop
variant
genus
02
mirror
attractive
500
fain
##menting
keep
height
slope
##erc
calculus
why
##sch
microscopy
deliver
sitter
##ox
vertical
old
simply
arithm
bundles
70
diffuse
soliton
nontrivial
mathematic
once
damping
topic
hu
membr
##we
geometries
grb
##ude
violating
consequently
repul
increasingly
proofs
nebul
independently
unb
multivariate
##quark
deviations
obtaining
complementary
exponents
performs
llms
overview
interfaces
##ighting
charges
remn
descent
##lab
personal
exception
32
update
##igr
head
giving
iot
validation
gre
prelim
situations
dissipative
filtering
preliminary
companion
significance
semiconductor
marg
mutual
release
locations
compress
clearly
homotop
impurity
leveraging
##ls
##40
manipulation
bir
semantics
peaks
publicly
##ker
nano
proven
boltz
##iol
downs
coron
simulate
bosonic
cros
suppressed
arrays
sen
collaboration
timing
combines
switch
##axial
observatory
substantially
##umps
videos
pipeline
guarantee
secure
carrier
45
colour
boltzmann
trust
mostly
largely
perc
individuals
serve
multipl
evaluating
parton
optics
exploring
majorana
##ame
substrate
representing
twist
##hm
enrich
ds
##13
majority
##ifications
distortion
grain
grained
minimization
quasars
##ie
former
semigrou
coarse
leverage
exotic
optimize
phenomenological
association
utilize
contras
emo
kerr
sou
stages
tang
boost
subgroup
vul
pu
pec
##aling
##bar
generators
geometrical
designing
noncommutative
sf
schwarz
price
milky
lifetime
feasible
##awa
##algebr
adding
relevance
##be
##19
navig
prompt
##izer
bell
##enced
##inity
numerous
solitons
kinematics
da
diss
supergravity
##16
wavegu
hopf
analyse
decreasing
arithmetic
teach
fluxes
##sing
##ked
papers
quoti
##sibility
creation
nit
manifest
energe
environmental
dro
mel
iv
status
incorporating
diameter
##sively
##dle
##alactic
extinc
adopted
controller
##ensively
globular
ann
transpar
put
duration
##tered
style
md
##ensus
opposite
outcomes
scheduling
universality
gaps
date
tetr
##xiv
inferred
pay
ta
vortices
subsequent
annihilation
replic
students
covariant
working
ric
feder
##18
deformations
cour
throughput
guided
aux
start
person
holomorphic
requiring
halos
variants
expos
averaged
vulner
crossing
##las
jointly
ecc
##atz
##static
##jective
projected
hund
bottom
03
esc
assisted
arxiv
latency
mos
axion
skyrm
surrounding
ice
plus
facilitate
sums
filling
admits
counterparts
por
##zing
tuned
wavelengths
incomp
susceptibility
##cing
pros
bifurc
resistance
unex
##entioned
##des
cf
##etary
deformed
communications
applicability
failure
##acle
equivari
wilson
##iness
effort
##tures
multic
til
vic
33
distill
##prec
##ban
polyt
elimin
dram
supports
analogue
##ding
proposal
bus
decisions
lengths
##onses
fm
ol
29
round
versions
apparent
reasonable
responses
monop
aspect
neglig
necessarily
quasipar
##oherence
attempt
interv
coex
##ga
occurr
platforms
##icular
##bh
generalizes
quantized
##icl
laboratory
screening
luminous
led
##irect
written
crosso
cum
##ink
finitely
augmentation
migr
##ilde
contextual
##o3
##ey
compacti
penal
envelope
actual
helium
stop
bipartite
feasibility
execution
2n
newly
##bf
##etch
exoplan
reversal
initially
accessible
kle
micros
##iliary
evolving
losses
involve
quick
iteration
hat
anomalies
interior
cc
tilde
rever
uncon
##rob
recommendation
sight
##sities
mergers
##ended
inherent
representative
decoder
encoun
false
efforts
soci
##ita
select
##osphere
auxiliary
promin
##endicular
share
sa
perpendicular
kernels
simplified
cer
convers
comment
minor
ls
progen
clean
strengths
divis
##umann
##forward
agree
causes
acting
homotopy
intervals
competition
compton
greatly
arc
financ
favor
symbol
synchronization
integers
crow
versus
##eth
##omorphisms
junction
##owski
substit
constitu
##amm
optically
complexes
squares
moderate
axial
wavef
grad
expensive
mimo
##abi
incorporate
extremal
explosion
ultrav
##elling
chand
extinction
truth
imply
sne
##ery
surv
gan
triplet
hypersurf
cryp
##schild
##lind
charm
obst
neumann
remaining
adjac
progenit
algorithmic
exclud
##erve
private
shif
crossover
##70
ten
tackle
forecasting
accum
interpolation
downstream
baselines
##iolet
##ifies
decoherence
concern
producing
ultraviolet
counterpart
negligible
probing
aggregation
strictly
marginal
activation
developments
treated
expanding
demonstrating
team
behind
##ompan
tm
dialog
procedures
attain
filters
quasar
aligned
indices
##layer
accompan
##own
multimodal
landsc
randomly
##une
augmented
illustrated
empirically
fits
financial
rs
minimize
04
drive
instabilities
minimizing
consideration
complicated
onset
unus
observing
trend
squee
converges
##ented
benefit
backward
gc
sdss
peculi
##vin
requirement
reserv
flare
##istry
du
federated
equivariant
##crib
36
satur
outcome
quantity
fuzz
sparsity
considerable
induce
newtonian
##ovi
##rotron
throughout
fairness
defining
percent
75
contained
sv
posit
banach
ferro
hundred
rout
powers
adjoint
kepler
##anes
multiplicity
nanopar
pulsars
stim
gates
scanning
##ads
graded
suffer
qualitatively
physically
receiver
superv
indirect
##oscop
##imal
skew
tag
clar
propagating
shaped
synchrotron
neighborhood
prototype
ign
jose
valence
learns
machines
granular
tunable
focuses
infras
dimensionality
##onsist
characterizing
remote
##ospheric
overhead
saturation
##day
innov
chaos
prog
alone
extrap
guide
joseph
usage
ensembles
faint
added
viscous
deployment
bases
exciton
patients
ling
compens
##uning
##enet
compounds
hex
arbitrarily
comes
cogni
surprisingly
arrang
percolation
contrastive
intelligent
addressed
comparisons
fragmentation
assembly
yr
##chitz
normalized
dramatic
antenna
dl
##iclassical
alternating
geodesic
margin
##eding
identities
calculating
fractions
lips
##ubes
biom
affects
subsets
remarkably
condensation
plasm
attributes
combinations
##aining
render
seems
dna
conclusions
message
irradi
histor
except
outburst
##unov
99
controlling
susp
toler
##dr
coronal
primarily
triangular
##ovian
genetic
##cr
spanning
received
discrepancy
cylind
josephson
##dm
triple
imper
practic
master
verified
trends
mp
optimizing
identif
his
lesssim
spheres
bath
##ung
outputs
package
cancer
activities
cognitive
quantitatively
uav
spi
##ush
crypt
degeneracy
interven
az
ingr
until
##eq
cn
mining
zer
fluids
lipschitz
completion
38
consensus
34
utilized
decent
validated
injection
##eres
repor
##dynamics
isomorphic
##hler
##coming
##len
subgroups
poinc
properly
shocks
evaluations
h2
curved
telescopes
occurrence
flexibility
fault
cooperative
ranking
grains
ecl
##unch
unbound
##hol
solvable
##23
crystalline
neverth
##11
ho
humans
##imet
nevertheless
##going
subsequently
sob
klein
##oir
##fe
interactive
##uctions
lam
realize
randomized
inconsist
shor
difficulty
attributed
nil
disturb
##iors
cart
##ales
cach
relate
37
friction
classifiers
##ondo
functionals
gauss
considers
circle
fractal
maintaining
specified
heteros
enabled
walks
ru
nonlinearity
##oor
ferromagn
##bm
##ale
applies
cft
walls
initio
antic
determines
kinds
converge
mediated
thor
intra
##ionization
adapted
junctions
ricci
ingredi
illum
quadrup
monotonic
resolve
44
##bilities
##actable
ambigu
routing
valuable
refr
##ested
##apunov
arcs
induces
anne
implementations
choices
seem
spacetimes
server
##box
mink
pn
sg
clim
cdm
pm0
decades
##ativity
scores
news
constructions
ideals
conduction
centr
cav
modifications
ambient
##hat
bilayer
centers
lyapunov
oscillators
templ
perception
ech
eccentric
kondo
creating
epid
fock
eight
##ank
##imination
explanations
##zero
inertial
topics
##chain
interact
##print
subgraph
convection
deno
distant
gh
ze
##log
jacobi
superm
infinitely
subt
roughly
navier
haw
ansatz
elliptical
chandra
captured
dependencies
##atest
squared
mild
##ashion
##phi
road
##seen
sust
reservoir
leak
home
multip
39
##min
inclusive
spectro
passive
##eled
bridge
decentral
tomography
snr
43
frustr
warm
fp
biased
lies
##adow
gyr
concerns
fis
ts
expansions
##olev
equipped
simeq
cv
##igner
nanow
fashion
##etry
discretization
hypothes
frameworks
solver
proximity
investigating
economic
nanot
proving
rh
##equilibrium
semiclassical
resistivity
jus
pairwise
bb
ranges
sobolev
permutation
##regular
answering
statistically
##itch
linked
##iom
pretr
centre
eth
educ
items
bud
##lat
ti
bubble
wigner
tends
optimality
65
##ius
volati
asymmetr
participants
continuously
kr
aa
corpus
separable
##positions
perturbed
viewed
qed
##roid
incident
jup
knot
##land
lag
multiplicative
maximize
integrating
##down
##ca
come
dp
notions
tiss
restor
hamiltonians
recomb
##ying
bs
emergent
straightforward
thought
markovian
tum
##rete
metals
industrial
balanced
globally
opportunities
filament
jump
actually
biases
bodies
198
operational
alle
layered
mhd
sentence
deb
contrary
displacement
coc
table
opin
bra
entity
aper
navigation
blow
opens
chemistry
emphasis
01
##gm
independence
nonzero
##itions
concurr
##ounts
reflect
##ano
monolayer
letter
micron
cumul
otherwise
##erson
ultim
ergodic
coexist
##orrel
closure
imbal
enhancing
reconstructed
rele
segment
captures
batch
covers
industry
membrane
##cur
investigations
##rog
##umer
schwarzschild
diagnosis
horizontal
trial
cascade
coh
supporting
fem
ter
admit
vicinity
streaming
entities
determinant
##encod
##lor
##osing
lumino
urban
##joint
um
##ipro
luminosities
2020
speaker
06
flares
gases
peculiar
classified
adsor
fuzzy
sfr
shadow
starburst
library
##ewise
unseen
##cribed
##oelectric
mhz
##ously
mott
##ille
tot
addresses
condensates
bon
gaia
communities
refinement
dich
nonequilibrium
happ
##ogram
landscape
##wh
55
hst
cus
acquis
autoencod
crowd
million
minkowski
descriptions
##elves
ionized
##plets
##pass
##ancing
dy
colors
student
incl
attribute
susy
##inting
redund
effic
##ires
amounts
standing
exceptional
disent
shallow
overline
countr
objectives
boole
atlas
##oul
diamond
conserved
contam
governed
fourth
momenta
strange
asymptotics
seven
extensively
cupr
##ued
considerably
evolve
satisfied
##otes
som
prominent
##ean
insulators
ln
##oking
born
migration
scalability
##fications
knots
centered
averaging
my
compressed
##aments
rr
automata
achievable
imaginary
corrected
hz
tal
myr
adopt
##omplete
similarly
nom
dedic
axiom
##uation
coming
justi
regularized
parameterized
##ighter
lem
ped
bulge
boolean
emitted
nov
subsystem
degrad
##potent
2018
##edy
irregular
mot
plau
jo
hypergraph
gene
##icities
hydrodynamics
rgb
patient
infrastructure
increment
logical
competing
##apor
backgrounds
differentiable
nlp
organic
diffe
widths
diffusive
outflows
persistent
oxide
simpler
attach
##irable
gpu
dnn
chec
belief
multis
##ivers
efficacy
##bur
mri
2017
bill
resid
partitions
##arr
##ropies
proce
suff
imposed
merging
dft
continuity
chip
median
meaningful
transmit
unbounded
infl
cauch
2015
decon
packet
bern
smallest
span
weaker
english
monotone
2019
##imensional
metast
correctly
ldots
##nection
relay
texts
mitigate
cauchy
metam
allevi
##icing
pool
bring
##ental
pan
extracting
unusual
grbs
dedicated
##ovsk
varphi
varies
##oscopic
encoded
transforms
counts
gains
distillation
safe
pole
db
##lity
performances
sampled
msun
drag
##mer
##weight
helps
resem
bid
mt
annotated
##char
quar
expert
reality
flavour
85
##utive
probes
formulae
decentralized
##exts
yielding
bc
implementing
today
lig
observer
torque
quickly
generalizations
##ois
ha
lym
simplest
enumer
acquisition
selective
priori
concrete
vibrational
isomorphism
sb
##erman
##ellation
##sl
visualization
valley
42
##imir
chir
carefully
150
placed
normalization
supervision
recombination
electrostatic
simons
fisher
grows
emitting
##ats
adic
notably
recorded
heterogeneity
nebula
historical
annotations
offline
##ayers
approximated
inflationary
##ancies
trapping
emerge
searching
##ospin
##thern
decaying
2016
##inite
cutoff
transit
succes
fb
enter
utilizes
##omer
incorporates
tensors
casimir
interpretable
movement
##elled
08
modulus
strati
energetic
course
48
subtr
goes
unlab
##ryp
collaborative
##cales
fa
preserve
cnns
gib
thanks
##osting
ka
blaz
gro
quenched
exposure
nb
contexts
ultrac
topologically
laplace
eigenst
don
07
1000
bis
superposition
firstly
##me
interestingly
baryons
##ody
hc
thorough
##ert
mask
modulated
avoiding
choose
escape
graphical
conflic
multid
separately
restriction
##ulating
frequently
400
gp
recovered
recursive
forest
lst
poses
silic
que
accounts
##nas
quotient
##urs
toric
##manifold
nematic
##ki
importantly
neurons
passing
shed
blockchain
eventually
forcing
addressing
conjectured
classic
worst
insulating
degradation
occurring
4d
yau
reaching
09
respective
hopping
##etism
dd
timescale
56
threat
commut
helicity
polarit
ubi
viable
lf
symbolic
##sis
2012
texture
acts
annotation
dependency
bifurcation
availability
31
deuter
##stand
chap
regret
2m
emerged
##quet
##olved
pyth
doppler
incomplete
ubiqu
yuk
reverse
##33
goals
2010
suited
##ords
##sf
##izability
protons
thous
antiferromagn
considerations
haus
impacts
asymmetries
quad
waveguide
eigenf
interpol
##obs
slowly
##aly
##dor
47
nanoparticles
satellites
analysed
pum
winds
46
evolved
players
bits
deployed
repeated
restrictions
uncover
##oli
directional
magnitudes
##itable
skill
azim
leverages
##izers
foundation
reached
interferometer
##ster
##ploys
##ydro
spatio
mixtures
##pto
updates
azimuth
ages
semimet
spherically
pump
##adily
orbifold
##biased
lying
td
sized
remnant
yukawa
feyn
positron
2000
triangle
##pected
answers
##matic
guid
assignment
lith
establishing
instruments
projections
##process
2011
difficulties
xmm
era
encour
integrate
rangle
artif
polyg
rect
adjacent
foreg
updated
protected
climate
expectations
clock
thems
schro
scenes
##pings
facial
generalizing
batter
comparative
timescales
subspaces
themselves
scattered
lid
raw
##harmonic
amplification
commerc
hadrons
colliders
von
referred
unprec
experts
##ender
possibilities
discontinuous
lyman
spectrom
detections
sentim
##omy
survival
64
spot
documents
reform
prospects
hear
cylindr
##rupt
##anic
truncated
stiff
stabilization
capturing
oct
reviewed
unpreced
planes
latest
galois
fabric
thom
##cu
##ermal
organization
##echanical
neither
primitive
repulsive
electrodynamics
employs
condensed
##itous
maximization
nons
route
accounting
views
##ilinear
filaments
modalities
##osyn
sheet
probably
foreground
characters
plastic
reproduced
piecewise
unprecedented
##tition
bim
simulating
##sed
##wa
pred
doubly
##ened
priors
witten
##25
devel
discs
grown
##oil
hours
##urities
2014
##ouv
##jects
conceptual
demonstration
##raft
lad
controls
things
##aterial
emerges
player
intensive
##ball
adequ
zeros
broadband
sgr
feynman
nir
##chron
##poses
##dorff
96
developer
##oscal
flip
##elet
quasiparticle
emit
drawn
incompressible
fewer
plann
times10
labeling
astero
projects
pand
##ered
reports
smoothing
decade
steep
explains
##ele
##31
millimeter
zh
definite
sed
south
item
conservative
spreading
cyber
denote
manual
phonons
##uistic
bottlen
hausdorff
##eller
calabi
matched
##fold
##irection
zn
##essel
unbiased
preferences
foot
##ini
##encing
2013
67
ongoing
return
huge
shorter
anderson
finger
intense
exhibiting
denoising
hawking
##rogen
nd
mini
##riting
synt
##com
shifted
##iable
conducting
pron
win
liquids
relying
runs
unexpected
budget
beamform
##cription
europ
morphological
prevent
music
accompanied
automorphism
limitation
semigroup
ip
##unately
eject
diagnostic
liouv
handed
harmon
##ouse
dt
nonn
modality
quies
deduce
phenomenology
inser
##pher
definitions
worm
fitted
relating
opt
##estim
##map
protost
segments
matches
older
##hr
summary
corona
solely
oscillatory
bert
reaches
disjoint
fluores
ahler
textbf
neighbour
mappings
gord
perspectives
##appear
magnetized
operate
analogy
##acial
nodal
dg
passage
tax
encryp
oh
ultraf
resonator
##ilibria
fails
##hal
gm
les
thz
##ambigu
entir
##aring
##sivity
##agalactic
govern
ey
selecting
doublet
recipro
coales
##trap
dimer
##inant
monopole
accelerator
dee
exploited
##akes
equilibria
cavities
termin
row
obsc
##tionally
streams
bethe
tip
##entic
perovsk
nanoscale
gd
carriers
nitrogen
computers
released
transformers
tay
vanishes
modify
dialogue
refined
generalised
exploits
quadrupole
##ismic
epit
acad
vast
believe
pal
deposition
multiplication
opportunity
versati
unlabeled
##acies
attempts
##ez
deriving
penetr
formulations
month
desirable
transformed
uniquely
impurities
extragalactic
mentioned
scaled
##rec
becoming
dilaton
revisit
##aff
##tree
puzz
ry
##ynchron
ultras
annealing
xy
removal
##ya
stri
##ufact
constraining
alter
##ucid
bloch
maximally
bps
intuitive
nv
##tro
agrees
##eras
##ws
sentiment
plausible
faces
reconnection
decoupling
congr
circumstellar
nonneg
reproduces
subd
mathematics
##yclic
gibbs
dex
totally
revealing
##estr
magnetism
cylindrical
encode
similarities
protection
##ommod
severe
##algebra
os
hod
poincar
manufact
##fl
interested
fs
shr
sad
ism
sud
ejecta
##ensur
##emical
##ounced
87
##osecond
cul
connecting
unity
traces
fibr
accelerating
investigates
linearized
##ometers
spinor
surrog
handling
sz
rigidity
##oscalar
wavelet
##itzer
ut
assist
taylor
did
68
international
##lear
disappear
progenitor
lot
sea
atmospheres
nilpotent
##illing
reflected
dipolar
propto
chat
business
detectable
##cm
multidimensional
certi
accommod
division
pde
dispersive
elucid
sectors
2008
##isting
flight
react
che
nab
volumes
astronomical
completeness
##hedral
spir
##bing
unfort
##arc
tin
going
##ses
radar
##ians
conjugate
liouville
##osynth
acquired
plasmas
plasmon
##vs
boots
tissue
gtr
iterations
entirely
2009
triggered
##ostic
instantaneous
databases
##istration
circul
remove
preferred
heavily
imped
rb
##romatic
prescribed
lm
unification
explor
ghost
intrigu
greedy
leptons
##hs
##critical
##ners
tangent
attracted
readily
closer
##trial
drastic
lstm
guidance
gordon
instit
supermassive
##glow
hash
simplicial
messages
packing
##enius
##perturb
linguistic
##qa
coincides
contraction
##irectional
##35
tt
relational
serves
nanoc
reasons
amorph
tok
nonparam
congru
mism
mw
solvers
connect
metastable
meet
coexistence
swift
norms
coloring
wat
discriminative
quantification
aimed
reversible
ubiquitous
lp
##load
indicators
lived
overlapping
replaced
bootstrap
ferroelectric
proteins
##sts
devoted
mathsf
astronomy
opening
##ogenesis
otimes
unfortunately
hypotheses
tailored
entries
enhances
marked
##board
##rication
intriguing
union
ultracold
tube
checking
##ativ
preference
flag
submanifold
##imetric
reyn
bic
originally
mss
parent
##ami
arrival
commercial
sometimes
supply
stere
targeted
recall
poorly
concerned
hoc
grass
ben
hr
supple
##atern
lett
textr
consuming
2021
nucleation
neighbors
accreting
isospin
ont
pruning
gtrsim
##agger
porous
tune
sle
##ka
functor
multipar
##iants
76
58
branches
reynolds
##pty
guaranteed
##adic
covered
convective
sey
##ques
##ams
##oresistance
##ticity
regardless
regul
indis
spectrograph
##orov
afterglow
98
aid
hem
scin
outline
coordination
##plays
seed
invest
filled
textrm
wi
precession
54
grand
deeper
rhic
microl
permutations
reconf
schw
magell
subjects
delayed
virial
implying
##abor
ci
scintill
ros
promise
concentrations
fire
couple
owing
conjectures
lex
damage
lemma
bp
roots
dramatically
stein
noncon
whenever
##icious
blind
coincide
##inder
astrom
##acles
nonparametric
terminal
resum
inclination
##onomy
seyfer
specification
highlights
locality
nabla
120
mismatch
tele
pointed
randomness
weather
measurable
##32
##uck
runtime
reionization
regarded
secondly
stock
push
##while
azimuthal
disl
confirms
hypersurfaces
##usive
inac
simulator
smoothness
##aporation
patches
superiority
readout
nonnegative
##leigh
intercon
breaks
governing
maximizing
integrability
foli
##esp
solids
rayleigh
daily
amorphous
textual
authentic
multiplex
incorporated
bubbles
il
transportation
believ
##tile
gravitation
prol
soph
hexagonal
quatern
111
successive
tractable
drug
interpretability
cred
emotion
langle
oscillating
nested
conditioned
##ina
49
north
instanton
##agg
preval
developers
delays
##eet
countries
##ama
displays
##omplish
droplet
cms
##itaev
##ool
spitzer
probed
asynchron
accomplish
diction
pixels
lati
##ogenic
2007
magnetoresistance
eigenstates
preparation
##restrial
rectang
predom
fig
##24
bang
overd
##haus
xx
spacing
##enching
emissions
calibrated
nas
fabrication
##eman
##ryst
kinetics
equality
unres
metamaterial
pricing
hab
recommendations
fried
##x10
bilinear
advance
57
board
transist
unp
offs
f1
python
twin
unitarity
propagator
##ups
moves
ensuring
synthesized
##zen
opinion
cusp
thesis
mimic
wider
ionic
wormh
explaining
##paign
axisymmetric
speeds
city
lob
agb
##sky
modelled
sentences
2s
tit
quenching
mesoscopic
pain
##ahed
campaign
recurrence
substitution
alma
exceeds
barriers
keeping
classifying
mf
catalogue
##zy
facility
accelerate
hope
macro
ks
fes
rapidity
ultrafast
approximating
bm
semiconductors
wire
nash
slip
micr
##yi
lange
transparent
posedness
exclusive
volatility
obstacle
scr
jour
minima
pdes
##odular
renew
thresholds
geodesics
baryonic
waals
cooperation
##ohydro
hundreds
##pace
collinear
simplicity
ups
grids
motivation
informed
197
llm
##eren
bio
decompositions
scan
nc
dealing
cardin
orbitals
advanc
##za
spinning
110
secret
ago
astrophysics
preserves
markets
apart
63
##tible
lidar
fading
latit
langevin
gross
interfacial
powered
##linder
##linear
##ipolar
lightweight
cylinder
hb
beamforming
incremental
gin
agns
sophistic
collect
cameras
differs
agnostic
##burg
##ury
##othermal
monitor
magnon
played
compressible
broadening
offset
discrimination
##using
solves
coroll
meanwhile
mapped
mssm
dens
jupiter
pil
appearing
clarify
believed
shortest
plateau
epidemic
2006
##amming
frob
defines
registration
sustain
university
wild
helical
develops
multiscale
##stone
presentation
endow
rendering
##use
##atron
cry
continue
##ych
artifacts
plasmonic
gained
topologies
hamilton
amen
surrogate
##kl
seyfert
aerial
argued
fibers
hartree
##bling
lateral
heterostructures
hii
statistic
anticip
modulo
tens
impul
rain
##ugg
assessing
antennas
lmc
##inescence
protoplan
controllable
vr
optimum
hyperf
realizations
2005
tradeoff
eccentricity
dominate
frobenius
rc
workflow
delivery
aperture
##oting
##onov
sketch
##itory
divided
prepared
say
transparency
striking
schwinger
##asser
##ompass
magnetohydro
penalty
wit
bog
##elike
tracing
pet
reconfigur
death
choosing
homogen
descript
paradox
sugges
dnns
illumination
##isc
pronounced
template
cham
##ociation
toroidal
distortions
encompass
5g
97
aided
bcs
finds
##kd
cancellation
heart
stored
options
##geometric
portf
kal
heli
gras
lu
##iii
aiming
varied
eigenfunctions
obey
adoption
reviews
automorphisms
grassmann
##eterm
logistic
##scr
vapor
serious
77
##osystem
irradiation
contacts
quantifying
roles
bottleneck
##algebras
##osynthesis
gpt
clump
isotop
quiescent
52
magellanic
##nected
continuation
categorical
##iar
summarize
sided
eclips
breakdown
41
criticality
jud
equally
damped
ko
##plex
resolutions
##asc
stem
hf
##care
contributes
constitute
voc
fulf
##tl
indi
alf
reconstruc
ryd
formally
compil
centrality
relaxed
manually
##hertz
adopting
##emporal
viewpoint
informative
exchang
insp
companions
preserved
fano
magic
bounding
removing
broader
deple
resonators
reflecting
exceed
kol
removed
##ysical
pumping
substrates
##edge
inconsistent
rid
records
purs
interferometry
echo
saddle
##points
eeg
uh
##alan
terrestrial
##lines
irre
kg
aggregate
##uster
relic
evaporation
dise
forecast
excitons
oracle
##ko
##truction
clumps
genu
##oreg
hyperparam
write
##ithful
##plus
carrying
rydberg
gender
healthcare
intensities
##ventional
teacher
autoencoder
somew
##formal
hardness
depos
dominates
alloc
66
pandemic
eye
proportion
proposals
001
impossible
##onym
epis
59
##km
ensures
emitters
hardy
utilization
transmitted
eigenv
national
correlators
rew
oce
positivity
lip
indicator
alternatives
##ison
fluorescence
tu
noether
persistence
pf
predominant
berry
##lar
middle
pac
##terior
assigned
##tructured
##ames
gaas
convexity
mathscr
eg
##44
hydrodynamical
##uly
consec
lr
vital
battery
quaternion
brack
tempor
dynamo
neq
roll
articles
hosts
exclusion
witness
##empl
personalized
semigroups
##olum
packets
alleviate
pg
spatiot
pulsed
token
defl
chromatic
sophisticated
leakage
multilayer
recoil
forb
elasticity
symbols
unambigu
bending
paramagnetic
claims
sheaves
arms
iso
tumor
intermitt
upl
education
broadc
anc
evolves
german
unconventional
colored
partitioning
cif
lac
repulsion
geometrically
sor
technological
spontaneously
neuro
j0
truncation
restoration
##standing
##oks
lithium
fd
2004
##vent
##gue
##inated
superc
extrapol
crack
skin
subtle
explores
doing
##used
periodicity
imagenet
tab
proves
concentrated
faithful
spur
ws
lb
thousands
separating
purposes
##lingual
spectrometer
enfor
colloidal
remnants
trop
compactness
##eteq
causality
nmr
##enstein
vacancy
robotics
inductive
anch
comprom
rod
identifies
kil
53
equator
summarization
frustrated
popularity
gar
tach
risks
monoc
absent
##rect
tails
##where
proceed
suite
##000
equiv
demands
influenced
attenuation
##ensurate
traveling
skyrmion
lect
##ectral
programm
ultimately
resolving
borel
parametrization
twitter
asynchronous
hone
satisfact
cuprates
diseases
df
distinguished
ingredient
89
wol
statement
horizons
exoplanets
enriched
living
pauli
gy
##olec
attractor
leptonic
obvious
sand
ineffici
##roids
presenting
neighboring
corner
contamination
dile
primes
peer
compatibility
thermoelectric
nanotubes
nh
boun
evid
polymers
gather
##orth
insu
##bons
birth
##inter
scalars
prices
waveform
rul
subc
upgr
conjunction
69
kp
##ek
hodge
intended
lasers
##ivariate
pretrained
party
alloys
##lands
exoplanet
possesses
influences
depletion
cb
ster
wasser
swar
originating
stringent
multilingual
functionality
rib
insuffici
##ford
##oherent
adsorption
qs
##ositions
opac
returns
##gp
##wave
dose
spatiotemporal
feat
wasserstein
photoem
transvers
nucleosynthesis
incidence
notes
establishes
consecutive
segreg
beneficial
##alc
exterior
deals
imbalance
fro
##rid
precon
vorticity
behave
csi
failures
quantified
##ativistic
cifar
schur
controllers
capacit
ballistic
facilitates
chapter
somewhat
qa
analogues
##tia
asr
nine
nlo
subseteq
irs
obstacles
upsilon
tevatron
nond
fragments
jan
sett
characterizations
periodically
##icate
try
talk
suspension
##istrib
##zburg
##exam
cumulative
hyperfine
tera
pseudoscalar
haz
##45
##illary
##erenkov
perfectly
##ops
changed
interpretations
cherenkov
option
cycl
resumm
revisited
##aking
photoemission
unim
ends
member
##erkin
cones
constituent
lev
62
##2o
##omechanical
gg
##bre
admis
galerkin
ginzburg
##asts
exempl
deconf
renormalized
optimally
recommender
squeezed
alice
##antine
##atomic
empty
extrapolation
droplets
alloy
surpass
##bone
epochs
european
jumps
ou
virgo
incorrect
unclear
wd
visco
fc
##normal
dilute
looking
##ront
centric
pdf
countable
2p
##ils
2k
scope
trading
stabilized
ladder
shells
offering
generically
##cript
stacking
excluded
inhib
##edia
88
practices
brill
melting
vec
##eto
86
reliably
cpu
##shitz
autoreg
client
2003
##espread
widespread
lagrange
##align
freely
collisional
microc
journ
##enue
charging
nonperturb
attached
naive
voice
superlat
##iability
stopping
##ept
balancing
kd
tow
2022
realizing
beginning
uc
compositions
debr
biology
pars
belongs
sof
toy
##ecke
##iteness
accordingly
metallicities
organized
discusses
absorbing
leaves
##oi
edi
ambiguity
##bes
cox
clients
hm
launch
##pless
sudden
subcl
compositional
protoplanetary
brings
belonging
##phasing
repeti
magnetically
phy
##anted
deduced
poles
superg
permit
82
propagate
##ampling
hypersurface
##orem
phosph
membership
interlayer
##ahn
dictionary
attraction
correcting
nanowires
friend
##asive
malicious
cardinality
unve
gradually
ligo
none
##asso
dress
rectangular
interferometric
electronics
tracks
chirality
aer
defici
practition
rx
processed
cad
fif
easier
emphasize
showc
##dington
250
repair
lifshitz
iterated
##osh
versatile
78
creates
bn
hyster
facilities
gase
quantif
linking
debris
rotations
webs
##ember
ceph
##eas
microlensing
mitigation
electrodes
thread
relates
killing
keyw
##atom
driver
commuting
##ishing
histories
gpa
accumulation
tan
inertia
compactification
assumes
stiffness
##ensitive
wim
signs
tropical
reactive
aforem
econom
skelet
pedestr
backbone
specialized
##liers
codimension
aforementioned
jord
chines
format
##tw
squeezing
ask
##onically
orientations
##galactic
minimax
convergent
reproducing
sterile
hes
actu
##mog
experiences
5d
indoor
optimisation
queue
corpor
irrever
terahertz
hysteresis
##48
calor
chinese
##uclear
tokens
##iling
recep
visibility
##27
folding
unless
dys
quint
grating
monod
live
loading
jordan
reductions
continued
kolmog
##sey
fairly
session
##alcogen
floquet
##ectively
##osis
psr
lc
eos
##ruption
convenient
##oped
cache
lightest
2002
eddington
infinites
heuristics
centralized
##ecraft
corollary
correctness
bat
metas
exhibited
distinguishing
usefulness
comprising
precondition
ther
child
##oto
drastically
incoherent
##oked
cuts
quartic
hecke
recti
##tening
perovskite
mb
respond
elabor
isotopes
pinning
lifetimes
rigorously
bonds
femt
stretch
tb
isothermal
dephasing
##apes
zeeman
dic
##rot
transferred
polytopes
poli
termed
##uri
cephe
##ipl
rp
associative
kl
bd
rock
##astroph
ner
stagger
indicated
induction
innovative
motor
said
gapped
magnets
thermally
##wards
vulnerable
##door
nitr
install
analytics
cliff
gaseous
cartan
enj
precurs
kolmogorov
anisotropies
tachy
orbiting
mutually
glasses
favorable
syst
pathways
##imer
hypergeometric
fabricated
amenable
##mid
rd
grom
catastroph
##akov
bohm
vacua
51
94
iteratively
pca
##uit
##antom
divergences
inflaton
tess
##iard
undergoes
arrangement
##ime
outliers
affecting
84
##body
sees
concave
##iodic
autoc
cern
southern
copies
rash
rms
lost
behavioral
facts
bacter
exceeding
yb
##itively
encountered
##odi
##utation
denotes
exposed
archival
receive
impedance
##tes
mk
fluctuating
nebulae
discipl
examining
180
spike
stations
clip
lorentzian
##feld
harmonics
##ager
infall
imperfect
##processing
pressures
gem
wet
upcoming
parametrized
replace
phantom
insufficient
##onomic
##link
gapless
psych
seas
millis
entropic
##book
acquire
confining
enrichment
##dynamic
distributional
unresolved
giants
pointing
smbh
superstr
favour
originate
cast
twice
mv
gut
haloes
specifications
spacecraft
93
emp
##olio
defense
nonperturbative
algebraically
sens
perh
##name
dar
piv
sot
imposing
##ycomb
##lde
2001
lastly
recursion
colon
shaping
approaching
placement
replacing
perhaps
school
causing
encryption
pent
axes
rashba
highlighting
antis
##finite
plot
recovering
methodologies
rar
infection
portfolio
interd
confirming
instrumental
millisecond
140
seismic
abrid
92
resili
assessed
reading
fixing
practitioners
lis
microm
book
denoted
nova
minimally
##orrelation
bernoul
wires
gnn
hair
genuine
penetration
suns
appropriately
regis
graviton
ingredients
fake
bernoulli
disruption
##electron
frequent
metasurf
##tilde
manufacturing
73
unid
skills
diagnostics
brightest
copy
unexpl
ib
##etching
abridged
tori
##ogeneities
covariates
##eff
ecosystem
filtr
##utr
academic
honeycomb
c2
##lum
gromov
600
tolerant
proxy
saturated
weighting
neutrons
dusty
whe
##titude
coded
boosting
admissible
gans
anim
72
##alline
editing
intrinsically
progenitors
rnn
starts
spurious
nak
##pting
sio
paired
74
origins
1s
##isations
mete
##apping
widetilde
afm
intersections
autoregressive
mcmc
slice
sliding
nanostructures
neglected
speedup
morse
clifford
##onium
name
inherently
subsystems
##reting
operatorname
refine
slower
bag
shower
adapting
##gpt
prescription
modest
initialization
gcs
tables
forced
quiver
##tis
destro
seek
##ml
forbidden
parties
nic
multipliers
##ava
page
obtains
divisor
minutes
adaptively
dominating
terr
expanded
ew
pv
constructive
accepted
los
exciting
misalign
traditionally
kac
sciences
regge
benchmarking
signed
transmitter
ionizing
eliminate
transitive
transients
binomial
occupation
conflict
ff
goog
tiny
ww
accelerators
constitutes
vlt
avoids
happens
portion
semis
mbox
monomial
slab
compressive
scans
raised
adversary
biomed
monotonicity
boundedness
boron
balls
##90
quasiparticles
gnns
practically
lind
concurrent
nanor
refractive
epitaxial
stereo
nanowire
##plane
qui
waveguides
reconstructing
drives
builds
stacked
opto
abstraction
seconds
proximal
##jan
promote
originates
equivalently
transiting
impose
evy
nf
kir
writing
k3
##ohn
##ren
wav
blood
adequate
parsing
##orphic
drawing
ku
##esian
biomedical
rv
authentication
##midt
fuel
pilot
nr
##imetry
regulation
devise
harves
file
##ovich
perman
critically
rt
##dinger
computable
##uff
society
intervention
computes
rober
quotients
130
##gestion
transduc
resulted
##auer
invertible
elong
##angling
reflects
conformally
ocean
parameterization
wells
##heating
satisfactory
appe
##ault
characterizes
hers
permits
eclipsing
marting
subjected
ferr
separations
##asion
staggered
ef
lut
entail
wf
locus
costly
predictor
counterfact
expressive
electricity
photoc
erd
missions
##ulti
processor
comments
insensitive
store
worksh
##inte
mathematically
nets
edd
##itary
behaves
slo
goldstone
thermalization
schrodinger
dominance
nonconvex
##pe
fulfill
##ani
83
predominantly
submill
hur
##ocentric
bab
fragment
meshes
contents
cube
proposing
averages
occlusion
redundancy
freeze
plans
treating
##wavel
##eets
##pers
focal
bad
augment
cities
mj
kink
stratified
caption
kag
##gery
ot
suffers
bare
cardi
ellipso
endowed
##kely
burning
##ymbol
intrac
polytope
##empor
resist
##beck
progression
crossed
##atories
plant
drops
arcsec
pooling
antiferromagnet
160
tent
glue
membranes
prone
dead
electrode
dischar
namb
sides
mind
pointwise
m8
violations
lep
overf
notice
interpreting
sic
coincidence
walker
##drop
##55
diagonalization
gets
##ouin
isolation
decoupled
places
lasso
integrates
##ney
##los
reciprocal
##chel
counterfactual
##apy
##ubov
revolution
ferromagnet
hh
lte
vacc
sheets
gb
##tious
redundant
##rase
warped
instruction
mutation
sgd
##imple
statements
google
##lined
susceptible
nambu
parallax
percept
##ompact
digraph
brillouin
vit
polariton
##oton
superconformal
iras
tl
##nes
##rought
##asov
associate
pseudog
food
synchronous
cartesian
##ecom
hinder
dissociation
wavefunction
forth
multipartite
drawback
fw
lensed
subclass
meteor
kk
flash
multiplier
injected
delocal
fly
seesaw
##urance
neuron
##illa
suitably
dw
dinger
fitness
treatments
##wavelength
diffractive
anonym
abundant
inev
layout
bolds
helm
imf
aging
tubes
opacity
immers
discrepancies
scientists
unlikely
decide
poll
textures
quadrature
fracture
##like
spots
travers
cup
##anov
##aptic
updating
decompos
months
sav
peaked
photop
lifting
deceler
prompts
vibration
fok
lacking
resilience
##ulsion
v2
corrob
reconc
79
boxes
boldsymbol
##aquark
exhaus
subtraction
##agon
##pi
held
##kal
opposed
movements
disturbances
m31
explainable
rewards
gps
lift
##exp
##otion
continual
differentiation
infinitesimal
fission
##ptonic
gauged
congestion
comprises
herschel
tut
kur
counterexam
reasonably
##integr
strongest
corru
kaon
oplus
##bled
smc
blazars
##tural
decomposed
pyr
translational
##optim
bandit
accommodate
radical
##gap
remained
implied
syntactic
##udes
shield
##field
salient
recognize
intuition
berg
##51
cay
ij
broadcast
implicitly
eclip
sloan
immersed
century
##lusively
quiet
maser
deuteron
differently
foundations
helpful
##hes
plates
accounted
deposited
transaction
##oon
native
jones
piez
gluons
photospheric
overlo
inverted
hessian
bunch
galile
avalan
polarisation
advection
instantons
monopoles
inaccur
snap
uk
servers
mang
functors
##olutions
corrobor
prohib
wmap
subjective
individ
engines
bonnet
hemis
##ulf
##roduction
signaling
fundamentally
##ura
obscured
iib
destin
##nm
elev
rescal
##str
##phere
##onstrained
gor
virus
##fers
##26
recognized
##49
dos
ee
civ
nucleons
nitride
##idelines
started
associations
converted
inducing
alphab
classically
masks
unstructured
coalescence
guidelines
hera
redden
contempor
roughness
spiking
1998
voting
processors
hybridization
het
hip
multifr
decreased
dub
hypergraphs
##ysis
asser
isometric
contour
contributing
cyclo
submanifolds
avalanch
mit
obli
awar
sod
##ysh
kh
cg
bax
awareness
##potential
##aday
occurred
incoming
hull
##inson
setups
semide
cme
equatorial
rub
prem
zr
bessel
nonlinearities
semimetal
resnet
critic
teaching
slit
cdw
immediate
skyrmions
forget
##romy
##ateral
teleport
##tier
solvent
acceptance
fokker
cot
##ounted
observers
hour
##pin
experienced
segregation
divergent
rating
indistinguish
1999
familiar
##utter
controllability
individually
##arm
swarm
manage
##tinger
annihil
caching
bipolar
jacobian
pions
scoring
sali
##oding
famous
gall
##ediately
standards
tailed
##46
##urn
gramm
hill
stripe
punc
obl
dimensionless
publ
intergalactic
##uary
severely
automation
amplif
forecasts
interventions
ale
repos
61
libraries
elucidate
ontology
assig
##enz
##ris
you
landmark
hbar
accret
baxter
enlar
ultrasound
brought
phil
encounter
##08
unconstrained
kel
inferring
neutralino
zig
##afted
substructure
tolerance
pq
##irected
linewidth
##ycle
chance
preservation
##pton
job
underestim
acceptable
tilt
catal
traps
steering
traced
spr
teams
leave
metro
asset
legend
cayley
astrometric
crust
utter
wik
pareto
multiph
moderately
notable
pseudogap
unav
lebes
##tenance
alex
ejection
##etical
entropies
sto
##att
kalman
windows
harvesting
##ochemical
analysing
asteroid
wealth
maintenance
##pha
specify
disag
outperforming
unfold
masked
house
night
abrupt
nominal
semidefinite
necessity
hep
125
smoothly
##ressively
physi
demonstrations
##loor
uncondition
attractors
political
subgraphs
sar
##ahl
compensation
braid
##oluminescence
3c
leaving
tf
invis
activated
lebesgue
##28
immediately
workshop
absorbed
acyclic
generalisation
lenses
reconfigurable
xr
##hn
completed
pitch
zones
spar
minimizes
##enger
91
mock
sine
clique
gs
adjusted
characterisation
planned
positioning
kagome
bow
precip
cele
sac
modifying
impressive
##issner
vox
##29
breath
contrad
qc
pick
undergoing
chatgpt
advancements
swim
ruled
medic
elimination
anharmonic
##idable
196
icec
##alytic
ramsey
suppose
commit
synthesize
derivations
bars
##holtz
##uer
belt
cohen
bogoli
##bach
dislocation
mand
##linic
resistive
incompati
##onality
primal
##pectr
simplify
scar
reactor
gpus
##100
##odynamics
divide
retri
diffeomorphisms
irrel
convert
vulnerability
distinctive
inefficient
icecube
cdots
irrelev
puzzle
unobs
bogoliubov
##attering
corpora
trem
ig
rom
perme
vulnerabilities
http
compactifications
##geting
distorted
nonun
herein
generality
showers
extrins
planetes
genes
broadly
labelled
downlink
circumst
photod
combinatorics
disturbance
nls
discontinuity
##prints
donor
electrically
sir
##eb
residue
contract
buffer
mmwave
conce
nonloc
tilted
jw
linearity
doubling
semisimple
want
avoidance
rooted
frustration
quintess
gram
##worth
tn
photoproduction
kitaev
deeply
discovering
conversational
gravitating
pathway
pretraining
##38
underw
waveforms
companies
lane
multipole
ultimate
ccd
kalu
lq
summation
fifth
profession
equals
viscoelastic
##aud
touch
##enders
manipulate
gest
##kb
fres
conserving
inn
operates
genome
hadam
dn
couples
##ingly
appeared
trials
imagery
helmholtz
cutting
excitonic
##orrelated
conjugacy
hierarchies
suboptim
vlbi
apparently
kaluza
##hoff
hadamard
kar
strategic
##iger
templates
ferromagnetism
discussing
vibrations
correlate
fat
##usting
morphologies
##roll
tracer
synerg
epidem
eq
spite
encodes
immer
wiener
locked
perceptual
flavors
dispar
heated
##folds
ablation
collim
determinations
scri
##uing
malware
artin
d0
confound
##istribution
bank
tagging
##zations
cues
heterotic
wormhole
ode
collecting
sid
seam
81
stresses
charmon
bonding
oxid
millions
eigenvectors
##ao
guiding
gaussianity
engineered
alum
shann
wherein
dyson
superstring
qso
recip
unifying
##arded
multit
satisfaction
##mn
##electronic
intersecting
##chang
extrinsic
dav
##kel
carr
files
dichot
monoch
firm
oxides
adver
undirected
characterise
unexplored
tetrahed
payoff
hs
underd
d2
harness
northern
t2
tern
locking
calls
vocab
descriptors
isometry
triangles
elusive
sequentially
microscope
ham
pas
initiated
luttinger
infected
admitting
##ograms
##o2
resummation
unable
schmidt
compares
novelty
vd
pivot
##bor
metamaterials
##lets
##augh
brighter
bidirectional
skeleton
cryogenic
figure
frozen
ant
wake
smoothed
secular
gravitationally
##odicity
leader
optomechanical
##ulus
##jet
outstanding
predictors
receivers
irrelevant
##36
noises
positively
floating
shannon
morphisms
teleportation
replica
femtosecond
cyclotron
hosting
repeat
rarely
instructions
discriminate
##rive
negatively
inspection
determinants
concentrate
earthqu
chamber
uavs
lax
alternatively
unders
aggregates
mars
dispersions
tendency
contracts
generations
workers
##iform
isotope
lisa
##ourse
visually
##ander
loud
rus
co2
soon
71
##phone
supplement
##rose
absorbers
atomistic
vlasov
conical
##39
##ogenous
##geb
domination
jwst
hazard
probable
continues
##icks
publications
##relativistic
io
stark
mort
friedmann
lhcb
provably
##grid
clustered
unobserv
hydrostatic
##iring
injective
zhang
absolut
hyperc
arrangements
purity
monodromy
temporally
wear
fid
efficiencies
##kh
##uctive
##fall
citation
exit
intractable
overfitting
##reev
avoided
kinematical
restrict
##hy
rearr
stabilize
assembled
semile
bian
closest
investment
eras
friendly
hermite
adjustment
cen
tightly
semimetals
metrolog
filtered
constructs
magnetohydrodynamic
thoroughly
muons
andreev
shrink
rabi
crossings
merge
##aten
emb
colours
circulation
electroly
svm
disp
gave
virtually
ood
adjacency
blazar
##gl
##34
actively
logics
copper
publication
colliding
saliency
semileptonic
legal
##37
ori
ternary
##jections
slopes
hydr
##organ
wrong
detr
leib
plug
##onia
customer
characterised
rip
append
afford
roberts
eaves
partly
normally
imbalanced
capillary
discretized
##olecular
fibre
customers
asteroids
nonrelativistic
quantile
filtration
intricate
meeting
eavesdrop
brst
buck
srti
##diff
conditioning
termination
stacks
##ibly
edit
pat
networking
##illance
falls
cuprate
##icti
bist
insertion
nonlocality
##omagnetic
reductive
absorber
##ellip
enumeration
##ilibr
mnist
titan
inp
decline
capital
surveillance
latitude
800
paid
inhomogeneities
preprocessing
dimin
phenotyp
coars
prevents
##58
##qs
prevalent
pore
absolutely
appealing
examination
claimed
lee
##enon
lyr
pulsation
automaton
pad
##ingular
wish
seamless
##ulates
ahar
swe
microns
multiplexing
##elle
interferometers
monocular
hosp
enhancements
axioms
blocking
strang
estimations
surgery
offered
groth
diffeomorphism
featuring
drivers
boosted
##agraph
adjusting
rising
transfers
orion
wedge
recovers
faraday
tracers
##spectral
percentage
##kii
unre
communicate
prototypical
tes
nept
gn
robustly
noma
beg
##skii
void
incomm
##urrent
unm
join
isometr
spirals
##3d
fpga
##uptions
cw
lt
neighbourhood
argon
implication
equilibr
bracket
##wood
iee
cryptography
lingual
nt
secrec
innovation
##oo
##ilst
enorm
##efined
protostellar
##inking
phyl
learner
requests
##ivalent
secrecy
tam
collections
aggregated
occupied
divisors
bed
journal
differentially
playing
whilst
viewing
default
isotopic
unn
retin
microstructure
salt
##iance
##ulator
manus
translate
supercritical
decompose
##endi
tell
##omers
protect
##cryst
ridge
1e
##adays
slam
subalgebra
belle
dicke
lg
wang
poincare
##iment
revised
##kit
nowadays
holography
photoionization
1997
pedestrian
kt
##lim
ud
##b2
qkd
rhe
dx
cris
targeting
ieee
moon
bolometric
retrieve
thermo
##inating
##sation
perceived
violated
gel
##orial
attacker
schroed
submillimeter
translations
turing
transactions
sota
eclipse
##ulary
##inis
eso
invers
metad
burden
inflow
lives
##anol
backsc
ae
toe
island
photoluminescence
##icit
arp
##rov
billiard
uniaxial
slot
pw
vla
stated
##tiner
##rad
1996
cdf
surrounded
organizations
stimulated
maxima
abilities
indication
strugg
bbb
##aki
itiner
##luster
harm
m2
finiteness
##afe
##isper
##cher
##level
catalogs
permanent
##acci
arrive
coxeter
ali
catastrophic
uplink
grounded
congruence
ries
plasticity
ejected
crucially
debate
rearrang
conference
abnormal
##anned
##sr
convolutions
##ada
taxonomy
exploitation
stic
sublat
irr
faults
resultant
transforming
vacancies
deformable
pipelines
##asor
depths
gorenstein
sex
jamming
asc
exclusively
multifract
hl
destroy
##olid
cyg
##loads
stabilizing
keywords
##ailing
contemporary
collapsing
piece
circumstances
va
acid
whereby
polaritons
showcase
##59
dele
marginally
favored
progressive
destination
vocabulary
prioriti
##max
suboptimal
eps
##oster
motivate
nanotube
phylogen
thomas
##ovol
pull
gated
pep
stratification
overestim
ease
regional
rounds
tro
##iber
homomorphism
searched
fronts
replacement
##47
##prop
complements
monoidal
billion
schroedinger
##ula
discussions
coordinated
##endieck
pne
##ashi
collisionless
pyram
illustrates
martingale
proto
sweep
##ptive
grothendieck
polyhed
eulerian
mitigating
demanding
simplex
mental
raises
routin
tetragonal
optic
trains
heavier
outbursts
moti
wavefunctions
flaring
##nikov
igm
##uty
valuation
##sen
snapsh
keck
facilitating
constituents
emitter
pieces
carries
occupancy
##ressibility
tremend
charmonium
eb
##changed
aster
##zag
harder
eh
ultral
winding
hind
encoders
monotonically
##inate
neurom
monolayers
bins
monitored
envelopes
footprint
##fying
healthy
dv
gf
##ifer
partners
dq
spheroidal
##tronics
physic
##elli
providers
voids
##uate
##etal
concaten
intent
entry
illustrative
khz
radially
mono
identically
forgetting
intermittent
##eu
maintained
highlighted
shifting
comet
ignored
dichalcogen
deconv
##ha
##asi
comprehension
cryptographic
renewable
presum
##pted
##ahlung
triples
sectional
border
transistors
qsos
dur
necessit
analogs
regulatory
resil
displacements
refers
cooled
synchronized
dict
rna
toda
deflection
viv
ergodicity
encounters
autocorrelation
ht
polarizations
antiquark
irreversible
sunspot
amongst
men
resilient
correspondences
##plitz
fan
waiting
coating
##pectrum
##yne
##oning
discoveries
nanorib
imitation
opinions
algeb
api
##vive
icm
threats
march
riesz
reflections
resembles
invisible
##ilab
exerc
stm
conversely
propagators
interests
cob
b0
gir
turning
alkal
sag
wimp
toeplitz
fins
transistor
weakness
monochromatic
##trans
evolutions
bianchi
paves
vc
encourage
bounce
eleg
inhomogeneity
arcmin
lun
paradigms
ger
tweets
solitary
##amp
uncorrelated
quintessence
zigzag
pave
abell
lock
polaron
antisymmetric
exclude
reservoirs
##kes
philos
meter
2023
l1
##ower
astro
americ
hp
outlined
systematics
##enn
shelf
halpha
volumetric
wavefront
superpotential
##heimer
prep
trigon
aharonov
##break
##elliptic
xenon
autoencoders
polarity
remarks
outlier
##minus
##tino
tp
##light
worse
drl
caps
epist
polycryst
behaviours
##eles
bv
curie
celebr
saw
##etz
##othing
parallelism
##gino
coin
progressively
impair
wolf
guess
reconstructions
tangential
pla
ssl
irradiated
##chemical
precursor
##dp
reddening
##beit
qos
diquark
manipulating
depar
##enum
##ora
##enty
##eval
photosphere
bandgap
residuals
columns
##ider
turned
explosions
##o4
timelike
implements
semantically
##onald
participation
eis
truly
##alian
glassy
succe
cpt
##56
##bow
transc
##usc
phosphor
enormous
auc
hv
multilevel
pref
coincident
h2o
##enues
discriminant
retain
adhes
multiplicities
unchanged
mori
noneth
outage
##ahler
quasin
##olarized
diffusivity
nonetheless
eliminating
manuscript
islands
sorting
##utrino
##city
##aux
switched
loads
spirit
discriminator
homogeneity
separability
##atus
attained
goods
pomer
hg
elemental
geograph
##57
graphite
##orders
##rist
finsler
capacities
albeit
verifying
austr
reuse
transferring
submodular
exhaustive
ple
##ifted
recognizing
##onacci
operated
memories
stretching
indicative
illustration
alphabet
depart
indexed
bss
locate
cosmologies
recording
triggering
antine
crowdso
monoid
shuff
reinfor
falling
survive
posts
dressed
maintains
multiplets
ranks
nanoparticle
philosoph
lamin
merit
ao
##wide
##nets
heights
integrity
unveil
pod
rol
incommensurate
everywhere
fermilab
legacy
##irm
setminus
photovol
squark
lieb
bifurcations
asterose
vice
modulations
keplerian
wavenum
##oft
multiplet
bragg
neuronal
tio
ves
mos2
sis
correlator
itinerant
sps
homogenization
tv
cuo
profit
##imed
leaf
frontier
##ato
##tructive
references
syntax
metrology
elegant
worlds
switches
##outs
potts
programmable
robertson
quaternionic
alumin
routes
neuros
homological
complementarity
china
euv
educational
indistinguishable
reheating
lexical
complexities
superfield
##enko
semilinear
alternate
##oke
ahead
elaborate
spring
##former
apps
confirmation
irresp
ward
chemically
hyperparameters
limb
cardiac
emotional
deconfinement
##2v
##strom
holonomy
sort
##orption
locom
##product
og
credit
elast
sensitivities
##eno
##icz
proposition
metadata
hypothetical
##comings
mortality
6d
shortcomings
priority
distinction
sleep
skyrme
discharge
##xs
##ette
##state
children
picard
stake
accordance
hints
workload
##tronic
##amped
outs
oil
##particle
##agement
cant
unmann
maximizes
unmanned
architectural
trigonometric
gradual
ak
##eme
fainter
##pheral
specially
##dc
profound
accreted
##easible
vae
observability
explorer
functionalities
orthogonality
pris
fuse
impulse
sas
##ij
actor
##ologists
moir
thermodynamical
normality
apr
viability
seeking
accomplished
yan
##ightarrow
accumulated
inferences
adds
parsec
##osov
perturbatively
##urring
sheaf
motivates
superradi
constitutive
lic
else
##inskii
blockade
ehr
sph
splittings
##timate
testbed
encaps
ckm
freezing
habitable
snow
##kle
matroid
iw
##52
captioning
##99
alt
antipro
alfv
##ophysical
quasinormal
lap
##exc
gravi
lung
magnetosphere
spik
versa
summarized
evident
assets
selects
ng
leptogenesis
underwater
retrieved
##200
antim
obstruction
passi
rejection
sinus
painle
snrs
2x
##away
diode
##strahlung
asked
united
cmos
cit
superlum
reachability
anneal
request
crop
chord
problematic
corot
magnetar
seemingly
##ocations
schedule
##anonical
trip
disciplines
##lock
morphism
700
pdfs
kelvin
eru
2mass
jack
cong
##uous
url
##ask
##obic
photonics
finet
cope
lists
##through
drin
checked
manifestation
polyhedral
unambiguously
hyperbol
uniformity
retaining
advoc
incorporation
posteriori
apprec
torques
##gam
##sto
primi
apparatus
equipment
##43
verif
##loading
ccs
##orient
##oms
##tra
breast
fibonacci
prevalence
##rg
suppl
eigens
circularly
gt
##gical
examines
##planar
heterostructure
mirrors
emotions
waterm
story
constrains
faced
fused
audi
350
destruction
polygons
##asoro
stan
consumer
modifies
presently
appendix
##veness
immune
detach
##bic
inclusions
para
##problem
calc
orientable
folds
forests
tilting
curricul
lightcur
violate
ofdm
eigenm
qm
bearing
compelling
elongated
east
virasoro
government
dichotomy
pione
bernstein
grasp
##wr
brems
##space
voltages
scintillation
wes
##thermal
bhs
tachyon
hashing
##isite
##97
pyro
##oxide
photovolta
linearization
replication
suspensions
longest
slices
enforce
tremendous
holistic
dependences
merely
groupoid
ohm
splits
nanocryst
bob
lda
floer
kdv
bao
disagre
unital
hydroph
jobs
embr
##bands
##py
##pson
dib
kron
dioph
##egener
amplified
fcc
stay
disconnected
synaptic
coco
##ametric
reminis
980
opp
aw
##tise
foliation
transcription
accompanying
repetition
positional
predefined
subdiv
qd
d3
##no
intertw
##aker
bremsstrahlung
invasive
converse
chen
exchanges
watermark
##enses
judg
hyperparameter
nice
##acted
salp
punct
sublinear
kohn
betti
complemented
ambiguous
celebrated
noncl
subhal
semiconducting
bridges
scratch
joh
undes
agr
pulsations
dropout
cultural
learnable
dipoles
sizable
principled
smear
dof
matroids
minimizers
lagrangians
irrespective
superspace
e2
106
covariate
modularity
stir
sustainable
unambiguous
##ensile
nebular
bump
pon
tower
##periodic
finance
indications
supposed
conductor
##cience
originated
minority
dyn
noted
persists
trustworth
compactified
salpeter
observatories
prolifer
diophantine
1995
##ima
170
nick
##unching
univariate
concluded
hit
undert
skip
##72
##iest
lectures
##physical
preventing
l2
degeneracies
xe
comprised
correlates
##onent
wasp
serving
upgrade
detects
devised
enjoy
##urus
##oux
unequ
spline
##kt
nonm
##anger
powder
triggers
polygon
tract
stabilizer
passes
wz
primitives
optimizations
demographic
imaged
reminiscent
extracts
facing
pend
worth
plots
##ferro
bridging
polycrystalline
chromospheric
restricting
underline
revenue
lacks
neuromorphic
pock
interpolating
glueball
multif
polyakov
archimed
recordings
##54
idem
engagement
collaborations
k2
manifests
fwhm
nonclassical
yielded
seds
physiological
randomization
masking
weil
economy
unpolarized
##86
magnification
macaul
executed
breakthrough
duplex
##orn
reissner
impr
hcn
richer
##iro
bijection
equid
ignore
macaulay
accuracies
cascades
volatile
isometries
unr
poset
capacitance
fish
##simil
inconsistency
##zer
resemble
##hl
##allel
surgical
nanof
buildings
welf
cosine
stro
connects
suppresses
outbreak
translated
subcritical
reporting
dag
myst
sustained
keyp
byproduct
west
##ena
assistance
suggestions
kick
##car
##ellular
mutations
jap
kahler
neutrin
ribbon
pivotal
phylogenetic
##activity
minimized
welfare
getting
nanom
pit
compensate
calibrate
discontinuities
grassmannian
indef
spintronics
masers
rainbow
strangeness
##mma
deploying
lv
clocks
octa
country
locomotion
190
partitioned
cubes
happen
##nc
worldwide
embod
inaccurate
cohomological
concord
universes
##ittance
##rons
walking
solvability
workloads
ft
spectrally
cancel
leveraged
medicine
axions
curvatures
##meas
wan
lobe
eddy
hetero
superlattice
mh
##ysics
matchings
enyi
clo
sure
##actile
exploratory
stimuli
deconvolution
triangulations
subalgebras
widehat
dns
resc
##uned
hemisphere
confid
epr
##nia
granularity
onboard
evapor
kon
xu
##lie
##sions
ble
admm
execute
pitaev
screened
prompting
therapy
multiferro
restrictive
##evich
interacts
shares
vhe
simulators
differing
concise
serial
fresh
repl
keys
partner
archive
charmed
piezoelectric
multifractal
graphics
wl
fred
##aping
penrose
foliations
psf
##han
vehicular
##rupted
##ichi
backdoor
drawbacks
compilation
suspended
armed
fibrations
transversal
frb
underground
lecture
amplifier
animal
proceedings
##pots
learners
poison
incenti
s0
deciding
n2
wormholes
fiduc
disr
reproducibility
simplifies
gaze
blur
analyzes
sept
prototypes
cheb
thousand
anchor
advent
fingerprint
runaway
reformulation
planner
mant
tracker
entering
##requ
incompatible
discord
converging
silica
explainability
cab
mist
optimizes
conversation
percep
networked
##nik
##ception
failed
peripheral
##related
orbifolds
##yshev
bivariate
spinors
hoch
triangulation
##53
##ropol
precoding
##thing
plum
##biotic
seeks
discourse
corrupted
##ett
cepheids
novae
j17
bandits
motivic
installed
nickel
reflex
translates
usability
prepare
##pens
rosat
kos
##96
ranked
lighter
qgp
disentangle
institutions
fiducial
##ded
altitude
hyperplane
superlattices
rog
dissimil
immun
bimod
decl
imposes
cii
lyrae
reproduction
kept
intention
##forcing
##2se
transmissions
pitaevskii
expertise
hyd
localize
spans
speakers
ranged
speculate
##oken
radon
definable
tate
##oric
##aken
divisible
##ql
##oless
spintronic
blackbody
eruption
income
geo
illustrating
tissues
##ecompos
aberr
catalogues
injec
lossy
avalanche
rk
##ritical
expressing
je
lms
possessing
crab
scarce
##actical
##imals
silver
##nelling
suble
##awn
stands
removes
meromorphic
220
##2p
undet
visualize
encouraging
##ceil
dislocations
struggle
##work
teller
##information
##ellations
fluor
zz
diagrammatic
placing
neutrinoless
crisis
han
isoch
hyperspectral
confusion
polylog
bilayers
transcend
cantor
sulf
ska
##as2
##olym
invent
##etermin
bj
##erce
supr
meets
resolvent
cylinders
##siveness
##propag
lcd
justify
eft
forthcoming
##adv
##orld
ethical
bypass
radioactive
socio
print
ignoring
untr
stretched
oiii
expres
approximates
##predic
buy
penalized
reciprocity
generalise
essence
misalignment
abc
anatom
clues
tensile
##ona
assignments
interconnected
fog
grounding
##hombic
metasurfaces
saving
supersonic
##bye
obe
commensurate
deviate
ven
destructive
quarkonium
crystallographic
cardinal
pomeron
##otive
gait
unobserved
spt
littlewood
deuterium
tunnelling
relu
bulges
permittivity
auction
hun
crafted
anticipated
groupoids
thresholding
photoelectron
classifications
extraord
##ismology
bru
ub
##sification
centa
affinity
summaries
optoelectronic
##cn
automorphic
doubl
imager
oblique
renormalizable
preferential
##craft
##hbach
##iberg
lasing
##slant
105
revisiting
debye
composites
nnlo
raise
##dom
##allis
cohes
noetherian
pseudor
metropol
realm
cahn
alongside
eliminates
habit
archimedean
mad
emis
bispectrum
##fly
##alistic
retro
overlooked
substructures
##inge
duplic
relaxations
6g
generalizability
astrometry
##isci
##urm
ons
ordinal
impulsive
unconditional
lesion
dubbed
june
##iters
disentangled
3p
deterior
pear
simplification
antiferromagnets
travelling
bimodal
wikip
precipitation
trusted
microf
tox
adequately
deletion
strengthen
##ravel
##cool
wetting
##ocon
##ialgebr
packages
energetics
savings
aes
lobes
dimers
scarc
trainable
reversed
nonuniform
unravel
1994
spoken
toolkit
intrusion
epitax
##ascular
tutorial
pursuit
##ux
seiberg
subproblem
endpoint
traits
equivalences
##after
strains
##nier
feshbach
interview
segmented
tabular
breakup
fastest
vivo
##ermost
diverges
##sheet
voxel
reset
grammar
permeability
superalgebra
##41
coma
flowing
compactly
imprint
speaking
unreli
ramanu
wast
schema
annual
irrational
winning
arab
universally
timely
quasic
affirm
coherently
exces
altered
commission
coset
##rem
##ought
rows
unfolding
incom
conveni
deceleration
luc
tauri
supplemented
rosen
dest
sequencing
##oni
plasmons
intracluster
oxidation
redistribution
ramanujan
bugs
sodium
##42
extras
detectability
fibration
drinfeld
##agog
reducible
balmer
rn
silicate
inpain
##van
##tium
proceeds
pertain
surely
names
zel
initiate
gaining
tiling
monoids
obeys
##yaev
sacr
agricul
etal
compliance
voron
spacelike
chebyshev
conve
subp
wikipedia
artic
supergiant
fate
adverse
expands
younger
multimode
synthesizing
inclined
innermost
ces
lus
narr
##odyne
##oclinic
coal
door
assigning
ellipticity
pus
flood
quasilinear
##olor
auger
curriculum
refraction
zf
lepto
transferability
pedagog
##etermined
##terra
systemic
##adequ
bullet
adopts
tilings
##ingual
hed
##thal
##planetary
mdp
multiwavelength
sensory
hint
lowering
hooft
##apped
##pective
baryogenesis
evidences
##oving
##eeper
hospital
inadequ
##ulum
fuv
reader
repository
suz
##ght
july
thr
agile
acs
polarimetric
destabil
mum
lifted
burgers
volterra
tighter
website
android
involution
indecompos
disappears
##elt
stems
twenty
tmd
magnons
comprehensively
launched
oph
instanti
calorimeter
##iscipl
newman
lya
dilation
perovskites
cath
##insky
##osi
octet
fese
chest
grouping
##eling
dilepton
www
rac
##yth
##rey
cars
circles
outperformed
erasure
alignments
aur
mention
renders
##usters
buoy
branched
saturn
selectively
sacrific
##mooth
matlab
upstream
bergman
##sten
outgoing
nondegener
mlp
nasa
disadv
regress
##ionic
electrochemical
stoichi
kit
productivity
mjy
disadvant
cep
commutator
compiler
qr
##onormal
##imm
factory
orthor
diameters
stripping
arpes
avenues
texttt
ov
##hel
j1
separates
unidirectional
regulated
##pherical
drell
expense
homomorphisms
offloading
incur
managing
legendre
##oa
##fa
reproducible
floor
rewriting
##ht
commerce
##atur
hardly
reverber
storm
compressibility
receiving
musc
pulsating
cascaded
##ocr
crash
censor
densely
severity
spectroscopically
justified
scintillator
##otonic
converting
submitted
quin
schu
promoting
duals
advancement
commons
knowing
diminish
tsallis
dice
infeld
beliefs
wing
128
customized
##db
codew
quantifies
bot
##anal
##dit
##umb
receives
steeper
gating
son
lighting
conductors
teich
softening
wearable
advancing
##pm
##elect
styles
birational
xxz
shrinkage
disagreement
iia
accessibility
neptune
##uated
subsam
gray
fad
##ipartition
ferroelectr
descriptor
sheds
intercal
deficit
mond
organisms
monolith
oam
transits
quarter
java
cosmos
logs
routine
academ
digraphs
rotor
pev
##itably
localisation
imputation
idealized
satisfiability
imperf
##75
##entive
inject
really
certific
nanoribbons
chow
360
odes
##coin
lags
3he
vq
ours
extrasolar
specifying
peb
isotropy
tid
spaced
sourced
sunyaev
encompasses
pyramid
economics
spikes
##omon
paris
##ller
sought
##md
drone
fg
interconn
triangulated
pollution
propagates
preferentially
professional
dry
crystallization
##atrix
##amoto
sympt
american
johns
##enes
worked
ecg
justification
coated
breathing
##ser
adsorbed
protostars
april
ary
packings
dilat
insurance
##omially
coronagraph
compensated
unreliable
ross
##nor
##versi
##abelian
schubert
##stream
detuning
contributed
determinantal
bringing
bt
##change
delivered
##ecker
ilc
##uerre
fun
inas
rewr
##queous
planetesimals
dend
##tructural
reflectivity
conversations
##ensible
##ilic
sublattice
threefolds
laguerre
albed
loci
explosive
deline
interle
register
amp
speckle
zno
hin
spo
begins
##icially
##yle
sinusoidal
##otropic
inversely
bous
pristine
gelf
styl
reid
mpi
gravitino
attachment
mechanically
orthorhombic
##utable
rotationally
episodes
geographical
voronoi
##witz
normalizing
week
infeasible
epidemi
superalgebras
tomographic
lose
cumulants
amm
bug
enterpr
vqa
##criptions
nerf
ample
glitch
sars
inex
naked
coil
pah
provision
dualities
dispro
##alid
brauer
nonsmooth
lunar
plain
##athin
hpc
##tened
##uto
click
degraded
comoving
bohr
isoper
bire
resolves
##mp
##vable
deplet
activations
january
experimentation
overcomes
posets
regularly
shielding
bib
csp
mse
ultrathin
##mo
infec
vanilla
chromodynamics
laminar
cmes
mounted
qft
##iff
generalizable
minute
warping
advantageous
aluminum
##ationary
hamming
cx
became
##fferential
landscapes
photovoltaic
atomically
mangan
departure
multiply
##fring
aqueous
conjugation
##atics
courses
lindbl
dichalcogenides
neglecting
sales
mich
##sn
assim
sink
contrasts
grasping
counterexample
##oma
shim
twists
seeds
soil
##valent
compet
mediation
renormalisation
##67
spark
twisting
mrk
september
hyperon
uhec
rolling
evaluates
hitting
seeing
##rum
##ham
unbal
miner
shadowing
repeatedly
##ara
eliminated
neuroscience
tuc
catalyst
leptoquark
grade
##production
levy
bacteria
alkali
##kp
##emer
admin
vessel
localised
equilibration
inpainting
geographic
epistemic
calcium
##alosh
isolate
dzy
company
campaigns
indecomposable
replay
earthquake
moore
hered
compromise
gravitons
superluminal
scre
tagged
displayed
moriya
##uses
unw
promises
celes
nag
yam
##gd
cation
approached
logarithms
degrade
metasurface
painlev
methanol
incentive
ferromagnets
teichm
comets
##fsch
inevitably
photodet
filamentary
##onuclear
weiss
gelfand
census
attribution
fmri
##ilateral
##alling
crs
magnetoelectric
dzyalosh
hate
lefsch
loaded
polynomially
##vm
celestial
##arian
variances
collectively
orthonormal
consumers
lefschetz
think
bitcoin
electrolyte
jul
##omics
pumped
##isciplinary
starbursts
##otomic
fric
##icians
legi
batteries
versatility
steiner
##egel
enclos
##lenbeck
ldpc
ambiguities
aligning
sturm
orn
tetraquark
beat
offsets
seq
##ropolar
ecological
infectious
##umping
formulating
simplifying
thompson
kim
org
##oom
##wich
bigger
johnson
cps
richard
pages
uhlenbeck
birefring
##ipot
visualizations
trying
standardized
germ
##holders
1990
dew
reside
regener
december
engineer
##ylene
ama
submission
darb
byz
invalid
ferrim
phone
formalize
intuitively
peng
##zi
backpropag
histogram
conceptually
storing
comprise
positrons
overcoming
swap
valuations
manipulated
##anese
##aic
scarcity
qpo
stationarity
afterglows
darboux
##phones
##atin
sampler
dissem
isochron
favors
enjoys
##tian
cloning
tactile
multist
displaying
##holm
kram
unphysical
##far
superfluidity
roch
superh
3000
preven
unusually
##nr
moody
cybers
proliferation
bg
ny
twofold
##pb
##opath
##ails
radiance
##aru
##rosymmetric
differentiate
surpasses
robin
phr
obstr
engineers
kb
fos
mainstream
##quisite
outdoor
plants
pill
##acu
wavenumber
##word
coexisting
interdepend
depolar
lorenz
gig
unic
timest
excluding
residues
##ori
inap
controversi
suppressing
##imetre
reflectance
tier
thoul
deficient
ibm
##cos
hess
envision
##tility
thouless
centroid
fireball
hypern
recipe
emphasizing
congruences
unnecess
iris
##arding
afric
flaw
nust
zw
spinless
underdoped
rnns
##amic
concordance
##iously
accident
negativity
wkb
##acoustic
tuples
hochschild
toolbox
cobord
gcn
##odynamic
qp
wood
disparity
stemming
prefix
##inally
outward
bacterial
eigenmodes
anatomical
1993
mgo
##fort
arranged
unequal
##oe
avenue
nonthermal
ys
eleven
epic
ellipticals
unify
surge
thinking
biomark
martin
240
sap
backre
influential
sql
gathered
indefinite
##eweg
misle
##anner
nanod
diluted
recommended
gws
stripes
##2vec
supercool
observationally
sund
##optic
unrelated
##oz
finer
keeps
triaxial
dilemma
succeed
flame
partons
copula
translating
rxte
##ibo
polarizability
richness
greatest
##try
fle
encompassing
sdp
panel
pks
catac
##axis
colloids
corroborate
##rosion
indispens
2g
asks
diffusions
noticeable
isoperimetric
byzantine
mec
concret
biologically
##2o3
coerc
opened
ligand
nustar
checks
##sa
contours
assessments
dun
india
wheeler
##fts
cortical
encrypted
##tex
lessons
omn
commonsense
interatomic
fasc
race
prosp
programme
telec
j18
yba
##ronic
##avities
adapts
disorders
packed
rao
settle
isoc
machin
##ifi
babar
##eted
##acs
instrumentation
indirectly
innovations
rescaling
cadence
catacly
##aram
augmenting
circumvent
pup
participating
multimedia
##inberg
##sider
sim10
axially
discretizations
manifestly
braided
##weighted
nothing
penc
prere
arrow
handled
attracting
undersc
##igne
triplets
portal
##bhs
##ankel
depleted
t1
##ells
##rie
specificity
##chl
electrom
attains
adul
emphasized
cataclysm
hco
multilinear
dividing
institute
antiproton
unifies
pier
pendulum
collimated
##pack
pleth
##fully
centrally
indispensable
facets
##amese
decomposing
polygonal
treats
latitudes
##asm
##pered
##bral
##0817
august
monge
softmax
enforcing
dichro
##oints
aperiodic
flatness
retains
stripped
eigenstate
antineutrino
vv
weaknesses
cataclysmic
##ella
hyperelliptic
conductive
ultrah
svd
nai
genomic
viral
melt
workflows
ohmic
nut
digit
adjustable
frw
subvari
##obar
rham
##user
endomorphism
semist
isov
provable
distinguishable
inacces
2h
preceding
identifiability
spanned
##adiabatic
pinned
seamlessly
##eda
##apidity
golden
fraud
##luded
inevitable
ratings
conflicting
commutation
crowdsourc
unbalanced
nonst
populated
lossless
sandwich
counterexamples
cz
gluino
subdom
eigenvector
contractions
disappearance
san
##iton
##ivially
muse
memor
confidential
propulsion
chromosphere
##98
nonsingular
excessive
##inform
took
niob
extraordinary
##artz
##ivals
confron
rods
tg
##binary
laur
entails
##win
seasonal
unavoid
compete
chamb
realism
validating
quasiperiodic
dispersed
cyclotomic
unimodular
deficiency
elevated
hither
structurally
amino
glau
akin
artifact
wt
##hu
surfact
peier
vertically
##ountain
convinc
sharply
octo
street
foam
bent
trick
durations
strained
warp
empow
crowdsourcing
1992
inspiral
tags
shrinking
figures
brackets
imperfections
##tance
putative
undec
depression
women
decode
nondegenerate
transmitting
peierls
tts
wannier
monolithic
send
##enter
compiled
mds
wee
threefold
harv
siegel
logarithmically
adhesion
stakeholders
zar
seminal
favorably
hitherto
##omin
household
210
##ony
108
spacings
hurwitz
hydrocar
hands
misinformation
##quist
organizing
m1
euclid
fredholm
emissivity
sham
corners
closing
aircraft
utterances
grading
governs
##lers
perv
##ycles
multiphase
yout
disf
summarizes
steg
enters
methodological
##aehler
aleph
##roup
ideally
##irc
deligne
documentation
##tory
unavail
presumably
intermittency
##niz
minimizer
smartphone
jupiters
stably
attitude
ionisation
pedagogical
##hole
tries
distr
foundational
polarimetry
##osol
runge
##fm
4u
hankel
##gent
invisc
fluence
electromagn
##inski
polarised
seebeck
cyt
energetically
confounding
inviscid
##elson
##aku
##ande
supercl
errone
tableaux
rearrangement
forens
compart
realizable
frbs
creative
restored
glauber
rationality
indian
tidally
spoof
##ugs
quivers
multiferroic
kosz
thereof
magnetohydrodynamics
kirch
dor
ix
emergency
dilution
exer
##uptive
hydra
indexing
parallelization
displaced
##predict
october
externally
intersti
conic
tric
interplanetary
##uchi
##urface
gly
suprem
prolong
witt
##omponent
backscattering
gj
##key
tourn
merits
##rd
##leman
folded
heads
pnicti
hots
nanoph
borrow
besov
##ipp
introductory
ended
owners
twistor
etale
eel
##xbs
pentaquark
vdw
koszul
##qcd
deviates
porosity
animals
kronecker
doublets
lusz
uran
disentanglement
slicing
gi
thermodynamically
messenger
d2d
lusztig
cygn
hart
dzyaloshinskii
ogle
adversaries
230
##ecurity
ope
commod
nanometer
container
orientational
ssc
decidable
factorial
##eworld
##ional
##deev
lsst
arabic
formats
shapley
extrapolated
##gro
entangling
machinery
blast
positives
##classi
lindblad
backpropagation
c1
testable
##66
enz
upward
hyperm
suitability
singly
restore
manifested
mildly
citi
multin
lasting
tentative
pascal
optimizer
ath
edm
analyticity
delocalization
ornstein
formalisms
unaff
remainder
legitimate
derives
ek
reviewing
3s
minus
##ny
decor
makers
tackling
albedo
danger
##house
submod
cheap
feedforward
save
claus
choos
##mt
##inges
##ospheres
unimodal
##rian
refin
braneworld
meg
s2
fores
selectivity
boosts
contradiction
rope
##91
##se2
strengthening
m5
delocalized
magnetars
lipid
obstructions
gesture
eavesdropper
leo
tunability
haar
gyro
adatom
cygnus
4f
450
dh
tame
##95
anth
##olov
##irgs
propensity
hadronization
gemini
lcdm
ultrahigh
chambers
##87
anosov
nmt
exercise
inaccessible
guaranteeing
kam
vp
##layers
squid
reflective
neighborhoods
prospect
##df
lfloor
rescaled
splines
ost
stepping
shocked
readers
subleading
goodness
gil
neglect
reconsider
polyhedra
motifs
quasicryst
##agen
deton
evidenced
terrain
##luids
deepf
##andom
democr
actors
king
##ester
parking
supercurrent
polyd
mimicking
##mber
consolid
election
dr2
collapsed
rfloor
equipartition
clumpy
destroyed
sax
##dane
nord
frictional
massi
resh
spectropolar
rpa
misclassi
undetected
surroundings
barred
epitaxy
3n
nis
snapshot
metropolis
kut
facilitated
suggestion
telep
perceptron
b2
pes
##adjoint
factorized
##titudes
##cut
methane
digits
prominence
srtio3
faddeev
biometric
##ont
legg
factorizations
impractical
recursively
peters
##iser
##gram
indexes
fabry
cocycle
##soft
imperative
##cious
mamm
enveloping
tung
decouple
superpositions
gluing
maneu
gaugino
viz
shedding
annealed
weeks
solen
automate
nonmagnetic
##ecks
##ommun
##oreson
vesic
whit
perimeter
attackers
bellman
actuator
dovich
haldane
accessed
tpc
subwavelength
sdes
kaz
rotated
eccentr
obliv
##abe
firms
m87
microb
james
patterned
contradict
julia
scru
extractor
unnecessary
cram
promotes
recyc
coarsening
bibli
behaved
stimulus
adverti
witnessed
sessions
cryptoc
polylogarithm
bone
##zes
projectile
hon
##64
reb
1500
subaru
optimistic
money
pseudop
decoders
french
invoking
1t
##alk
cortex
biochemical
##aya
reparam
##qc
subn
randall
##iation
descriptive
##ylov
##ugal
endpoints
jp
lsp
##litz
withdr
##photon
101
mediator
facebook
teachers
##whel
artificially
eccentricities
sut
mapsto
irac
inventory
digiti
1987
scrutin
eik
gad
hmm
tied
underpin
helix
raising
retinal
##idity
##bot
respir
hir
qpos
pyrochl
##v2
quanta
eit
krylov
rectification
cryptocurr
nonrec
matters
paramount
neck
##aved
##rightarrow
clarified
upt
drain
utterance
incomplet
aus
flattening
assembl
anticipate
alfven
concretely
pushing
western
inadequate
relaxing
binom
aggregating
moser
sim0
##acking
naturalness
reformulate
routinely
propositional
ok
xai
defoc
treewidth
musical
supplementary
##thetic
looks
nw
overwhel
infrastructures
css
iid
##entified
levi
zum
multipoles
fascinating
unru
notor
rayet
occul
citations
schott
dla
thro
amr
##ocking
differentiability
kramers
dre
handles
communicating
skewness
orienti
##caling
discret
ancient
unruh
superim
backreaction
wu
##ards
unaffected
inward
misspec
germanium
eikonal
900
reverberation
cass
##ct
summer
##ubo
hollow
cepheid
stochastically
##elativistic
executing
bialgebr
kre
##arius
protecting
transferable
diab
designers
regulator
fossil
##imental
amal
physicists
##oder
antib
pipe
##standard
##elve
qq
##otential
locating
axiomatic
alp
blues
jitter
##inations
##ething
reconcile
nac
##tings
actuation
cfts
keyword
##fit
partonic
leibniz
mantle
lesions
landmarks
sdo
punctured
3x
##vector
contrasting
noncompact
microfluid
gun
precess
unsolved
warning
disentangling
conflicts
protostar
receptive
##ayashi
slowing
threads
##sal
kob
halluc
something
purch
inconsistencies
concurrence
converter
2e
nonstandard
degeneration
portable
evanes
cascading
cgm
jun
ch3
nove
alexander
##itories
excur
aerosol
november
ejections
rum
##65
mgb2
ses
poisoning
anat
fruit
visualizing
##gaas
phosphorus
ready
interband
actuators
hydrophobic
merid
##zon
solute
oblivious
twelve
liu
stone
wak
deconfined
refining
hosted
bigg
igr
strand
markers
hindered
quadru
acquiring
hinders
hardening
revision
colorings
2nd
smith
phenomenologically
actin
circumbinary
harmful
massively
your
##68
##jl
diverge
bondi
presentations
respects
centrif
plaquet
ratch
##vert
frank
schottky
##acc
contag
amplify
resembling
websites
##uin
dijet
gw17
plethora
losing
multiband
perse
##bra
scholar
##berger
##teen
delicate
swapping
zeroth
nern
##asis
disclos
oversh
##ova
letters
convey
contracting
embodied
ysos
##ife
febr
maximized
contradic
quadratically
pbhs
paradigmatic
mimics
inexact
##factor
##zens
conductivities
occurrences
concurrently
##idents
trim
sundrum
yu
quest
prescriptions
specim
relaying
mell
wds
delivers
pathology
nonrecipro
nernst
kum
##rw
served
discriminating
010
weinberg
basically
drugs
viewpoints
koop
pertaining
controversial
##lp
##angent
resistant
btz
mur
coverings
lexic
idempotent
inception
stochasticity
collapses
rhyth
defenses
visit
renyi
galilean
imit
abstractions
conting
arter
fusing
alg
colle
framed
graining
detrimental
buckling
supercooled
ere
subsurface
milnor
kaehler
predictability
decomposable
diverging
overlaps
captions
restricts
##linations
##ipotent
disrupted
integrators
maker
pm1
bluesh
##ategories
##organic
cybersecurity
##inio
radiated
assistant
ams
teff
journals
ton
disaster
carb
tcp
galact
closures
repeating
feeding
pacs
koopman
cq
##ifting
wideband
acquires
tuple
pile
##gi
inexp
quasicon
learnt
##aired
##econds
dsph
bistable
bouss
zonal
connes
jona
##ostatic
auctions
correspondingly
puzzling
swimming
curse
sixth
realizes
langlands
vap
##acing
accessing
tile
veg
dressing
assimilation
pertin
opa
notation
descend
ppm
elsewhere
sos
mixings
safely
undergrad
208
##ship
nords
integro
serre
pseudospin
accumulate
jamm
discern
fuller
dichroism
isovector
anyons
latin
fragile
puts
episodic
austral
nordstr
unpredict
transitional
pi0
##eav
wavepack
magnetos
episode
semif
##inesq
wavelets
##analysis
butter
lifts
mumford
advertising
850
prod
helping
categorization
802
birk
oss
##troll
cobal
drude
attosecond
autonomy
printed
nms
##chains
disambigu
##ardi
pathological
cm2
multicomponent
hereditary
ellipsoidal
february
rises
reed
contribut
boussinesq
pap
sde
##elberg
chond
blr
##amiok
conscious
centres
regularizer
##ographs
barycent
lond
##fusc
progn
##abs
sounds
herb
uncovered
git
##erk
##roc
polymorph
preced
bouncing
ye
##cati
radiatively
merged
endomorphisms
lasinio
kort
oz
##gra
disfav
retraining
ach
sputter
occasion
susceptibilities
sagitt
##uda
chemot
brans
checker
precursors
suzaku
##rous
ship
motors
bottlenecks
parallaxes
wis
##rep
strips
unt
iterates
##planes
song
uller
##top
strat
motivating
adaptability
fn
york
##dal
multigrid
postulate
parametrizations
##ixing
provider
mdps
##kir
phononic
##written
stroke
##ulators
nonadiabatic
##compu
eisenstein
##cer
phrase
##echanics
fingerprints
institution
laurent
erroneous
photos
aqu
aromatic
##bc
escaping
contaminated
compromising
reliance
morita
pedestrians
##77
relays
industries
pom
##fiable
desorption
successes
symbiotic
cognition
meters
referring
attempted
philosophy
peg
movi
odometry
hbn
microcavity
##chair
influencing
sach
1991
j16
rud
wess
##arization
wings
orch
grouped
factual
angstrom
textsc
bind
petr
intel
uncount
##ometrics
converts
thicknesses
fpt
inj
tripartite
nutr
cooler
passed
pfaff
trustworthy
##array
reformulated
csm
vgg
worldsheet
##liest
memoryless
isoscalar
arn
unavoidable
##ationally
prevention
chron
zumino
##qr
dial
tensions
ue
stocks
##ensen
downward
ramond
tac
telecommun
ie
reflexive
cree
waste
##sibly
endeav
gathering
isomorphisms
banks
bisim
fore
dihedral
nonabelian
trivially
pyrochlore
##irus
comparatively
skewed
4s
##otherm
parameterizations
participant
multicast
kutta
tub
calog
differentials
colouring
settling
loos
##aa
poloidal
kinematically
commutators
pret
ultrar
retarded
subord
denser
tril
dyadic
biasing
compliant
reachable
exceptionally
multich
kitti
flying
unexpectedly
unpaired
calogero
vy
xl
metabolic
superb
reply
homeomorphic
diodes
increments
catalytic
bosonization
exchanged
vaccination
undesirable
evanescent
somm
##85
inert
occupy
torsional
subdwarf
amalgam
##2as2
##utativity
orderings
disparate
partite
##pp
##84
atac
predictable
sustainability
kuramoto
050
embry
subhalo
misleading
pictures
degrades
##adium
polish
holding
finetuning
birkhoff
bcc
vm
##lay
remedy
mae
missed
eph
comfort
##idability
unperturb
scatterings
pbh
scripts
kull
mx
##93
##iski
obfusc
participate
transcendental
debl
dioxide
succ
everyday
linkage
chips
sender
faithfully
das
kms
conformational
##style
##uttered
115
sending
commutativity
##icial
stragg
fuch
inorganic
##amak
##books
managed
markedly
dal
says
embeds
illuminated
pharm
paving
excesses
ego
rat
navigate
hyperbolicity
braking
calibrations
countably
unperturbed
relied
kinks
cof
labelling
inequivalent
manipulations
mno
tiles
##2s
##arallel
##tre
##occ
steer
surjective
nanocrystals
rail
zag
##aft
##ims
calder
##ospectral
tokamak
##ji
acous
motives
xf
##rate
##astron
ultrarelativistic
tq
##imeters
resor
researches
korteweg
srtio
detached
s1
acute
scatterers
handwritten
holm
tailoring
electromagnetism
sagittarius
kullback
bism
inspiration
unsteady
unidentified
inexpensive
##entist
knee
psychological
hen
commute
synergy
##ennard
cited
mps
##js
command
substituted
willi
commands
identifiable
jeff
zak
nonex
afterwards
utilities
cohort
infalling
zariski
atacama
galactocentric
ea
zt
depic
countermeas
cumulant
intim
multitude
aps
polarons
implant
flexibly
ignition
script
gab
##text
prey
conflu
##licz
##oly
grey
anonymous
jeans
pertinent
symmetrical
fibres
orlicz
obeying
prerequisite
ids
earliest
constantly
##hdm
osp
##auty
odds
polytropic
##tc
stair
tradeoffs
civil
expressiveness
london
##vd
basin
timed
integrator
spreads
emphasizes
##echn
##ghz
automotive
delivering
altering
richardson
reject
distinguishes
##89
ergs
guides
circumv
cusps
bleu
o2
##2cu
##hab
##ched
##ewicz
laboratories
##cell
borne
kirchhoff
##mu
inherit
benign
ellipsoid
dewitt
invoked
ionised
homeomorphisms
terminals
rheology
querying
zeno
expose
unipotent
plag
1980
snn
normed
puzzles
sacrificing
sip
france
accelerates
unrealistic
cta
apis
apex
predicate
reinforced
rw
##ais
##quad
profiling
##frac
stabilizes
irreversibility
cotangent
##mos
bear
##ensed
obliqu
incentives
oversho
avat
shuffle
affirmative
arts
chart
##kenstein
mgii
scramb
tetrahedral
##69
chlor
projecting
refriger
regulate
cliques
planetesimal
lennard
##haul
104
assigns
prand
##ache
overdensity
misaligned
chim
4000
redef
title
subdivision
##dles
tol
shadows
fati
semipar
ultrash
riccati
outskir
jy
mcc
sys
rotate
roc
##acon
park
stringy
baths
gratings
##sting
##mic
plur
noiseless
interstitial
##va
forn
occluded
halide
158
attainable
microcanonical
hypercube
weiers
luminescence
birefringence
sizeable
redshifted
fibered
rocky
##isperse
##iper
##63
##ito
sep
frequentist
fq
##mas
heus
inten
firing
purification
repositories
subsh
decomposes
constellation
organize
pepti
superradiant
gw170817
nesting
##ald
coplanar
arte
strikingly
furn
smartphones
##more
##sig
##ida
poissonian
homeomorphism
roman
broadened
picosecond
cleaning
##lass
reorient
##agin
##ogs
photom
instruct
encourages
advertis
##atric
decis
cycling
necessitates
##gb
##ivity
##ports
sediment
leibler
prandtl
bend
##economic
transce
sim1
unavailable
ultrashort
censors
extensible
geomagnetic
transmitters
incompleteness
##amiokande
centred
adam
hiding
sharpness
qutr
conditionally
magnetor
inappro
commodity
listed
##allic
multilayers
noncommutativity
repetitive
fft
qds
yt
ineff
sco
victim
enlarged
rans
plateaus
blowup
nonstationary
teleparallel
myster
shimura
pam
chalcogen
##uss
acknow
thermop
interpolate
interdisciplinary
enterprise
bard
pores
regards
contextuality
enforced
propelled
##ecs
interoper
vaccine
undertaken
encodings
kubo
osm
exf
twins
tungsten
flrw
marks
manifestations
culture
4he
mall
moons
cohesive
extremes
unwanted
supercompu
braz
leaders
virtue
peculiarities
quiescence
reconfiguration
nonem
argu
braiding
supergiants
printing
wrapped
phrases
duty
retained
asserts
refinements
distributive
tracked
circulant
fulfilled
tad
##wb
tour
retrieving
youtube
joints
##ureless
typed
micromagnetic
memrist
billiards
modulating
narrower
ephemer
nns
liver
dissoci
avalanches
sns
steel
tmds
egr
##egaard
hippar
debugg
##diffusion
##yer
noninter
mercur
queueing
lightcurves
buoyancy
##fies
##agnet
operad
snns
3872
zip
notic
ontologies
cobalt
##finder
annular
kaw
anomalously
iff
lss
stimulation
##osk
autonomously
##limited
overflow
motivations
tailor
subtyp
mandel
dehn
multiuser
microstructures
weierstr
bile
##zers
quadrupolar
mine
##61
geost
hq
fatigue
##arri
commitment
##usted
inserted
sulfur
##aun
audience
sdn
heusler
uf
rankings
violent
documented
semiparametric
outskirts
ah
dish
beltr
chandrase
##sign
occlusions
gestures
undergraduate
censorship
ati
amor
eventual
epidemics
commissioning
chandrasek
corrug
counterter
photoion
saturates
cocycles
kobayashi
thurst
##inning
##addi
advice
propri
siamese
vries
disj
sho
spectator
dmrg
putting
renewal
fps
macd
superfluids
neon
holonomic
armchair
bekenstein
infections
blend
replaces
zinc
##gas
lofar
coronav
herbig
hipparcos
##dy
die
situated
##azing
symptoms
drones
modulator
retention
societal
d1
mst
synd
substellar
21cm
incrementally
compass
##erez
sensitively
violates
harnessing
##erb
##yb
##rome
allen
##olymer
mcs
ethere
##ister
finish
combus
exposures
##vis
initialized
neighbours
concludes
dmft
europe
fren
##omet
thermonuclear
weierstrass
upgraded
ribbons
penguin
neutrality
turnover
heliose
sio2
hedging
##enceph
griff
ethereum
mbh
##fi
##quadr
bjork
##ocy
muscle
configurational
voter
assemblies
heegaard
exceptions
psl
decorated
detonation
intimately
radion
##requency
arguably
kas
qmc
##ogether
impossibility
fluorescent
certified
##olecules
##uminous
russian
thurston
bep
crosses
multipath
subproblems
gilbert
koster
##aev
loose
enclosed
bip
hitch
##will
backhaul
simplices
multichannel
prospective
prolate
##arting
resampling
shortly
transported
dispatch
tand
##pan
optimised
pockets
wc
shut
biaxial
slide
resorting
m33
##agnetism
perturbing
preconditioner
excite
tractability
bjorken
##tosis
##unctive
denomin
altogether
beltrami
mz
nar
metabol
bfkl
##electronics
augmentations
verifiable
sommer
chandrasekhar
stores
sports
thermopower
mercury
reentr
homomorphic
asteroseismic
##inct
marker
propagated
256
portra
ladders
amazon
respiratory
conventionally
smbhs
lib
earthquakes
emulsion
perihel
affective
analogies
airy
hypothesize
##05
##rophic
eigenfunction
gns
##agneti
ultraluminous
fel
gauges
grounds
magnetospheric
spheroid
titanium
stanley
oppen
academia
fornax
kore
stays
italy
declar
balloon
superimposed
proc
harb
divides
transversely
ferrimagnetic
##eron
##idium
canonically
operads
representable
hierarchically
##ophysics
grammars
chordal
australia
combustion
pms
methyl
##grade
sme
grover
schedules
750
donald
basal
factories
subsequence
replicate
rendered
micrometer
hilliard
chondr
imprec
bbn
girth
venus
interviews
##aser
126
##101
electromagnetically
surfactant
precessing
exogenous
2r
collocation
portions
##transport
##urv
christ
ecosystems
weib
marl
maxwellian
resummed
tsp
eruptions
deployments
routines
till
ascribed
##quas
107
personality
conveniently
##rc
##idi
prag
sfrs
pqcd
backscatter
wick
suggestive
butterfly
##roken
bijective
vectorial
5000
allocations
rogue
2o
inactive
cometary
##homogeneous
##vo
robinson
shearing
##anz
valve
octup
##2c
frak
disadvantages
twee
achievements
walled
circumn
continuing
hyperplanes
calibrating
##ultipl
280
asca
ramp
prevailing
mle
tap
spent
curl
ending
dune
unbroken
legendrian
advocate
sim2
improper
##bb
##wall
##88
mature
realised
##sia
horn
psd
payment
eros
italian
novi
smt
involutions
prohibitive
compartment
amorti
carnot
intersect
margins
khov
brazil
strata
2deg
bonded
parametrically
tackled
marketing
obscuration
cobordism
enzym
##aj
trait
engage
cfd
gallery
unev
microfluidic
hw
##oskelet
tedi
alarm
##inetic
gmm
zy
handful
enumerate
pervasive
pseudopotential
orchestr
polyc
ferroelectricity
curated
rotators
specialization
payload
functorial
dictated
konts
semistable
sputtering
shop
esr
localizing
minors
buff
microt
catalan
competitors
opportunistic
vastly
ash
schrie
succinct
1m
v1
##idia
functioning
combs
##zzo
0001
watson
kpz
dissemination
hove
##uble
perot
monomers
arbitrage
photoexc
ovi
obius
grs
noble
longitude
surpassing
1st
paul
official
personalization
photomultipl
##bauer
##olsky
##ums
adher
onsager
kad
tul
fillings
quenches
allocated
##ran
##quer
quasis
governance
wfc
convincing
withdrawn
4k
nss
technically
dopant
wheel
030
##amy
annulus
debated
shallower
capsule
kontsevich
tried
deliber
pearson
creep
monomer
inhibit
manganites
schrieffer
plms
smallness
covert
resonantly
icl
##oco
##aka
outlo
##part
preclud
poster
queues
opaque
aia
trib
reinter
##apeu
season
centrifugal
plaquette
kv
##aced
farm
intervening
god
##parameter
transducer
exposition
overheads
lema
ras
##room
perseus
macdonald
kosterlitz
tandem
##62
##3o
preparing
tumors
##iang
interfering
theme
thirring
mellin
##ibbo
proxies
tachyonic
jc
distribute
mechanistic
aesthetic
books
surveyed
060
##pd
chun
nvidia
cabibbo
tedious
modulate
ty
##pon
alz
superhe
splitter
crowded
novikov
##ico
unsatis
hotter
explanatory
scheduler
snapshots
spoofing
likewise
perceive
kod
tempered
nonempty
h1
watermarking
##free
##atal
##lygin
summing
conforming
monolingual
uncovering
r2
prism
blending
layouts
##efield
receptor
coronavirus
vas
112
amplifiers
jahn
122
subclasses
subnetwork
occult
##otherapy
echet
neighbouring
bistability
thrust
blg
chaplygin
oblate
multinomial
##esium
##olo
##chem
radiating
friends
antiferromagnetism
predator
immersion
movie
ties
homodyne
psychology
##ostat
fermat
hyperons
cnt
cuspidal
diversi
nik
1p
lanc
##inely
##ela
unweighted
realisation
dispersal
planckian
homogenous
wimps
catalysis
roche
accelerations
sparsely
##isable
manipulator
towers
appreci
numeric
hertz
hitchin
fort
##oule
##nder
volun
projector
wakefield
exfoli
hiv
kant
##uti
covalent
magnetotransport
qudit
eli
geant
lowered
keypoint
cun
##rime
assemble
pseudorapidity
berez
##83
##essels
##atization
flipping
animation
##tricted
attaining
kuiper
aoi
oi
undoped
predicates
disturbed
underestimated
stegan
cable
##imaging
survives
billions
##electro
dlas
##2te
pointer
circumnuclear
flips
lovel
##eleon
paraph
breit
nich
pig
103
mobil
unveiling
andre
beauty
drifts
confront
##printing
janus
photocurrent
oppenheimer
hj
##mings
##tran
##pheres
semid
subpop
supremum
interl
discl
valle
ineffective
gx
seiz
coloured
sketches
administr
heral
provenance
supervis
cvs
grassmannians
cem
parsim
weakening
impacted
unfair
dangerous
cec
pk
##500
moved
calif
chooses
ltl
##td
niels
certification
noninteracting
feel
registered
inability
ito
generalises
inflated
outlines
reth
nondetermin
##ulative
trilinear
102
##boost
panor
heteroj
etern
ascent
remot
telecom
nuis
asteroseismology
ratchet
wer
##hk
##itant
contig
discounted
observes
topography
algebroids
qquad
rer
beau
sinr
##rophy
taut
jar
wifi
flick
pencil
##stm
craw
encl
female
tou
##brane
gluonic
unrestricted
gol
vessels
##igen
##izabilities
recru
defective
magnetometry
interpolates
extrapolate
motif
vev
##ampl
##anners
slots
pioneering
##04
##dac
adaptable
fractals
isos
superradiance
japanese
zener
diagnose
rounding
terminated
b1
##ounting
hell
##xb
impacting
barg
sdw
ctc
supplied
lightcurve
boss
lan
xc
optimizers
##lander
stick
reals
fingerprinting
pid
calculi
macrom
cpus
alters
choles
nonreciprocal
bomb
##74
interiors
esa
005
microreson
kau
kato
##arth
##isk
attentive
completes
uda
xte
##hi
##hf
##ods
##romic
initiation
stoichiometric
fing
adc
mesos
draws
##sigma
smoother
outlook
rim
regulating
adversarially
uhecr
##ng
##yah
isa
##gev
nonvan
hyperk
x10
##yal
##apses
bz
m3
##ket
vlba
scheduled
concurrency
lx
solomon
deaths
##deg
evac
moe
converters
trackers
rectangle
nonvanishing
cations
##do
flatter
assurance
couette
completing
parser
foster
##isen
centrosymmetric
periastron
conjugated
keld
olig
anatomy
dome
hk
rhom
flop
antipar
segmenting
kaons
##aughlin
injecting
ctr
k0
kid
characterising
stealth
cathode
censored
exerted
##94
privile
biomarkers
tx
decep
uncontroll
marginals
keldysh
classifies
cere
##ikh
khovanov
512
spine
signalling
microp
internally
##integration
tesla
perihelion
##tibility
##ica
combat
griffith
alzheimer
recast
blockchains
successively
eclipses
5m
reus
reads
unconditionally
quintic
certainly
##92
dissipated
hn
##formed
fixes
124
joining
##06
##etyp
##veu
geophysical
biharmonic
121
straightforwardly
intuitionistic
bour
##zos
diphoton
inversions
thomson
answered
##olume
therapeu
multitask
tio2
vend
resort
apo
semil
monoclinic
exemplified
prohibitively
spor
inhibition
hydraul
mouse
sonic
##cam
trad
coag
therein
meridional
semim
acids
automating
challenged
laes
superfields
##matical
establishment
attend
123
paying
tone
##gee
nonmin
contracti
regularize
quadro
##acher
superp
narrowband
japan
atiyah
won
isobar
peers
balances
diamagnetic
congruent
license
snia
arres
##eps
brittle
serend
rationale
acceptor
parisi
quand
gauging
laplacians
##2o7
epidemiological
dagger
gabor
neveu
fringe
inherited
pfaffian
decisive
##gel
supersolid
leqslant
retros
dynkin
retrograde
noticed
brand
lesser
landing
lithography
serendip
kamiokande
##yama
usable
regularisation
electroproduction
bilateral
##electrics
adiabatically
nielsen
080
tls
##dt
##kar
relics
##uba
electroenceph
overwhelming
verifies
sideband
rupt
mq
wn
elic
behavioural
perceptions
##78
overton
compressing
stops
bafe
tick
confer
##ffman
##istence
inferior
turbine
keypoints
uma
1970
shapiro
12co
charts
##aga
meant
calculates
marine
clinically
restoring
260
##hydro
usa
doubled
allocate
debugging
nuisance
lcs
galex
freeness
lceil
rceil
sers
grace
vii
sigm
pmod
caustic
sheath
scul
bird
valleys
intensively
installation
flavours
multiphoton
pushed
ride
##onc
repro
grib
##ptons
experiencing
additivity
compromised
donaldson
##tle
##omar
subtracted
subcategory
precipit
concatenation
funnel
unpredictable
adsorb
cantile
archetyp
permitted
exemplify
contagion
diatomic
##andering
vela
practicality
ssfr
##borne
ammonia
sommerfeld
enthal
genotyp
##ician
knaps
notoriously
simulates
smearing
knapsack
##ocs
sublim
mosaic
reversibility
obviously
narrative
bsm
got
xs
##iveness
absorb
appreciable
##face
ing
intact
polarizabilities
eastern
longitudinally
##bank
ancillary
ancilla
loosely
##lm
correlating
earths
##expon
interchange
aligns
auditory
multipolar
ascertain
020
nights
scalings
concentric
caution
octon
seriously
hof
##rf
mex
founded
monitors
lamost
undecidable
pir
zen
slave
centim
equity
inductance
facet
sier
##imp
flops
113
multiplexed
quantifier
inclinations
manin
depinning
elevation
rewrite
barotropic
gaussians
histopath
subsample
ck
hx
hurst
proactive
nonext
quarkonia
suffices
organizational
fabricate
credible
dissimilar
1k
xrt
##imov
pezzo
retail
drawings
confronted
tricritical
rq
##wind
download
elongation
sell
supersymmetr
acknowled
4x
bw
conformation
dips
faulty
insertions
enforces
clauses
panc
representatives
ler
##etes
##channel
infra
catch
lsb
truthful
agricultural
gribov
##urg
nonlinearly
##okh
attempting
dictionaries
petri
flakes
mmse
corroborated
##aper
historically
pythia
lanczos
g2
qualities
##adian
crime
ramified
pursue
##integrable
synergistic
jay
##jes
graphic
j2
o3
moist
sheared
chirp
chargino
bismuth
lovelock
mats
##olios
##posax
smectic
polymeric
1989
bepposax
cro
ncs
##elets
118
relaxes
thinning
bigr
mitigated
interconnection
progressions
deblurring
##ira
reputation
##scs
footing
stairc
##itas
chronic
emittance
cracks
vote
residing
portfolios
squarks
geant4
##ompos
eman
anything
microquas
ari
##ado
strands
stirling
cloak
p2p
##illen
ices
invasion
initiative
zeh
tellur
mistakes
remotely
john
##hou
trailing
consequent
polyhedron
octahed
forwarding
nlte
hook
nfw
fullerene
##ague
regularizing
nonmon
selberg
##parable
##indler
concavity
soundness
antimatter
gle
sak
##09
longstanding
##falls
whitney
##avy
quantiles
parabol
multiparticle
qaoa
kic
##lov
exac
atl
deterministically
2t
gcd
##pg
##path
##entation
mathit
speedups
everything
egocentric
ybco
ker
##mar
cloth
burn
levit
corruption
rab
resides
controvers
tightness
szeg
rectangles
##informatics
magnesium
landauer
neuroimaging
honest
bilevel
mere
yangian
##07
nonin
##oscopy
fsr
echoes
iq
beating
diagon
foreign
2hdm
##gman
multiples
##quadratic
a1
subsum
mtl
controversy
##uts
parc
##ogonal
gennes
fov
definitive
voters
cow
superchar
arriving
snipp
wald
crosst
rdf
trojan
iwas
incurs
univer
doubles
##flows
isocurv
##mr
categorize
octahedral
##ua
concom
##posi
categorized
chemotaxis
gru
seif
ortho
summarizing
stories
geqslant
002
winter
phosphorene
nmssm
fool
sweeping
##engers
oscillate
codebook
benchmarked
unlabelled
gon
singlets
roi
progresses
pis
integrations
12c
gos
defocusing
reorientation
##elman
##associ
diffusing
visited
river
##ocaloric
deepfake
bardeen
lights
containment
tensorial
##sson
professionals
veget
##fo
##size
##intu
etgs
silicene
012
toi
tof
##agnets
##rophot
proportions
spanish
##torch
cds
electroc
mitigates
taurus
miniatur
knn
##olic
##akian
wash
##ativeness
quillen
lots
standardization
formalization
connectedness
expresses
dialogues
vitro
prostate
##states
intercept
arsen
ensuing
heliosphere
invoke
agency
unknowns
annotate
investors
wzw
isocurvature
quasist
factorisation
elucidated
capacitor
dol
##antic
reh
microsoft
besiii
buried
nicely
exacerb
lanes
humanoid
ethics
erosion
genomes
preferable
complications
substitute
leaky
foregrounds
germany
pullback
dz
sole
histograms
codewords
unlock
dissolution
witnesses
wolfe
uncountable
hydraulic
3m
hts
motility
negation
cvd
aberration
incurred
tough
regulations
nuv
seifert
bci
pel
sampl
homoph
brightening
nem
verbal
worker
designer
pdr
mun
nii
##71
androm
rewe
##porting
laal
dk
liv
##aso
assort
periph
martingales
unet
moral
schwartz
planners
dod
anns
##inging
pds
percol
alleviating
##ekind
##tens
grip
schol
promoted
likelihoods
substitutions
throat
reinterpret
##oded
parse
neutralinos
informal
metaverse
winner
zehnder
5x
lov
underl
dedekind
cummings
heliocentric
algebroid
recycling
a2
##stad
optima
135
dopants
annotators
##hdan
chromos
suffice
temporary
periphery
c60
##kinetic
##ulas
brun
flattened
dropping
argumentation
discipline
##ultiplets
##acks
undergone
replicated
mesoscale
njl
##ixed
##conver
steadily
universities
contrasted
bootstrapping
disambiguation
xg
##orp
meissner
overs
kilonov
coalition
##ymplectic
edu
antip
dmi
duc
##factory
bmo
##core
##adus
curious
wavevector
respecting
roads
kazhdan
paraf
superlinear
heii
##energ
spectrophot
ssd
yamabe
##auth
alert
##ographics
immersive
octupole
dash
mips
vil
stating
metaph
completions
geological
exchanging
breathers
##2se3
sachs
4m
gga
apt
homoclinic
picking
grammatical
4n
ssp
compose
continua
negoti
003
comptonization
certificates
lined
decidability
identifications
linac
composing
overdamped
elaborated
nanophotonic
tully
cis
ficti
##iw
tris
coast
xrd
##arium
love
etching
##ason
iram
harps
diffeomorphic
subhalos
smeared
sapph
countermeasures
070
##tan
quantisation
13co
benz
aberrations
toxic
resetting
semic
##yck
gallium
##lomer
##ainment
adjustments
proportionality
agriculture
##oen
##adient
##cds
fictitious
##iled
commensur
##ochem
crosstalk
gpc
poyn
narrowing
bidding
optom
anode
abel
sharper
nio
##yll
singer
director
strengthened
linesh
icos
exoplanetary
echelle
kgs
pso
cleo
departures
sapphire
##bil
spinodal
##assium
collaboratively
haas
uplo
sorted
habitability
##norm
imu
causally
knock
penalties
inappropri
deem
pseudodi
133
hallmark
solvation
3rd
nucl
obner
polyp
137
clarifies
refract
photodiss
idi
kw
sends
complementing
distributionally
beaming
microgr
fragmented
nanocompos
concomitant
pcs
potassium
drifting
ourselves
##mor
elections
follower
bak
inqu
budgets
transducers
coatings
hous
xml
##phase
associating
1200
conjectural
releases
monomials
coagulation
##exponential
poynting
bore
sx
ware
nanomechanical
revival
spectrometry
annihilations
visualized
achievement
urgent
committe
depolarization
cuntz
feii
ramification
lubr
rescattering
quadruple
heterogeneities
preconditioning
excursion
dst
wdm
##aut
preheating
bluer
knows
slater
sketching
millimetre
virtualization
roadmap
electromechanical
014
rap
##jm
##anet
perf
photore
approximants
pseudocon
inspire
gyroscop
sunspots
enig
phased
synapses
agglomer
surviving
economical
incompatibility
eternal
buch
##tec
##stere
binning
terminology
underpinning
tadp
nps
rindler
sss
oii
##paces
soluble
dirty
themes
intrud
favoured
mystery
strengthens
aggressive
divisibility
saturate
assistants
corollaries
opacities
envisioned
unram
residential
inefficiency
persons
intermedi
psnr
uneven
concentrating
subcategories
bruhat
pebble
##facts
interparticle
employment
breakthroughs
declarative
mountain
exo
astronomers
##ahedral
entailment
meanings
postulated
ellipse
socially
irradiance
preconditioned
unramified
zoom
pytorch
announ
commercially
rubidium
nonexistence
mou
disreg
judgments
e1
pager
lognormal
weakened
doug
ultrasonic
vapour
##rl
##analy
##ampled
compile
motional
domes
certainty
midplane
forensic
multiplied
hits
##rod
soi
cornerstone
intercalation
contractible
##foil
veritas
immersions
##atini
320
##pic
emulation
variate
penum
neptun
interoperability
adaptivity
ambipolar
alleviates
tdd
credibility
intertwining
subvarieties
scholarly
##volume
##erner
refines
fixation
audit
kost
##hart
regularities
132
macros
decoded
##iliation
bursting
encapsulated
orientifold
gbm
sst
streak
office
phenix
ecology
weigh
lef
pahs
hornd
##pn
##eski
##ola
parker
programmers
vocal
##76
thereafter
209
oscillates
rmse
utilising
jaynes
conquer
reexam
healing
volc
positioned
codeword
arnold
iod
##iced
unlear
nmf
trough
tides
##elong
onc
enforcement
##opic
pinns
spectrogram
015
eve
corn
cooperate
coalescing
oracles
une
gravities
humidity
wiret
collaborators
##79
mann
david
##enf
underestimate
reentrant
rupture
keller
pz
##avin
hereafter
suspected
suffering
passiv
isochrones
tie
scaff
selfish
epile
cmd
##slash
scrambling
crater
marc
cards
artefacts
ace
hide
reion
##grams
ghosts
softer
payoffs
suther
superheavy
##resolution
##iano
wait
blocked
kicked
simon
segal
116
concatenated
sutherland
ske
##oin
immense
##logical
favourable
hazards
phenotype
tolman
specular
representational
136
male
griffiths
5x10
##cp
whisper
lexicon
##kr
confident
##reather
metastability
trustworthiness
horndeski
f0
seism
contractive
marking
nanostructure
therapeutic
pseudodifferential
integrand
delaun
holstein
ensured
##ordered
palatini
nyquist
vill
scanned
validates
arrivals
phones
nanostructured
fpgas
overdoped
##med
##upting
launching
excludes
ellipsoids
nisq
haptic
qn
sab
basins
harn
vanadium
permission
microstructural
hypothesized
registers
##mno3
passively
fdr
##orily
emulate
submm
sensible
nrqcd
douglas
lw
##aint
maturity
starlight
maz
stis
carbide
##uclei
refact
extrapolations
tentatively
delaunay
stance
magnonic
redder
argues
fuk
outflowing
affordable
glitches
mysterious
pagerank
cres
##acular
ade
wrapping
rossby
iou
nyi
stern
funding
##afting
114
thirty
ignores
conformations
##atten
ulirgs
consumed
vt
interrel
swin
passages
browser
##uki
##zyg
##ultiplet
##ult
monog
doesn
##baum
plume
tournament
rtimes
datum
viet
conclusive
visits
creativity
traversing
bunches
collimation
toxicity
spinon
hystere
closeness
ttf
pitfalls
dms
##ago
highway
crim
renewed
xuv
650
j19
##scri
subsampling
technic
formalized
certificate
aids
breather
##isers
##election
linux
webb
biggest
aq
d4
ken
ug
##82
debi
cluttered
immunity
african
polycyclic
##sb
##etti
##abund
mov
polarimeter
magnetometer
##cripts
kummer
gnss
lew
batches
microtub
##hard
muk
inherits
##otational
asking
##phen
functionally
continually
##bones
clinicians
sandp
nh3
ssm
clutter
satisfactorily
pnictides
bns
##antal
qutrit
syndrome
eor
antid
irreducibility
vb
braids
equidistribution
harnack
trot
##length
##ermion
##pecies
warming
stielt
##utrinos
##ese
##ila
began
stieltjes
##jam
##opt
##aven
higgsino
pinn
filtrations
obliquity
zygm
nerve
parameterize
archives
intrusive
ocr
ruling
distinctly
plausibility
accidental
##itic
isospectral
entrainment
broadcasting
pocket
jensen
subfield
focussing
lbgs
catastrophe
kurtosis
hampered
amortized
apogee
bregman
exponenti
patterning
tackles
declining
trilayer
rationally
wig
subgr
converged
transmon
contextualized
amenability
lqg
pneum
##stic
prover
lightning
hysteretic
zygmund
##inks
demographics
quantize
managers
multiclass
##edges
##jectivity
endogenous
profinite
##holonomic
040
##nu
##agent
##tinuous
wafer
covariances
deforming
lora
interferences
huang
fleet
tis
##urced
blank
nanog
extrema
trapez
sieve
milest
fidelities
sublattices
pupil
contiguous
gv
logit
abstractive
dealt
jumping
qe
##bium
ulx
hinode
reparametr
bms
##73
dimensionally
annotating
cardinals
c3
extrapolating
abruptly
dissimilarity
##asks
decided
coli
##afa
anharmonicity
diagnosing
decouples
rheological
109
bioinformatics
reconstructs
tips
unint
##evolution
icy
donors
disparities
injectivity
counterterms
aler
whitt
unlimited
##ubic
eruptive
backbones
##msun
brog
copulas
returned
zeld
##atalytic
##omatic
##ypical
ulam
dilated
lmxbs
andromeda
dyck
ugc
wel
legs
175
involvement
misspecification
p2
ym
algaas
##che
deepest
solitonic
inappropriate
##uries
cofe
coils
inverting
microserv
d5
##lich
##lund
rejected
genuinely
schools
undesired
broglie
backslash
intermolecular
columnar
nondeterministic
sbs
##ali
isomer
asd
distric
perron
mixup
ict
slabs
bbh
hospit
ips
neel
reversing
stimulate
html
lup
qw
##bench
typing
quasiclassical
pm2
engaging
13c
australian
adatoms
reactivity
topical
niobate
##reson
selections
##ovascular
monetary
dominantly
sparsification
maneuver
sts
peric
pressing
rainfall
intentions
hinge
tian
overt
bart
entrance
##oral
alps
canada
staircase
kan
analysts
constellations
reweighting
mari
rpc
##orbit
longrightarrow
frac12
##102
degenerations
organs
exponentials
jacobians
##diffusive
demo
doi
avs
fundamentals
majorization
wisdom
pruned
greenhouse
viruses
consciousness
rural
##eger
##ycl
reorgan
bots
siam
steepest
densest
anonymity
nonextensive
fec
tear
##uv
##xy
microphone
iterate
announced
spectrographs
telecommunication
421
trou
wants
apache
interpr
begun
anthrop
kill
handcr
cmc
accesses
haze
inverses
pierre
##repres
integrality
rota
##loaded
admission
wavepacket
cantilever
##aug
failing
mathematica
anchoring
jammed
wiretap
hsi
coalgebra
loses
nls1
microbial
gear
aerodynamic
geor
quantizing
004
clover
arcsecond
1988
bogom
scuba
noting
##nions
doubt
auslander
ether
watch
##chin
cran
differentiated
clarifying
phenotypes
pontry
adults
bunching
daugh
pace
designated
wrink
pinch
annihilating
##rin
attitudes
pluto
overlay
analyzer
fuchsian
photodissociation
rbf
noncent
crf
stackelberg
ebl
preprint
manufactur
posteriors
dsc
sib
##ritic
email
smale
mems
normalisation
cage
tangle
##reath
elm
blob
password
resembl
wfc3
stoc
beads
imprints
coo
##posing
flames
angled
counterintu
js
vig
ifs
diminishing
pontryagin
hay
computability
reducibility
baum
cumbers
enumerative
recipes
##mi
uparrow
speculative
leptoquarks
naively
contradictory
inse
anyon
penalization
schech
illustrations
exchangeable
tao
1986
repeaters
hydrocarbon
cryptocurrency
iwasawa
ics
##tag
homo
bilingual
prevented
chimera
cumbersome
generalisations
blended
liquidity
##aternions
deficiencies
parsimon
tits
##istor
crit
screw
confidentiality
syk
smgs
subband
graduate
##osynthetic
quantifiers
fruitful
resting
##atial
agencies
barely
magnetisation
pspace
benefiting
sparsi
incentiv
##2seq
centaurus
reeb
##jecting
impairments
##immed
tucker
hong
transitivity
miller
144
bohmian
interleaved
ju
oe
persu
specifies
egret
sublimation
bios
procedural
enumerating
eyes
dream
gk
xor
##anda
semin
##cap
isent
isac
beats
purcell
dropped
4th
flights
chameleon
transduction
untrusted
2l
##pring
stressed
dye
assertion
##olymers
2b
aside
whist
spectacular
##frame
171
photoev
assembling
articulated
pim
##asters
sext
##ologic
##ista
cryptosystem
palomar
zam
##dits
radically
horne
bcgs
##lob
##aco
sma
collide
bandpass
langmu
modulators
##processed
checkerboard
2a
##peri
opf
ethn
petrov
indistinguishability
langmuir
2c
gels
##01
dij
multiplications
inserting
volunte
2x10
hos
shub
lowers
magnetocaloric
hybridized
oldest
bcg
alexand
fresnel
csc
##had
##ref
lean
moyal
##ported
triviality
vn
sher
##manifolds
swarms
inhibitory
dichalcogenide
generalising
confluent
bati
##jy
##inf
propositions
spill
##scrib
primaries
synchrony
270
distilled
disruptions
frenkel
mcd
s4
zir
##otor
cobe
associates
swept
davis
supercluster
diabetes
qg
wp
##zn
##imally
scott
unchar
preem
homolog
colorable
jpeg
mose
rotates
normalised
parallelized
mcm
##ieu
prompted
genera
mediators
repeater
hcp
redefin
vascular
wound
interrog
thirdly
pinpoint
ruo
wfpc
confounders
e2e
mig
nk
##ginos
prescrib
unitaries
galileon
tetrahedron
vesicles
discreteness
siv
clas
abl
shortcut
coprime
mrc
replicas
baker
cma
fost
monthly
darwin
mab
##inet
##alone
##omput
##owitz
subsonic
mie
projectors
paley
africa
college
vegetation
oj
werner
reception
handcrafted
##with
spam
biof
postulates
airborne
societies
hydration
flaws
uranium
clips
overly
tensorflow
reversals
intertwined
disclosure
overtone
2f
##nt
##ificant
##aira
metrizable
constituting
nanosecond
550
hler
grant
distinguishability
fills
5007
##tons
nef
leap
circumgalactic
premise
zfc
inferential
responsive
lazy
hawkes
coercive
wreath
##bots
##etting
strich
uncou
segmentations
##omeric
##portion
subreg
##under
pseudoc
##ethyl
ues
chess
quasim
indium
imprecise
ccc
ott
##ibilities
diversification
mcke
##ollinear
migrate
sporadic
tfrac
deci
electroph
admix
discretisation
hospitals
lant
mip
yig
ageing
hindering
kicks
lsm
quaternions
backtr
pathwise
mesonic
sympl
debt
apertures
v2x
enlarge
ih
wo
stu
##nium
129
millen
cataly
cifar10
fcnc
exercises
evaporating
##grad
verb
handover
consume
exposing
equivariance
explorations
convenience
ownership
joule
##star
quartz
coleman
defend
loew
phoneme
photoin
monoton
##81
##atable
##odel
envis
spheroids
glyc
califor
jovian
##trium
framing
sls
holomorph
executions
publishing
department
hotspots
hbox
##edal
capacitive
hairy
traversal
pwn
technicolor
##pf
config
benjam
enthalpy
supersymmetries
strichartz
##ju
contention
infers
trotter
gz
kat
spm
equilateral
classroom
##ometrically
adapter
allocating
alike
legged
kodaira
##tiness
decides
##harov
sasaki
##ochemistry
clothing
intend
##ellow
symmetrically
textured
##2020
llama
spectrometers
philosophical
lucas
scanner
equitable
##scapes
heliospheric
batse
distancing
1960
involutive
came
mandatory
electrolytes
overestimated
reinforce
pulling
misclassification
sze
##tiles
shi
structuring
symmetrized
mixes
permitting
inflection
##aggreg
pun
##mers
##kins
stagn
implementable
1400
regulators
fcn
hypernuclei
##lusters
##rb
forall
blas
gui
expansive
developmental
bimodules
uves
stall
traction
stray
comparably
monad
organism
insightful
institutional
##dd
unk
insign
##onomies
cardiovascular
springer
california
1g
stef
##idences
##aximal
ulxs
lifelong
skein
willing
sdr
truncations
tumour
panoptic
spotting
contributors
williams
pragmatic
whittaker
lsc
##03
##words
blobs
unions
broaden
relativistically
145
streamwise
hdr
idempot
cloaking
weibull
##plastic
10k
1915
microscale
lfs
##uplet
anion
pbar
interpolated
##rig
conifold
chee
nonholonomic
seeding
vaes
spectropolarimetric
sphal
recal
standalone
counters
##lexible
gaud
mgb
laf
trimer
datac
##geries
subtracting
mismatched
stylized
productions
muonic
1600
rubin
cygni
hydrocarbons
##amics
desire
subharmonic
##rossing
zeroes
heterodyne
regressions
013
clic
equi
homogeneously
gutz
citizen
ez
mms
z2
isotherm
paragraph
posing
doa
ssa
traversable
radicals
prolonged
dwell
yolov
##sight
recourse
solub
corrects
speeding
simplifications
homogenized
touching
guessing
powering
edr
posted
violet
crowdsourced
regeneration
domestic
##300
tweet
empt
##llc
specialize
passenger
rescue
transceiver
resemblance
klo
krein
6m
accidents
##linde
##inates
bears
reserve
superposed
##aterials
m82
meteorological
unmod
gamow
bottomonium
jav
pist
psc
##olin
spp
configured
releasing
submillimetre
pseudoconvex
riss
dynamos
verlinde
informational
screens
##willer
denominator
slu
concentrates
##complex
tetrahedra
wfpc2
##fet
evasion
blu
predetermined
unobservable
centauri
##arrier
veto
wse2
##iner
##si2
trail
##eworth
joined
heralded
quadrotor
deemed
parsimonious
distributing
colloid
coupler
2500
salam
##reduce
prototyping
ignor
zeil
lanthan
gutzwiller
koch
qt
sul
dozen
surrogates
icd
pess
##tio
salesman
##istant
deleg
slepton
faithfulness
##vc
periodicities
manufactured
tutte
pillars
memristor
evacuation
smm
atypical
reflector
summed
hearing
pursued
cuda
mbl
rice
harris
cmr
dimerized
germs
niobium
nordstrom
acoustics
laughlin
adams
238
gpds
##cuts
provisioning
discarded
##exchange
brute
containers
thermalized
attacking
##ammer
compensating
eavesdropping
tde
##agons
quasicrystals
beauti
##mg
##zyn
milli
msps
fragility
hexagon
subtasks
microcavities
refractory
f2
sj
##tein
mira
guideline
suddenly
sandwiched
cnot
##acity
detuned
clearing
ciph
occultation
seld
tych
upto
spall
multigraph
mesa
unsafe
trigonal
authorship
jefferson
committee
schechter
aged
nanob
117
palm
anchored
soda
tubular
##gal
##ogel
declines
insignificant
330
##iler
127
gmrt
##qp
syzyg
transcript
confocal
gluc
traverse
photodetectors
worldline
isotrop
phenotypic
barium
mack
noun
##orbed
subrou
standpoint
taub
macs
isogen
##ota
##agi
neat
retard
morrey
coercivity
boch
unob
larmor
##holomorphic
recoils
conceived
mentions
dan
underm
secur
implanted
collaborate
rhombo
topos
##imoto
requested
automl
mobilities
hotspot
furnish
##anten
carp
existential
shortcoming
oppositely
stopped
upgrades
implantation
peptide
dawn
tase
vib
##dps
spend
transmittance
##ashberg
enzyme
debiasing
rss
##imation
needle
bread
isotopolog
tng
citizens
liber
navigating
zeus
joins
quadric
hmi
actuated
impaired
portrait
eliashberg
##ols
emulator
helped
casting
serverless
zeldovich
##hand
##the
numerics
maxi
phonetic
crypto
foliated
micror
wishart
bold
vafa
proca
phishing
##assa
prest
esp
excitable
squash
executable
##oulos
threaded
tweezers
ik
##iticity
configurable
risky
milliseconds
detachment
cheeger
quart
##onserv
noteworth
facto
mediate
agreements
sno
dmd
hologram
genetics
injury
rethinking
antiv
parasi
indetermin
caputo
pathfinder
directionality
mcg
patchy
efimov
rearrangements
darc
##gren
cru
nucleoti
impression
misc
sasakian
interdependent
bialgebras
g0
hedge
##zh
##actively
spider
rotator
##igration
tetrad
kidney
##duced
coriol
##orses
demagneti
##2o4
obfuscation
lder
lays
vf
##imi
scfts
fringes
warr
settles
purchase
wm
##how
##west
##trightarrow
##ipt
letting
garnet
eigensol
dendr
blueshifted
steganography
seller
tors
##unctional
pathologies
304
opposing
dissert
sneutrino
textsf
alphabets
coriolis
##cedastic
dispersionless
outermost
overlapped
cavitation
substitutional
empath
katz
paras
neo
aband
consisted
offensive
hypo
intellect
parametrize
nilpot
exemplar
roy
stit
vee
scatterer
negatives
principally
bandwidths
payments
lacs
overestimate
seq2seq
cave
abo
adiabaticity
seeded
podolsky
censoring
##idiagonal
##electroly
##vili
actionable
csit
eic
##utch
horizont
hermes
006
cfl
reactors
harvested
uncontrolled
tadpole
1x
oly
cheval
polylogarithmic
daughter
transpose
nozz
fee
galton
calling
vortical
differentiating
accommodates
wavenumbers
noteworthy
3x10
hires
##osc
shg
parallels
sr2
nowhere
1985
##yd
##forming
edwards
##skian
miso
garner
smeft
bev
impar
##assem
##gans
solidification
5k
dps
jj
untw
proceeding
accommodated
diminishes
sandpile
rocks
##tering
utilise
swing
interfere
slows
deformability
malign
chirally
rkky
optomechanics
wse
##ece
isotopy
adhesive
ment
##theta
multispectral
hasse
unitarily
listening
cityscapes
##born
isentropic
dss
##alent
##aria
smir
amd
molyb
foil
##kdv
swimmer
buyers
mineral
proprietary
tong
tether
##aped
unmeas
##electricity
invertibility
elucidating
multiparty
preconditioners
cig
grazing
##ographically
macroscopically
bife
ucb
alkaline
stefan
carina
showcasing
nonminimal
nonmonotonic
gpr
nim
phd
unsu
markovianity
discharges
jt
##enza
geq2
sudakov
uptake
lon
dates
duff
1405
manga
stoichiometry
intercalated
3k
nec
tdes
trades
curvaton
manipulators
underlies
cater
sinks
##agle
intensi
##chikov
##cf
unary
quadrant
nanoribbon
ophi
vits
##ala
turbo
career
returning
cesium
sculpt
rhombohedral
##istive
##pta
downarrow
mathematicians
privileged
hmc
vein
##aryon
##iorth
inspec
lfv
alterations
bicep
swimmers
samplers
5s
hri
hinges
mech
ssim
##pering
disaggreg
parkes
closes
polyelectroly
photoacoustic
deduction
asymmetrical
pioneer
malli
mobilenet
qoe
receding
surprise
displaystyle
nirenberg
noticeably
piezo
judgment
vqe
specimens
##echnology
optimise
caustics
cubical
miscon
shrinks
ontological
cryo
juno
geostrophic
diversified
homophily
dfs
mam
scuti
##roups
hastings
dama
bourg
quasistatic
##orr
evade
brush
outbreaks
reusable
##atrices
##trons
reanaly
deskt
prograde
essay
conversions
crowding
silico
overdensities
seizure
scholars
dissertation
dsm
biot
summands
concluding
singleton
cfht
minkow
fetal
albert
spdes
##uded
##differential
pairings
promotion
peaking
2df
ensembling
helioseismic
subpopulations
ais
dbi
yso
weber
aspherical
sug
qudits
depict
revise
##holder
t2k
pseudorandom
##2cu3o
avatar
mukai
malliavin
##olyn
##chen
weaken
functionalized
dqn
fet
nul
##vr
##zr
##olving
soho
##auss
attentions
businesses
subvariety
rov
##yan
alc
stron
scs
superexchange
fe3
subsequences
authority
adult
021
dct
adjusts
expository
zhu
hhg
gent
kov
tank
clt
currency
selfadjoint
10000
walkers
vibrating
degrading
isogeometric
moisture
idempotents
gup
##bp
chsh
obtainable
cancellations
linewidths
nerv
vin
##east
##gt
##ello
##iley
##cepting
##ceptible
banking
equidistant
ferroelectrics
uhecrs
dalitz
c0
minimality
equalization
talking
rossi
eus
hsc
j10
muc
##fire
additions
subf
overc
wright
probabilistically
myri
uncovers
friedman
featured
qcp
jackiw
ventric
##olod
whate
clause
profici
melts
ceramic
viscosities
disruptive
bialgebra
specimen
smirnov
whatever
##dl
##arts
ances
##apse
##yset
curvilinear
teleoper
intracellular
ascending
mdi
enst
clone
dr3
119
facul
extractors
##peech
leggett
1987a
##zynski
p1
##rik
holder
##monary
expressivity
disrupt
corrosion
assistive
collects
centroids
synonym
realistically
readable
crowds
pgl
kuz
firmly
zenith
##150
phas
##opoulos
shortcuts
##heim
isolating
multivariable
illuminate
occasionally
inquir
##oons
researched
##operative
photomultiplier
zamolod
lz
##esh
##ectives
spire
singing
carleman
##dynamical
translocation
governments
uncoupled
2cu
staff
##elles
multiob
assisting
prote
##te2
platoon
cno
spray
imprinted
yttrium
antiparallel
zs
biophysical
bi2se3
ceramics
terminating
chatbots
zamolodchikov
fountain
nist
superpart
bloom
memris
paradoxes
mckean
spallation
rights
##ocap
scl
nonhomogeneous
mont
hermiticity
coronae
1984
pix
##kg
prl
understandable
pnictide
alerts
##oresis
##iga
geosp
buyer
parasitic
tantal
fors
entangle
hawc
rectified
patent
memristive
lake
##polar
multiv
evenly
138
msol
ldp
subtleties
kantorov
coloss
needing
courant
vesicle
bourgain
##zan
##sid
basics
##aceu
ambi
semir
martian
##rington
dilatonic
bord
##xi
starless
crude
positronium
strontium
##itarian
desi
coherences
visualisation
nuanced
herit
coronary
illuminating
palind
offspring
unlearning
existed
swampl
surviv
saturating
knotted
tessellation
fflo
solenoid
swampland
ql
betweenness
redistrib
ern
regularizers
worldvolume
delineate
oa
ers
##heuristic
constructible
hubs
cca
appeal
assertions
##aturated
##ael
##odies
strom
##opars
helic
streamer
gmcs
##rystalline
horizontally
1h
accrete
muller
multiagent
slim
responsibility
flipped
senses
colony
emptyset
011
p4
##faction
isomers
suffix
bimodule
snippets
movies
loewner
securely
nad
wandering
##akis
breach
stepwise
predecess
quinn
subgradient
##fp
genre
invalu
subbands
adaption
darcy
chevalley
cash
feller
mcl
oort
##lining
##itously
stew
alar
baire
alteration
hbeta
anchors
plei
magnetostric
monogamy
intellectual
kor
##3n
##amps
clue
clones
smoking
productive
monads
##egu
ringdown
adaptations
j07
lockdown
unknot
invaluable
docking
##anch
insert
precoder
origami
gcns
ligands
deposit
backtracking
##oping
quadrics
morphing
wrap
military
beamformer
harmonically
##asiewicz
deterioration
zakharov
bead
rests
atp
heun
labs
##tiers
##analytic
intents
##ixs
guard
colossal
##olith
idle
##airs
225
022
##2d
##uon
slac
ionospheric
turaev
unfolded
lapse
bargmann
horses
discount
decryp
ifu
favoring
1983
##arctic
roberta
reddened
blurred
dilatation
dunkl
eil
him
lends
realizability
darkening
breakout
139
determinism
inspect
catalysts
consor
ultrafil
cheaper
##iscover
underwent
##wer
populate
pasta
ddot
deadline
##ooter
hofstad
##arro
isra
aln
##ologist
erm
coproduc
ica
unordered
viii
constancy
focs
radem
##2018
bona
crashes
injector
##olynomial
##akers
cosmologically
unveiled
zircon
##tral
##owicz
reper
incurring
reddit
exploding
cloudy
attenuated
coreference
substance
deletions
empowered
sersic
kem
v3
##eland
coadjoint
algorithmically
transmits
metaheuristic
koz
unsatisfactory
whispering
##plas
subgrid
beamline
immisc
intriguingly
duplication
kantorovich
rademacher
016
hci
stain
m4
xm
##onally
##igo
prune
radiologists
compartmental
breadth
gmc
##amolecular
##aby
synoptic
omnid
##aceutical
prison
##ublish
extractive
cipher
tournaments
xgboost
gard
yes
altitudes
##plasm
frontiers
urllc
dimerization
unexplained
disagree
plumes
shooting
ssh
ui
##oretic
elder
dressel
swir
falsi
birds
nonsymmetric
antarctic
undertake
lexicographic
molybden
unsuitable
bk
tridiagonal
shaf
imbh
coq
turk
frontal
a0
inhab
hops
mote
exha
transversity
mathieu
magnetospheres
advocated
j00
rend
sper
tikh
##rho
##jn
formations
strategically
manager
lotka
circulating
microgrids
desktop
##eau
spinel
mapreduce
competitions
gyrokinetic
semimarting
benzene
unmeasured
fuses
##arized
##activ
confine
dyonic
erdos
mazur
chile
pulmonary
235
025
lstms
solubility
prestellar
##du
##spec
##elic
##trip
redes
##factors
supergravities
charmless
segregated
plotted
zipf
fift
sake
anions
##trong
angi
widom
intrab
horava
summarise
fractures
distilling
##bury
##ahedron
submissions
maneuvers
pell
rbm
uq
compaction
appr
##leson
becs
barc
lyc
laborious
ws2
noncentrosymmetric
tikhonov
##aturation
##iltr
dielectrics
sms
anywhere
biexc
hydrox
007
awgn
leftrightarrow
myriad
molybdenum
gq
singularly
vibronic
migrating
nonclassicality
narratives
2q
fug
##fc
##ersen
abbre
fractionation
multicore
revolutionized
eqn
dresselhaus
densi
uhe
shel
sct
hybrids
##additive
##onet
linearities
##cone
biop
aliasing
disproportion
octahedra
beautiful
din
##base
##imum
sha
paraxial
hump
switchable
recruit
reanalysis
schematic
decrement
arithmetical
fuzzing
identifiers
inaccuracies
intruder
##otti
asic
evs
scholes
researcher
mck
cryptocurrencies
kilonova
eev
gsp
##uel
##tail
##sivities
noncollinear
ruin
jackson
harvest
cassini
cue
##amond
##abo
overabund
mice
factorizable
stanford
forensics
hofstadter
acm
univalent
arrh
priorities
penetrating
andrews
d7
nester
spain
irc
195
##cohol
aboard
l3
qb
##cha
underlie
surgeries
secant
monadic
affin
magnetocon
camassa
voxels
##ublished
pumps
##tique
entered
plugg
devising
microstates
analogously
blowing
stereotyp
judge
kilopars
flashes
superpixel
histopathology
kane
mega
selen
tending
striped
bedt
supercharges
340
##sar
##atural
cdte
inspirals
economies
mord
vand
##abl
dimming
operative
radiology
envy
factoring
pulsators
safegu
sensed
meteorites
homologous
minkowskian
msc
conway
influenza
sato
165
discretize
ubiquity
conception
submodules
dating
fss
mrs
securing
quasielastic
##ashvili
entertain
heterojunction
gis
hahn
##120
##enetr
##article
perplex
expander
unfav
queuing
cohesion
##iboone
fines
symmetrization
##urrents
iota
unpublished
bisimulation
ki
fortran
coalgebras
fourfold
omitted
discovers
immob
fsi
##atching
##erma
arth
pls
invert
rhythm
centimeter
hus
surplus
##ishi
microgrid
organisation
sdb
underscore
bochner
multiobjective
abbrevi
mts
diarization
##ductivity
amper
engaged
ecliptic
elasto
administration
ephemeris
cj
reorder
##rip
larkin
counted
openai
amplifying
epith
harbor
workspace
artistic
complicates
photocon
hurric
prognosis
bicon
##seg
clumping
discard
##mms
205
253
caches
prioritize
epidemiology
contingency
qi
##atum
##imos
sevent
pour
blends
carleson
corporate
lk
##cy
##aine
separator
vlti
##gpp
overshoot
shopping
glucose
fifteen
enroll
classicality
visibilities
229
exemplary
storms
rvs
unroll
drying
weakest
referenced
corotation
superbub
panoramic
##unt
decorrelation
155
microscopically
##nett
spacer
superstrings
parsecs
admixture
arrhenius
al2o3
apple
arec
centralizer
electrodynamic
##bius
drip
ldos
dglap
temporarily
ultralight
3h
eco
qh
##odality
isoph
stenc
##ocard
defender
lifesp
attributable
comprehend
akari
ports
s3
rees
##ogens
##ocalization
vendors
##orbital
qsl
stl
genomics
starob
##ishment
##2017
supplies
aka
spoil
locc
abstracts
008
hallucination
osmotic
dum
nli
##mf
isg
impinging
147
thicker
recurrences
gdp
congested
biomarker
refactoring
splic
subword
heap
##alued
archae
statically
damaged
combinatorially
dragging
obscure
uranus
quasiconformal
enigmatic
geospatial
eilenberg
630
subexponential
##ccs
ionosphere
hadro
owner
traceless
utmost
chatbot
boy
##jor
alcohol
##conv
electronically
formulates
synthetically
wilk
sustaining
omnidirectional
eagle
ppo
wur
polarizable
vlc
gw19
certify
necessitate
fingers
photorealistic
3gpp
injections
magnetised
geq1
millennium
##elial
##ulin
##odulation
smol
##bridge
passengers
investments
erosita
lineshape
eur
tai
##enh
quoted
##ubs
reconciliation
artinian
leaderboard
opponent
##ume
##ductive
superintegrable
corrector
magnetograms
melan
subdominant
ald
spd
syl
coined
##angles
dozens
excel
##abilitation
nonconserv
terti
pushes
logistics
photoinduced
ges
nelson
pns
throw
antin
prost
descending
followers
appearances
intermet
scintillators
succeeds
dcs
multiresolution
polyst
calculable
geq0
##ophene
recurring
authorities
heteroscedastic
quaternary
journey
reparameter
##bell
##ogal
##aceous
1100
kinetically
milp
antiferromagnetically
fmr
lambert
clipping
##ometre
emanating
javas
bass
##aters
alk
exactness
backwards
steepening
terminates
baby
serendipitous
arecibo
##ysi
magnus
amel
csl
residually
##ovsky
deposits
russ
alexandrov
pessim
cacu
mitt
emits
accent
relatedness
decomp
degenerated
bottle
stylegan
obscuring
pamela
piston
nozzle
cil
##kary
demon
feeds
pbe
replicating
glueballs
retrospective
##associative
dumb
egg
fh
decoy
maybe
agreed
parallelizable
proportionally
receptors
antiprotons
##aled
integrands
##afts
##tructed
exposes
substituting
anticipation
ehrenf
javascript
380
oo
##v1
acis
##allow
prefactor
beneath
synchronizing
manganite
lets
mll
rcs
ars
multiverse
1300
mnbi
cnts
subnetworks
kauffman
##iorthogonal
interc
constituted
looked
unveils
rogers
bibliometric
subshifts
seldom
fas
##holes
perverse
cook
selmer
photodi
chromium
ledger
doses
subsamples
##resonant
eigensolver
eqnarray
6000
finitary
transcripts
##tinuum
swelling
heteroclinic
penetrate
doll
nlu
##tech
##olve
noti
localizations
radiotherapy
schatten
morphologically
msr
conductances
squeeze
irregularity
pharmac
finely
linearised
admitted
upsampling
succeeded
photoionized
lewis
counterintuitive
jl
rixs
minimising
maass
flags
settled
straggler
israel
kz
##water
sequel
factored
##aham
msw
fallback
consortium
votes
clarity
phoen
unsh
epi
blocklength
1700
consumes
poro
sidew
cramer
ozone
starobinsky
ahe
kard
raz
disasters
leff
miniboone
bi2
tunes
youngest
fulfilling
zo
##uma
miou
occupying
wsns
antineutrinos
outsour
pebbles
##nan
##maps
acou
abjm
msp
optoelectronics
nanomaterials
d6
##gular
##etta
reprocessing
metre
##ermann
hyades
conclusively
mahler
1232
initiatives
ilp
champ
480
andr
unqu
incidents
conducts
translationally
favours
justifies
vaid
pillar
corrugated
cassi
kbar
weld
##cei
##orespon
orthogonally
chalcogenide
ehrenfest
fbs
kra
globe
tritium
131
hiro
lsun
coalescent
seasons
cargo
##afs
splash
listen
lemmas
quasisymmetric
tz
##list
##h2
hya
cyan
footprints
hulls
presumed
contingent
immiscible
lod
##chke
conserve
elicit
physicians
compositeness
nlg
compilers
kilometre
hipp
socioeconomic
consolidation
zagier
gossip
hoh
t5
##lam
##gens
##udinal
laz
##occup
##hydrogen
##inance
intimate
deh
protective
photoelectric
fuj
cylindrically
##oriented
hindi
dog
fear
g1
sah
wins
##aver
##itons
ch4
minis
policym
conjunctive
polymerization
310
forgery
adler
##brace
##ibration
bisection
adequacy
prioritization
triply
asian
goto
##onents
isop
comply
##chromatic
dix
homoth
fundus
electrostatics
instantaneously
verifier
retardation
garch
##mass
isw
##iciously
biometrics
##naire
dissipationless
submer
suffered
shortening
##hyper
diabetic
sigmoid
1b
##bound
exom
trion
perfor
minib
microcon
thoughts
perpet
chirped
magellan
##ebel
bcd
leav
optimising
realisations
semeval
134
beryll
microsw
##otonics
contemporaneous
korean
jam
venti
##pinski
##iture
##tinum
corruptions
heeger
readings
magnetorotational
aic
##ras
##alography
##atistics
backend
macho
segel
liner
lifec
instruc
src
foams
cardy
democratic
cemp
tertiary
cure
pant
q2
##eva
popov
condense
##urry
##hara
xyz
ccsd
households
icosahedral
##hor
finder
anytime
1950
conformity
divid
shuffling
levitated
bkt
koh
uwb
##alin
dataflow
photometrically
10m
weakens
fulleren
accumulating
nascent
programmed
kirill
horsesho
blown
thermometry
hydrogenated
aversion
circuitry
biomolecular
supercell
##rotational
ripples
sedimentation
elicitation
cous
##ariant
anyonic
carroll
ava
1550
lookup
wsn
kilometer
skeletal
rkhs
digitized
stranded
pomdp
photoevaporation
garnered
##kf
##owns
futures
##etyl
elliptically
incompressibility
1979
nicer
regressor
polylogarithms
pharmaceutical
edr3
lifespan
##tri
undulator
collins
##efel
cocompact
cytoskelet
discretely
mittag
j14
kib
blurring
oversampling
migdal
leavitt
cables
##itre
##icules
unpro
unsc
particulate
extrac
carath
deleting
willmore
readability
anonymization
giga
amelior
##det
prize
scorp
sn19
synchronize
urn
1981
equilibrated
##emeister
memorization
imitate
sphaleron
lirgs
##page
protects
questionnaire
silent
psp
cvn
reidemeister
cholester
monic
##inants
orbitally
portability
ultracompact
therap
##aught
platinum
bimodality
contradicts
##ja
nonco
abnorm
streamline
substantiate
##awaii
subtask
892
fifty
prioritized
dictates
avi
haged
xps
##pheric
tempering
textbook
blockage
nlos
stiefel
cocoon
destroys
nicmos
##integrated
scaffold
beryllium
kirillov
cef
dsp
tape
##wan
##ype
crb
magnetizations
merges
criticism
abnormalities
duplicate
leray
ei
mpa
vent
leon
logically
homes
definitely
koe
interleaving
##v3
##itri
alon
chances
basket
transporting
uncl
##2019
##pressed
hopfield
umbral
plausibly
##auder
isobaric
tearing
redesign
fullerenes
hagedorn
caf
deng
wals
##fish
##ocl
extensi
gaming
##yman
natal
spreadsheet
##oscope
bsdes
sketched
incorrectly
leffler
thing
profits
myocard
deception
unfor
cosets
magma
sightlines
zhou
stratum
exfoliated
bach
stau
brains
advective
##tilinear
tmr
1978
ripple
painleve
wonder
nski
verma
##nw
##vol
##odules
whith
seidel
##phan
thickening
1982
resistor
rumor
paraphr
vms
clay
##ivable
demonstrator
sds
berkel
moderation
rfi
dgp
featureless
flooding
underscores
lub
yz
##acene
##ader
leh
spinons
minimise
ultrametric
restart
tangles
stragglers
sierpinski
wors
flocking
1024
alternately
rationals
dexter
disadvantage
ch3oh
nutrient
c18
sii
##no3
transonic
pmt
clockwise
interconnect
timestep
##group
##ocular
##avi
deconstr
irrotational
intersects
hbt
traders
nesterov
##urer
trips
quasil
cavs
debates
painting
ferrite
eddies
unraveling
tautological
ein
ppt
sciss
pert
schauder
semiring
promo
utilised
soccer
renormalizability
waters
##mix
geod
peccei
irregularly
##interpret
reconciled
nsi
ropes
232
aluminium
ztf
berkeley
yolo
##ican
##amer
##amine
requisite
football
contracted
hawaii
zoo
##arp
parents
interactively
resonating
microbi
##gcn
maldac
tapered
linguistics
stereoscopic
polydisperse
wigg
reparametrization
maldacena
nest
##arelli
##ighth
basing
motive
##ensitivity
##123
lite
##lot
##essi
##icron
##echt
simplistic
##charge
accommodating
investor
mend
uchi
weno
##gy
ingaas
trin
sim3
subdiffusion
initialize
router
firewall
resistances
dsphs
hirota
f8
##onian
starrs
nanometers
accountability
bursty
deductive
responds
punctures
troj
embryos
p3
stuck
asz
defer
##alloy
bijections
gevrey
nanoanten
senior
lymph
isometrically
prognostic
mordell
##oson
recap
historic
pools
connectome
kardar
##occupied
borders
##getic
##chmidt
optional
preshe
realise
codec
nanodi
occupies
contributor
nin
##iances
##nb
##writing
##omain
##igt
plenty
transposition
biodi
carbonaceous
synchronisation
nanoshe
mismatches
xxx
dendritic
abandon
j13
##ince
##uniform
redox
lumped
chemo
##pcs
questionable
vaccines
sticky
endeavor
semidirect
supervisory
##np
##olition
whom
clark
desert
multiset
extendable
binned
dissolved
depolarizing
doradus
5e
gop
ore
sagn
##ede
regularizations
compositionality
holographically
customization
lotter
geographically
habitat
diminished
criminal
gbs
litt
##etooth
pra
kek
silicates
strike
hemispheres
multistage
orchestration
##energy
fon
##vae
##aro
##agic
clicks
##gry
edits
30m
midr
hdf
encouraged
fukaya
atr
ero
tsi
thi
anarch
##apole
glimp
swed
sfh
anticomm
spectrograms
nanorods
enterprises
microresonator
tk
##iott
##akh
multiview
##pecified
##oka
143
srru
sidebands
gateway
ridges
premium
sexual
subdomains
ampere
smoluch
glimpse
formidable
takah
polaritonic
1976
america
subtypes
laalo3
bluetooth
525
##clic
##track
##sitic
restr
atca
assesses
mcts
solvents
maskawa
hopefully
descendants
walsh
415
lund
##bg
traded
farther
augments
231
denoting
##hydr
wester
buoyant
pleiades
wurtz
gsm
reusing
parac
nonresonant
infimum
outwards
curi
schre
##luor
torelli
185
auditing
densenet
necessitating
borrowing
housing
averse
ky
ness
explic
##ocated
inverter
antiferro
273
beng
fso
l15
mys
##kind
adcs
##endum
seps
planted
##ropes
shortage
snake
protocluster
annotator
homotopic
multiplying
panels
capacitors
annihilate
foresee
artery
photoexcited
wmt
##enkov
maximise
##ographical
caff
avatars
sulph
bumps
iz
##iman
coins
##enda
movable
polys
segre
denial
prosody
axiomati
terminate
##glass
solenoidal
biodiversity
sca
meyer
expects
expressible
hebb
parameterizing
quadratures
sivers
knight
ptas
fox
microlocal
macroeconomic
koi
fluorine
finesse
##oub
contest
152
trapp
178
bigl
enriching
dsl
multicritical
deuterated
hashtag
##imentary
overshooting
parkinson
shubnikov
##tane
##ications
shoul
nex
##unk
poise
microchannel
##ophilic
tipping
alloying
##luminous
springs
kibble
370
w3
situational
msd
pursuing
witnessing
wishes
##2te3
enstrophy
shoulder
iro
incap
turbines
vartheta
copolymer
airfoil
culmin
macromolecules
zeilinger
cib
##eser
atari
delve
##ivalence
surveying
normals
varrho
activate
290
threading
civita
gaudin
sse
tale
zon
stt
sta
alm
resta
smb
irreg
guts
radioactivity
systolic
dodec
420
8x
px
vega
##pel
regressive
helices
browsing
rectif
wurtzite
3e
3g
arose
kids
##orable
##embrane
expend
curation
extant
telem
normative
mhv
pushd
berezinskii
semilat
inquiry
aether
gini
sgs
protr
##ston
separatrix
binarity
csps
nominally
alleviated
pluris
buffers
intraband
eri
nations
##function
clad
openmp
sige
coordinating
parsers
dags
pencils
prisoner
smoluchowski
cac
e3
edited
slender
arrives
alternation
percenti
tableau
##processor
galileo
replen
ubv
inheritance
fortunately
elderly
gym
tic
##uille
##arin
abrik
manages
ipv
m81
shielded
undetect
abrikosov
4h
fide
ocs
sull
enard
scanners
graham
connective
accelerometer
cohomologies
nirspec
gentle
lifecycle
4g
j15
len
##tsev
unparticle
sofic
successor
imperceptible
responding
semiflexible
nanodiamond
017
kun
vcs
prolog
##entia
desingular
temperley
##iregular
skor
quadrilateral
##csecond
thinner
dialect
##atrick
diagonals
pipel
myers
nulling
osi
sage
##auc
velocimetry
1800
cooperativity
pollut
underestimates
hydride
2x2
multivalued
pushdown
nx
shooter
commutes
excitatory
downloaded
ppb
contaminants
lux
empower
##additivity
milestone
lcm
raster
##inters
weinstein
##ige
##ounded
discarding
##ubharmonic
10e
supersingular
fractionalization
parametrised
rfid
suprime
suzuki
nacl
enclosing
vigorous
h0
nos
pts
##rp
##oner
antig
##iging
shen
##actor
cooperatively
biomolecules
hunting
rehabilitation
##author
ecs
fets
##vms
##anine
wei
modif
superst
approx0
##pool
suites
pictor
penning
rigidly
communicated
leaks
hourly
wavepackets
railway
whitham
sagnac
lop
##usa
unac
unoccupied
mood
colim
monoxide
diagnoses
tendencies
ultralow
##nis
##rets
##assen
coevolution
equational
revivals
parametrizing
cultures
ancest
irregularities
moss
##my
193
extremum
##aires
sixteen
expanders
##zek
complicate
pnp
bnl
nucleotide
##bd
incip
glas
nanopore
manganese
amalgamation
electrocardi
tddft
4c
ahl
##oop
##ulent
##sov
reder
##tensitic
harsh
intric
summable
##ohed
azimuthally
virialized
##klund
transversality
overestimation
superpotentials
bich
##opause
##vester
kekb
microd
hercul
##140
ethanol
davies
scrutiny
orientifolds
sulliv
listing
roth
##bw
##inarily
##real
brick
flexural
tolerate
rewritten
hippoc
qam
##tf
claw
##etron
1900
profess
functionalization
astros
microph
barycenter
genotype
rovibr
bsc
lgr
rack
##itan
asm
verte
##tych
sliced
reconn
##ethylene
cyclically
tetraquarks
depicted
hjb
biofil
plurisubharmonic
voy
opal
##angular
##tructuring
revolutionize
extracellular
trojans
dance
ews
##eur
##omplex
accepting
newer
superd
dimuon
154
disperse
suspicious
tachyons
##expan
poiseuille
5th
lll
##enings
##ysm
##encer
deleted
ramifications
copying
beside
metamagnetic
passivity
disjunctive
##autonom
hnc
sidel
wob
shots
smash
drum
##pointing
taught
risc
##104
501
stabilisation
recommending
elucidates
mistake
sublevel
brazilian
s5
vg
arb
craft
polaronic
irid
technologically
rapidities
mutant
voigt
disciplinary
transductive
##khin
refrigerator
demagnetization
takahashi
fung
gree
mother
qf
tod
recre
associativity
superclusters
photoexcitation
semirings
c18o
gsi
##914
logging
ultrap
tracial
heuristically
stagnation
russell
fdm
hens
yellow
zsl
##nam
##wig
spear
##ibre
acet
##isotropic
underestimation
negotiation
trappist
4e
bds
lti
sant
##sat
##itr
selector
secured
admissibility
counterfactuals
bypassing
nanophotonics
ller
##ients
prepotential
representability
quantizations
swiss
211
happened
multilayered
yeast
conferences
announc
microservices
pss
##term
defensive
photographs
##pca
modulational
##energetic
mcp
biomass
incipient
arous
gms
hack
sro
##isky
##emes
disintegration
metap
emulating
##bruch
harish
mah
competitiveness
pcm
diagnosed
knud
rsa
##umbel
competes
recruitment
8m
bing
hug
joy
m0
naz
allot
##ished
categorification
urg
latitudinal
dfa
mexico
redefinition
liveness
nsc
reweighted
cann
colder
minimisation
mueller
keyph
roof
151
modulates
fitz
permis
equalities
boards
##2o8
bags
322
cpa
gumbel
##qm
##sted
exert
granger
##scured
inductively
scatters
mediating
srs
demanded
terrains
fulfills
awa
rgs
somehow
thermostat
uncomm
individualized
gluinos
doctors
009
diamonds
unobscured
sylvester
xz
##cast
##ffs
interchain
achievability
mrf
kuhn
warehouse
5f
##ressed
ionising
safer
perpendicularly
ruelle
coalesc
disprove
yba2cu3o
phoenix
restaur
enic
farms
lsnd
misspecified
h3
qsh
##ulse
unpar
franc
radios
insb
pulled
loophole
chief
rolls
dichotom
hirze
subdwarfs
spectrophotometric
##cg
tomon
reacting
overparameter
hereby
##yrene
subgiant
mimetic
genealog
telegraph
##klov
overlook
intentionally
quandle
##ircul
##ductance
arena
caii
lmxb
respondents
impairment
cxr
untwisted
4x10
##urek
##threshold
thermost
gravitomagnetic
attentional
cutoffs
friedrich
knudsen
lvert
##gels
orm
##ews
##branes
##conf
antiparticle
posture
laid
martensitic
projectively
astrophysically
ppg
myopic
woods
isostructural
midrapidity
fv
gow
##xpl
##acit
forum
heats
attracts
coincidences
merlin
magnetoelastic
gyrs
metabolism
lemaitre
hirzebruch
m51
nud
selling
##ticul
straton
unl
noaa
msu
coinciding
greenberger
badly
competence
aerosols
cbf
##pert
backed
roton
softly
##block
sfe
umbr
ucf
michelson
william
appreciably
##ird
##projective
periodogram
specialists
pulsational
misfit
ille
athena
disclose
archetypal
gripper
isogeny
bnn
canted
residence
##usti
plural
brink
lightlike
steklov
iin
lj
ptych
multiparameter
##illar
prefers
##kson
convnets
##tekar
faintest
##hyth
sipm
gyroscope
cofeb
##dan
##sius
asas
##orkin
corrid
freed
hyperuniform
##ahm
intelligibility
messaging
nanoscop
skeletons
vaidya
2i
aro
dock
##acal
endoscopic
stepsize
sintering
attacked
magnetostatic
convention
164
##2013
doctor
cmssm
hydrides
nanocrystalline
supercomputers
microresonators
tycho
uncommon
fen
mises
##itional
##c2
areal
genesis
dementia
liners
milliar
synthesizes
##458
nanodev
plagued
7li
fans
wb
##lc
openc
transpl
semima
ellipses
bitrate
laterally
stirring
auroral
coastal
nanocomposites
wilkinson
semimajor
##math
##inent
##step
shaw
##duction
hypercharge
attenu
rocket
mkdv
##02
##pls
frech
hei
parameterised
devoid
sinai
campus
4p
##aural
##qmd
##quard
chore
scf
##ulde
advected
fluctuate
whitehead
fronth
nanotechnology
##ijn
ehrhart
eigenmode
excursions
sculptor
heritage
##ei
##tio3
isp
centuries
programmer
discriminators
saturable
lamellar
n2h
zwanz
angstroms
ashtekar
arrest
lubrication
geodetic
curiosity
sullivan
##autonomous
##rav
approval
plc
##sheets
arguing
ecm
dsa
cnc
ultrastrong
511
gec
lbm
xas
##cup
##eries
##arn
##ulatory
cord
escal
swcn
repetitions
batalin
instantiation
interconnects
instructors
supercomputer
reionisation
monotonous
ipt
tsc
##vectors
##imo
##tines
##quant
elt
decimation
mined
##shore
sufficiency
gcm
youth
quintessential
barycentric
fronthaul
hoy
kf
pta
##arov
apm
adder
inconc
cmf
176
extinctions
synergies
onsite
##picuous
hls
jin
sorts
transformative
squarefree
violence
nanopores
tablet
coarser
udgs
foreseen
isotopologues
edition
wino
yrs
##zik
##ansm
##iten
##thu
##usp
nonautonomous
povm
gaussianities
specializing
##iao
172
hc2
reconciling
ponder
bisimil
microquasar
commensurability
wg
##match
acl
experimented
slides
174
cnf
chapters
neurological
sweeps
oste
quasicrystal
precludes
bess
lrs
##eh
##cnn
##oufl
spanners
transports
embeddable
la0
183
immigration
1977
levitation
pentaquarks
perplexity
scm
abuse
##icki
absorptive
148
steinberg
grasps
rewiring
inhibited
tqft
mckay
##bus
##kog
##ermions
##assing
recol
invented
glast
erased
theorists
pathogen
issued
adjunction
middleware
crustal
j180
##opathy
interrelations
reordering
stratonovich
aor
hoff
racial
##itel
coms
magnified
192
candles
marri
biosign
calorimetry
viscoelasticity
photovoltaics
rechar
randomised
delt
biquadratic
fractionalized
neglects
handedness
pneumonia
430
6x
msm
##tism
syll
formality
invited
magnetoc
##2021
vo2
laced
weekly
nervous
undetectable
frechet
lend
scroll
preim
fourfolds
adapters
##enched
100k
##electrons
passbands
kriging
##ahedra
paradoxical
antares
orionis
circumvents
bicep2
minisuper
anarchy
fulde
mbs
##jen
enanti
##ermin
##tae
cmds
distinctions
srf
ultracool
ddos
sleptons
algebro
teleoperation
kozai
inconclusive
b3
trivalent
##endall
graphically
##outburst
dr7
transitioning
guest
sweet
interfacing
microquasars
vilkov
tomonaga
fay
sinc
evans
analyst
existent
slits
illusion
lao
pbpb
accompany
##orrelations
compiling
petersson
polymorphism
passivation
quasilocal
pcc
##tm
##stant
##ongru
##dehy
oceanic
rectifiable
photodetector
telecommunications
gang
chur
coaxial
valves
collector
probab
electrolum
pcf
mrna
identifier
overdense
bnns
bbar
dans
stabilities
soap
endemic
dispersing
streamlines
stabilizers
lsr
marginalized
fabricating
oceans
calorimeters
otfs
hartle
rag
fork
##ayama
infant
colomb
crl
cpd
##neider
asymmetrically
obeyed
decelerating
exhaustively
karl
##sr0
##odory
depro
arisen
quantised
slr
broadens
adversely
regressors
policymakers
##inx
##irg
timeline
lightcone
faceted
camoufl
dsr
nicol
recycled
peptides
mouth
cet
hap
ols
##orum
emd
subdifferential
remember
peeling
##spaces
nlr
hydrophilic
fsrqs
970
fk
fom
font
alb
reass
chan
##orms
singles
capill
rmf
retransm
planarity
bidders
regulates
tenth
retina
tells
1es
lick
proces
reused
cls
simpson
lambdac
helim
sinkh
taxi
unmixing
pyramidal
coronagraphic
disfavored
##wald
##acr
isco
##atite
overload
complexified
powders
lately
employees
rouge
talks
sentiments
uplift
profoundly
michael
envisaged
6s
jh
jcm
zurek
##odule
##places
##ogn
dece
informatics
krull
kiloparsec
hebbian
gat
unauthor
radiate
##oven
semialgebr
remed
nanol
meso
pbw
coulombic
minihal
multifractality
skipping
##script
rendez
derm
ive
mermin
##tinos
datalog
charginos
demixing
indivis
16o
copyr
referencing
colourings
nbn
hunt
instantiate
upturn
asi
biorthogonal
moc
##arbon
##aming
nep
opera
##ovis
bike
mixer
feedbacks
sentin
buses
steeply
coalesce
cholesky
bogomol
vilkovisky
7x
sizing
quot
unaw
superoutburst
carl
banded
artists
salts
dyons
pronunc
afforded
cerebral
toughness
mackey
unaccept
tast
wsi
##bt
unrec
elig
infrequ
assists
constriction
geom
defending
156
berkov
interconnections
confronting
chromosome
alarms
bse
spanner
incon
subscrib
gama
lightly
omni
naturalistic
aubr
pmts
146
339
rhessi
monodisperse
eht
ged
mav
##urling
disput
orbiter
treas
splitters
picked
neckl
lec
##hop
##ictions
isi
##riques
subthreshold
navarro
frictionless
pooled
##affe
ovchin
##conversion
exponentiation
cbs
tir
mathtt
157
303
pcr
oblig
##urgence
neptunian
7b
770
liz
lsim
mog
tms
##rim
forums
##opus
##onde
polder
factorize
irl
transmis
voices
hyperspherical
lep2
deteriorate
stealthy
nilpotency
pessimistic
aql
mbe
rucl
##fem
producers
streamlined
srg
subgap
participated
##onese
arcade
1975
pilots
ambitious
rated
##quanti
##uding
rectilinear
refres
groundwork
dilations
huy
multifunctional
volunteers
ancestral
nusc
##prox
channeling
harms
uniformization
lae
schwarzian
035
multicolor
indiffer
lacun
nanomagnets
xfel
hqet
biexciton
scissors
jiang
##wal
##tir
##ceptions
scft
multib
behaving
distort
conformer
##pectra
bruijn
fqh
hest
##gement
beings
unans
emery
buildup
substances
##offel
microwaves
travels
##rotating
decelerated
birefringent
reorganization
manufacturers
inspecting
horseshoe
lottery
##iba
##opy
plun
beamed
sfgs
axionic
destinations
unfairness
proficiency
reperto
ebs
vad
##irs
##agmentation
##ofrequency
enskog
legis
rooms
supergroup
buckled
magnetoresis
uncharged
tss
##bel
shine
glm
pmc
rarefaction
negligibly
kamland
dissociative
berezin
quandles
##dehyde
mwa
ux
wakes
##card
beurling
sylow
outg
everyone
conventions
granulation
kaplan
ibis
transactional
manageable
##ircular
memristors
electroencephalography
##posium
faculty
018
321
cim
gog
##onf
subprocess
bioc
slowdown
##alogram
owl
eukary
customizable
economically
nuscenes
jim
kendall
##odym
##amide
##irt
conspir
unde
##grav
outlining
definiteness
silhou
pionic
traceability
eck
foils
325
miniature
overestimates
cobordisms
christoffel
blaschke
##umber
nondi
##epr
hij
dayside
interventional
justice
chapman
bgk
hypermultiplets
rabin
benjamin
dine
##san
##enb
163
##bsch
streamers
manifesting
056
rubber
##inned
als
##ayan
agenda
geography
10x
eda
##wara
icu
restores
plasmonics
antagon
hungry
adherence
chunks
administrative
nls1s
ding
leds
##right
##fel
##asp
##igs
ark
##ensely
radiations
maple
##oyd
mmd
unconf
polluted
##urnal
sellers
fostering
syzygies
schreier
copyright
bun
ruth
vene
##fd
labour
nanoclusters
exceeded
nanofl
indefin
acknowledged
district
quartet
##atical
##vous
##olvable
nonle
crank
glow
triad
conserves
virtuality
diagonalizable
reconsidered
arterial
unintended
otto
subroutine
tasep
ovchinnikov
pins
entit
nevan
extrater
gould
convnet
symposium
damp
nlc
##301
unbinding
nematicity
destroying
enlarging
epitaxially
transceivers
isaac
kostant
rendezvous
sentinel
fare
tda
##oders
##osa
tricks
schul
##scan
electros
fracton
crossovers
arctic
supermultiplets
isochrone
deliberately
instructional
nevanlin
lending
intends
sinh
counteract
clarification
2pi
berger
##ulfide
hgte
pomdps
emulsions
arousal
minisuperspace
sinkhorn
saves
##ville
##gnn
##pern
##quis
effector
allowable
fluent
wired
aggregator
sticking
symptom
paraphrase
intermetallic
nevanlinna
brou
pbs
rvert
ono
decuplet
infiltr
repur
homfly
illness
caten
1450
deviating
##boim
mlps
##oha
federal
showcases
magnetostriction
unauthorized
##rane
##trand
accepts
##association
##resent
##agner
blo
speculation
globule
candels
decodable
inaccuracy
sparql
hirsch
quasiconvex
pretext
metaphor
lit
lentic
qpt
resurgence
abdom
dmc
enabler
parametrisation
mdm
bonn
kasner
extraterrestrial
c4
dcc
qec
tmc
##lr
##inae
##ascale
##ogging
specker
hele
handwriting
168
mutants
ppbar
024
infinitesimally
pearl
athermal
olya
cgc
##ea
##elov
bez
suic
seismology
backflow
142
conjugates
cohorts
inflows
partnership
resheti
aiding
bx
cel
jlab
adaf
##berry
cra
guo
funds
servo
##health
cyclegan
hourglass
multifrequency
blueshift
1a
2u
bino
hott
sitting
useless
##aching
nonexpan
incoherence
noon
magnetron
deepen
boo
spectroscopies
relief
composable
##2015
coexists
##cribe
residents
racing
##huis
fuchs
washing
affinities
##oresponse
##omino
geol
eds
rotors
intraday
learnability
173
fdtd
cracking
tessellations
submodule
gadget
j12
wagner
##aire
##gence
nonposi
expulsion
##illars
lions
quantizer
reviewers
resolv
capacitively
geq3
midpoint
noncrossing
pythag
pacific
interdependence
hypermultiplet
qps
tall
##fets
incred
erbium
gravito
milling
dcnn
tsz
aerogel
##doors
540
bbhs
ej
mount
saus
byte
quantal
quantumness
gyration
1973
metropolitan
spectropolarimetry
##represented
reshetikhin
ket
qah
sop
##unting
underway
hyperedges
word2vec
queried
unsaturated
retraction
vlms
chromatin
hyperscaling
rsg
reformulating
bifeo3
##etylene
lambdacdm
aubry
dac
nll
##articles
imb
##ogan
schneider
photochemical
photosynthetic
approximable
precisions
##titution
heaviest
summability
sdf
beforehand
turnoff
##501
279
justifying
attaching
spanwise
multidisciplinary
3b
cole
recoll
crc
##oves
tops
sequent
objectively
barnes
mosa
kleinian
quadruped
tabulated
##ebner
cgs
rts
##vey
steric
dism
chose
corrective
rmt
scalarization
omics
extensional
projectiles
executes
discretizing
##606
##igroups
##eye
##absorption
pall
ya
##istng
##ewski
##ounkov
teitel
bb84
coproduct
##atov
reiten
deck
illustristng
##elasticity
recognizable
court
svms
rutile
happening
ksz
invisibility
alumina
deteriorates
exacerbated
kochen
bends
lau
##comp
apsi
relig
explode
crises
autism
organised
j08
undersampled
polydis
3f
bac
lense
sail
##ike
##utt
dispos
polarities
##ovo
carinae
##tinuity
hypercon
lengthy
clearer
hydrogenation
tsun
##iversal
impede
ferrell
vvv
chalcogenides
semialgebraic
mbar
nation
ucds
##ias
weis
idler
##ographies
cools
damages
msa
fuels
245
mdot
shortened
acquisitions
axiomatization
mwc
pentagon
precipitates
lenticular
3o
fsl
##tie
##oris
foref
club
approved
rankin
slowed
routers
nanoporous
leaking
loschmidt
stencil
thue
##icov
##plicable
severi
polarizing
periodical
molten
propeller
ellips
makespan
bolometer
suspect
1068
perceptrons
okounkov
squashed
abdominal
ili
##dma
##pol
##iments
##utz
deuts
##opard
plm
spinal
frac1
cdse
collisionally
nircam
encapsulation
confluence
chloride
polyelectrolyte
hurricane
mfs
franz
keying
playground
centering
##2014
##cls
mmt
lbv
unnatural
subdivisions
preclude
##hin
##anular
##ideal
draft
fluency
critique
invariances
ellis
funded
intelligently
entrant
##beat
revolutionary
2j
dorm
fade
lich
##qubit
neut
obvi
grays
##atile
meticul
photography
integrative
schemas
##reading
elastically
thirteen
semicontinuous
downsampling
##erkat
subsumes
ormander
gone
kc
tcs
##mev
##kn
subdiffusive
##overs
20th
condensations
huber
lacer
subhaloes
870
dob
l0
tapes
##lang
genericity
landsl
##heon
mct
1974
inhibits
lqr
cecoin
jarzynski
penumbra
volcanic
r0
v8
forc
askey
beil
##etrack
environmentally
microorgan
##ospace
occupations
oliv
preceded
pantheon
bq
sbm
##rison
##color
inch
##amma
##ucker
spending
undere
performant
openness
amplifies
utilises
odel
radars
interfaced
polyomino
cdma
circumference
accumulates
climbing
subshift
fell
tion
##sile
rejecting
##version
emc
nucleated
convol
la2
##persity
electroencephalogram
entertainment
dump
hrs
##omi
##stenberg
steen
aloha
grades
supersoft
textbooks
rcnn
leadership
beilinson
imbhs
delim
questioned
##breaking
surfactants
bids
duct
##otical
##hari
spde
##udied
##portant
indones
ags
miners
bron
boiling
##force
privately
##201
216
226
photomultipliers
heterojunctions
antivortex
icc
##dam
forty
##umo
##etrics
meerkat
exped
assure
smells
backup
##frs
renormalon
synchronously
deflagr
pickup
subordin
graceful
unfavorable
indivisible
gill
tib
tide
##odial
##agues
pauc
##nike
domino
##cope
fractionally
absorptions
naming
pdm
kacz
##cin
thematic
##uman
reju
nekr
graphon
162
lynd
roughening
arcseconds
fulfil
oxidized
unicode
korea
exfoliation
dashboard
610
##ptic
##erz
forg
unsign
superstructure
##cox
metaplectic
repeatability
peterson
chondrites
antipodal
microtubule
duffing
dae
##igraph
fra
assay
organisations
passwords
formerly
affordance
dibaryon
hung
##dens
##elmann
trails
chered
##ograd
bland
fluctuates
misuse
reverses
zernike
pnc
decentralization
portraits
adsorbate
sausage
forefront
rejuven
bch
##sup
##yon
thumb
##tini
moire
topographic
##acyclic
arrhyth
167
qualification
malaria
gmres
szemer
kpp
hypercyclic
eavesdroppers
arrows
atlantic
1r
gue
gott
n1
ole
sarc
x2
##anin
dies
collagen
##inescent
barrel
torn
csr
sfhs
cleaned
anticorrelation
warmer
kras
octave
superhumps
notorious
harbour
malignant
densification
aero
cin
cfs
##rus
##gaps
##fors
isab
spa
parities
assert
measurability
bls
fluences
county
swaps
counterions
j09
coarsely
instantiated
whistler
##enhagen
incapable
cherednik
kitt
r1
srm
##zkin
exiting
##irst
ob2
workings
##ronts
pmf
sympath
275
sfm
##fe2as2
dtw
photocatalytic
ukr
girard
crops
bipedal
longe
nonexpansive
cts
lav
##anking
##emia
sim5
brad
furstenberg
crosslin
boul
resolvable
recoverable
##ystems
rsd
bsde
editor
arsenide
##iscovered
dutch
gsc
kis
nur
##edged
##thest
speculated
##atoric
pointlike
pulsing
1520
escapes
hooke
##marz
pericenter
670
eo
ical
rose
##men
##around
##stell
trud
couplers
hypercomplex
reflectors
typicality
qualified
##ohertz
##218
kalb
micrometers
firmware
440
ats
vh
xp
##alt
##shock
chaining
hadoop
flavored
citep
##2o5
transcriptional
##kpatrick
niche
microphysics
lacertae
dogs
ned
##o6
##bee
##geless
##3sn
proph
genres
##itsky
##agra
1535
replicator
motzkin
##9733
sturmian
subdomain
epithelial
waf
##pins
diabatic
ge2
photographic
slant
summand
##ophobic
midi
cancers
saito
kilometers
helioseismology
reexamine
microtubules
apsidal
kaczmarz
8000
i2
##omotive
##otal
##verty
clamped
occuring
asymptotical
antibiotic
centralities
engel
misunder
novice
6li
##uity
##titions
##orb
scars
uninform
poverty
sourcing
synapse
harper
swipt
microarray
hfb
unimportant
diquarks
chunk
a3
anxi
spons
##izh
##anding
beck
quasip
garment
castel
kirkpatrick
tropos
citet
circumventing
1970s
prosth
x1
##lest
##alis
##amping
exquisite
abra
reman
bandgaps
helper
archit
normalizable
superselection
copolymers
rounded
prominently
peculiarity
h2co
gibbons
exemplars
1980s
semilocal
ddm
iip
iqa
pps
##1t
interr
grm
anyone
pressur
groebner
scintillating
anticipating
sofia
klt
exceedingly
multifragmentation
ruthen
##law
altr
valent
caltech
anymore
insensitivity
permalloy
statics
184
laminations
iwah
arrested
bem
bou
##nts
scc
unintegrated
veronese
belts
competitively
casual
microseconds
compensates
photocath
editors
gerbes
compartments
macroscale
exhaust
sulphur
golds
nnn
rust
##tization
##ows
stakes
##add
phill
##estation
upwind
conducive
189
geodesically
morris
##14w
snowmass
nickelates
mammalian
dess
pma
vague
nonse
latencies
reinforcing
urqmd
annuli
interacted
ethylene
sparticle
underdamped
nonleptonic
vassi
##inga
isr
##ocity
##opp
upwards
blade
odder
141
polymorphic
missingness
seyferts
flyby
celeba
sextic
iodine
felt
##hine
##ria
emg
undetermined
lime
ami
potent
##ymptotic
arrived
heterogenous
submicron
compressor
pronoun
##odiacal
overfit
slotted
cornell
therapies
electroluminescence
dls
vista
toll
foraging
proactively
recession
poi
##obis
secrets
slosh
layering
166
bald
wavefronts
zhao
garg
jansky
plotting
permanently
spiked
unicast
borrowed
miniaturized
nanocomposite
kuznet
decryption
dangling
nish
pce
##bn
harq
##gener
misses
224
antich
flawed
##ripke
dehazing
hoyle
church
iwahori
312
kripke
qpc
##elo
##reasing
trs
localizes
dissipate
gaits
##fferenti
dca
##401
##olinium
deutsch
520
ncc
vos
##ecure
##izon
triton
chic
##ichar
radiofrequency
keyboard
herz
##burn
medication
plugin
matsub
venez
anxiety
v4
went
##vla
timings
expelled
nodule
choi
downsi
cancelled
enriches
subtree
footpoints
ginibre
gyrot
voyager
teitelboim
7000
hinting
##cb
##osin
chime
##plication
realtime
transmutation
astrop
iterating
casts
agev
schramm
enumerated
##osyncr
reciproc
wett
freshness
zwick
predecessor
ventilation
retransmission
lur
lou
vbs
yosh
disinformation
flapping
superparam
207
focussed
kneser
participatory
spinorial
friendship
galilei
unnotic
strokes
amazing
nuclides
unquenched
osiris
matsubara
vuv
coeval
fierz
amid
##rows
##ikes
wilsonian
045
meetings
hindsight
symplect
abbreviated
ay
mast
sbf
##nae
interrupted
peres
commits
cosmogenic
sync
marang
warps
cyclical
perceptually
embryo
ciphert
polystyrene
msugra
bish
dbs
riv
##utron
##rank
##dev
##idss
##orean
deserv
##bertian
##psy
robert
rung
schedulers
nvss
supercurrents
dictate
hanle
commissioned
kuznetsov
##world
##onen
##omed
##iders
##earth
delves
quasif
gasb
literatures
##architect
188
##apsed
##igroup
liouvill
habits
recoiling
repeatable
crisp
jammer
idiosyncr
hadroproduction
rival
##zel
##osed
persian
poised
overr
slips
softness
##opeia
unfamil
gersten
poisoned
destabilization
nagumo
marangoni
bics
ceti
dere
mvs
r3
##entangled
shas
ge1
dr1
disconn
ceases
026
disturbing
rosetta
fueling
prismatic
##ircle
hmms
rhythms
gzk
melanoma
acousto
percentile
isabelle
019
caught
##oline
isomon
shir
unlic
blurry
secondaries
instructive
implo
dyon
gdpr
pancake
percolating
##assembly
arthur
polydispersity
paucity
ders
fx
peter
rides
##inus
trimmed
##ardo
responsivity
truncating
uml
authenticity
bowen
epistem
bombard
batio3
pronunciation
longevity
isomonod
vu
##vp
to0
##enthal
##etrically
carm
hypernov
memes
groundstate
intramolecular
plasmoid
succession
saddles
overdetermined
digitally
anthropic
##absorbed
euso
f814w
nanosheets
odderon
unlicensed
tds
##leck
##arevich
syman
notch
pathogens
omc
##106
sounding
terror
xenon1t
capsules
##gamma
pancre
semimartingale
jcmt
bure
rps
zx
##odels
comon
##actors
##ipe
retrieves
misner
additively
rgbd
mtj
dileptons
encountering
gadolinium
achromatic
interpreter
bisimilarity
huygens
bah
hev
vine
xb
##hko
##pant
simd
defe
polars
fourteen
postprocessing
reproductive
161
rarefied
cvar
kkt
hallucinations
epilepsy
trapezoidal
unaware
ios
vain
##ranov
##vit
adelic
##rope
backaction
ski
affili
##oku
relieve
pico
cooperating
chromomagnetic
friedel
wildfire
wolff
##obarns
intentional
flickering
symanzik
cact
eom
##hg
tooth
##odox
scd
coch
##uchus
##epti
dredge
##atism
binarization
scientist
##coo2
informativeness
56ni
fibred
certifying
rcw
mjup
v2v
titanate
minerals
nekrasov
950
aj
cafe
nes
sfs
uw
enlight
##ifs
opposition
deser
dra
inscribed
loan
causation
portug
reversibly
prominences
rsgs
reflectometry
hapl
rbc
hazardous
1990s
ransom
denominators
maritime
##ranean
gom
gep
ils
isomeric
sugra
adhere
##onding
##prung
1270
153
1430
chromoph
coreset
supermultiplet
resnet50
corrugation
neptunes
ophiuchus
misconceptions
bengali
grayscale
bial
##asions
orphan
consent
subun
martens
rationales
intervalley
300k
lagged
1972
##klt
gbt
multistep
endeavors
streaks
shafarevich
ahlfors
umbrella
fub
fci
hover
##gem
oral
grams
##phas
approximant
nucleonic
omp
affleck
rationalize
##yrin
promptly
sgwb
##easo
##agerup
otoc
##requencies
ticket
kloe
heston
portugues
dj
pale
xvi
alas
trgb
##una
levin
##epth
indentation
magnetometers
clebsch
heatmap
binocular
mimick
blows
imbalances
blazhko
digitization
scrutinize
##arriers
nanodevices
gst
##nl
##arev
##isability
conspicuous
fe1
idf
microscopes
linkages
deployable
cops
milne
bolometers
booster
hexagons
bonus
titles
hmxbs
hydroxyl
hans
pav
sri
ua
##uge
##wered
##enters
##amily
acted
##proof
##mmorphic
affords
widefield
photoelectrons
informations
mosqu
##atsu
bimaximal
qrpa
##textual
sipms
advertisers
subregion
tethered
cassiopeia
ponderomotive
portuguese
mgs
sft
sift
zi
spicules
##onicity
autop
epigen
##2016
chernoff
##web
panda
finetuned
tmdcs
hohenberg
bichromatic
unanswered
3t
kagra
ziv
stoner
unir
hyperedge
regularised
##issance
21st
ppn
ptf
pinched
phantoms
saved
reinforces
delineation
fingering
epileptic
aust
fench
g3
ji
##osome
##ocline
multipoint
instants
thirds
saying
wfirst
nanocrystal
supra
qnms
bam
mounting
wearing
seti
icp
bilstm
forbid
##haber
plagiar
troubles
maml
8k
fcs
xn
rex
sputtered
enriques
##avg
granted
maslov
poorer
chromo
##404
krus
myrs
judicious
calorimetric
trimers
intermediary
magnetocrystalline
##stellens
##utations
prym
tracy
unipolar
povms
committed
cosy
profitable
photoassociation
stackrel
nijen
lamp
375
haagerup
colonies
harnessed
sparked
hypernetwork
empowering
deciph
tongue
antigen
sympathetic
gur
gins
hough
pud
tann
tense
zb
##tooth
##ye
##gar
tres
flake
186
notebook
instrumented
cerenkov
thorne
petvi
repairing
metrological
coalitions
depicting
underexpl
sloshing
##2si2
##activeness
sok
epim
coherency
antennae
decentralised
politics
nighttime
cropping
inapplicable
phillips
fubini
0d
buc
canadian
refere
##variant
interspecies
gw150
ns5
protoplanets
puncture
unequiv
##immers
marriage
nijenhuis
atrial
lps
rut
##tp
##vas
nonequ
elapsed
schn
advis
antibody
pressureless
benefited
vanishingly
287
superluminous
declination
enzymes
##foam
reparameterization
homothetic
ffs
mail
tat
##can
##inals
##sio
shading
unilateral
confused
pmn
constructively
sharpening
##enberger
discriminatory
diagonalized
faber
dpd
aerospace
sawtooth
eigenspaces
evaporated
fluoride
democracy
vietoris
stewart
littlest
steenrod
unfamiliar
bgg
hob
nuc
##sided
disulfide
##ibrated
adminis
ccds
sherrington
ignorance
bft
pree
##mia
##rol
##etre
##urin
chase
usp
interrelated
datap
crossbar
widening
extremality
wrist
ssr
persona
subcarrier
hypercubes
affordances
husimi
brom
##uo
##jo
inwards
conics
grism
radiographs
##oidally
sunlight
recognizes
##troller
pgd
loudness
vendor
vietn
turkish
530
hrt
hifi
##alayer
##arg
qubo
matth
invariably
intract
##mona
svhn
ubiquitously
##ijing
assimil
petersen
epo
jhk
##sprung
##fusion
##annih
##ourn
ge0
##ovalent
longitudes
##graphs
213
discriminants
compresses
microsecond
steepness
impedes
hydrated
pretty
dexterous
mosquito
mrt
##hot
ink
provers
trec
##opulation
characterisations
craters
glide
formalizing
cancels
recognised
ccm
paint
arcminute
multifac
hessenberg
lubric
perfusion
##nuovo
caffarelli
dws
lsh
tard
##ispeech
carter
excites
tasked
##ospher
##eckelberg
fueled
marketplace
tbg
nfv
extraordinarily
miniaturization
coalescences
vietnamese
1x10
##ylation
##rotic
rear
spelling
underne
outages
amer
semip
subsem
misinterpret
destabilize
##ajima
subpopulation
gw150914
underneath
retic
##unet
scot
##assn
demaz
approximability
capping
definability
##ikawa
ukidss
fatal
hypercubic
sonar
amalgamated
astrosat
rovibrational
castelnuovo
fenchel
kom
kashi
mold
w1
##pectral
##kton
reph
##apacit
vera
##ausal
understandings
vectorized
lasts
##lerosis
pspc
imagine
eigenfrequencies
multiphysics
alexnet
cardinalities
polymorphs
deceptive
hxr
laalo
stueckelberg
nanoscopic
hottest
demazure
underrepresented
hyperd
offshore
##upts
hardest
##ommutative
##601
educators
tumbling
inflamm
nbse
j04
multiferroics
shastry
aod
##whe
export
asassn
crum
uncom
offload
intran
bull
notebooks
baseband
submit
67p
charmonia
antimon
enjoying
immobile
##ilot
202
archived
rado
miri
crystallinity
295
females
battle
russia
fisheye
tactics
flickr
burnside
persuasion
cigar
microswimmers
myocardial
eoss
fight
tec
##asaki
whim
##iden
acklund
##epp
##icip
radiography
wavebands
precomput
pdc
customize
vsr
capacitated
ought
territory
diagonally
hfs
lomb
rbs
sau
##uyama
stuff
chpt
unle
sim4
desynchron
##edicine
geos
deflation
minos
erasing
codecs
sram
217
##beh
kleene
gradings
annealer
descendant
hertzsprung
6k
kj
reti
diurnal
relab
obstructed
underper
##illation
ird
codebooks
covariantly
ttbar
rectify
reggeon
premises
retriever
palindromic
dengue
sidelob
reassess
bipar
noc
pem
zams
##oqu
##hous
##yen
coannih
recircul
subjectivity
appliances
equivalents
polyethylene
communicates
abstracted
novo
ccsn
kumar
expenditure
indefinitely
dpc
gcl
gems
pmma
zitter
##vanic
beijing
flor
smr
##matically
initiates
idealised
econometric
##ika
recursions
refrigeration
stitching
baz
rrt
##bage
##eliness
reis
resnets
restitution
fran
##ynamics
feff
cough
limsup
delete
hyperg
polyatomic
histology
cyberatt
anonymized
defocus
slsne
##nf
##asa
suss
##iese
##opf
wavevectors
visiting
embeddability
degenerates
223
052
busy
prioritizing
reshaping
##withstanding
superpartners
abraham
##asymptotic
geomet
255
unfeasible
semimetallic
lindel
evaporative
caveats
kruskal
hib
##fw
stdp
##adal
notwithstanding
contrav
##ields
admittance
bhb
portr
electrostatically
askap
antisymmetr
erasures
preventive
##atalyst
entitled
bombardment
zitterb
jd
raph
tset
##lf
##downs
##escu
toff
##ags
monster
bi2te3
supercontinuum
guarded
arrange
pseudospectral
categorizing
brightnesses
tangible
433
deuterons
credential
accretes
##uscule
destabilizing
misclassified
configure
bark
kenn
wpt
aspir
ard
##grs
excels
distal
renormalize
##naj
ngc6
pdrs
emphasise
3770
caloric
wav2vec
rvb
enlargement
patents
weighing
##phenyl
electrophysi
liouvillian
petviashvili
multifaceted
unleash
hud
mns
tect
##orsion
emden
confusing
edf
##103
##gnet
cbct
pointings
muscles
##ewegung
interrogation
ventricular
##quantum
disposal
wafers
rave
##mhz
##icits
trions
##heath
##otype
uru
sgrbs
contradicting
songs
steerable
bi2sr
zitterbewegung
ntt
##ui
desider
frg
superparticle
deleter
insect
gasket
cyto
specialised
chemicals
euro
##feaso
kraus
bangla
vocoder
disagreements
imitating
##micron
vanderm
315
eer
nth
tbm
vid
vimos
##kowski
##jee
exits
alam
##ogarithm
coral
gegen
populating
divertor
cooperators
dyer
vibrationally
actinide
cruise
ersic
1f
fpr
##immer
##vergence
##prob
multiqubit
defence
##ropically
carcin
encel
crepant
##eckner
multimess
shorten
premature
disaggregation
cbm
dfrac
kast
pade
rst
##uits
##arget
##ectivities
usd
emt
overconf
outd
gls
2030
banding
##shell
squids
competitor
##ospectr
librispeech
036
climatic
taxonomies
cryostat
prohibited
qutrits
weibel
pseudopotentials
seizures
administrators
glycol
##activation
underexplored
mbr
w2
zns
##ateness
clath
##unnel
agi
collatz
insecure
slack
uncoded
wordnet
bigo
214
custodial
equipments
allocates
deflections
timestamps
supervisor
noninv
entanglements
ultrafilters
perforated
ipv6
kitch
sans
tps
matting
desy
subcon
filed
etched
##ahead
writer
##onsistent
##hattan
inflating
disclosed
extensibility
cactus
enceladus
cau
##pix
##romechanical
scored
##phot
demodulation
##atistical
blackbox
roe
binarized
lls
posses
mosc
judiciously
tokenization
deflected
lyrics
retinopathy
profitability
eigenspace
kronig
superhump
empowers
undecidability
unlocking
hercules
forgot
fts
nws
##h3
##4d
antil
##iscr
spc
pointers
##orphism
auroc
supervise
cuspy
##2o6
misalignments
ntk
stratospheric
##aisal
crawling
microbiome
deleterious
withstand
nonintegrable
ems
manhattan
microphones
specifics
campan
##2022
colorization
027
cfa
sophistication
evidently
kadom
rasp
municip
##acryl
##asant
##trees
debiased
interlo
gra
league
submon
experimentalists
erratic
laying
boomer
pathologists
pm3
pubmed
denoised
degradations
hurdle
harnesses
ccsne
affirmatively
ephemerides
lanthanide
inhabit
gigahertz
tsetlin
yag
spps
##ocally
##ynth
##ochond
ede
articulation
##acceler
discernible
tourism
multimessenger
tee
##lings
intergr
unabsorbed
crt
runtimes
lifest
medial
intersite
denoiser
##ca0
redundancies
compromises
wikid
bucket
gnrs
vandermonde
cst
##cat
##elly
##ample
chor
clash
abr
escher
gravast
##backs
flatten
##ylind
texas
instantly
##bls
loadings
wilf
tagger
quantifiable
licensed
s0s
##ositing
conveyed
dividend
bishop
outdated
cic
tba
##f2
##qt
staging
##unted
hey
19th
skull
##rao
##216
claiming
lbg
fgk
brunn
##yclop
ethernet
plugged
dumbbell
unfores
pythagorean
unnoticed
geometro
fda
wen
xil
##brot
rebal
##ectal
dearth
emails
superficial
hyperpolar
separators
shortfall
haro
heatmaps
teuk
bollob
subtrees
interpolations
resiliency
1969
pioneered
irrationality
penumbral
subregions
lopsided
repertoire
award
ciii
fand
fgs
lts
nbs
##asz
reprocessed
##opological
206
barab
holevo
definitively
intersub
sharpen
spreadsheets
libration
331
j06
workshops
meteorite
fatou
chronological
mose2
cpr
dros
feld
rach
informs
smar
##egas
149
##paper
1710
ppp
##phiph
dragon
ucn
bagging
mandarin
staying
microcontroller
viter
[...]
