{
  "version": "1.0",
  "truncation": null,
  "padding": null,
  "added_tokens": [
    {
      "id": 0,
      "content": "[PAD]",
      "single_word": false,
      "lstrip": false,
      "rstrip": false,
      "normalized": false,
      "special": true
    },
    {
      "id": 1,
      "content": "[UNK]",
      "single_word": false,
      "lstrip": false,
      "rstrip": false,
      "normalized": false,
      "special": true
    },
    {
      "id": 2,
      "content": "[CLS]",
      "single_word": false,
      "lstrip": false,
      "rstrip": false,
      "normalized": false,
      "special": true
    },
    {
      "id": 3,
      "content": "[SEP]",
      "single_word": false,
      "lstrip": false,
      "rstrip": false,
      "normalized": false,
      "special": true
    },
    {
      "id": 4,
      "content": "[MASK]",
      "single_word": false,
      "lstrip": false,
      "rstrip": false,
      "normalized": false,
      "special": true
    }
  ],
  "normalizer": {
    "type": "BertNormalizer",
    "clean_text": true,
    "handle_chinese_chars": true,
    "strip_accents": null,
    "lowercase": true
  },
  "pre_tokenizer": {
    "type": "BertPreTokenizer"
  },
  "post_processor": {
    "type": "TemplateProcessing",
    "single": [
      {
        "SpecialToken": {
          "id": "[CLS]",
          "type_id": 0
        }
      },
      {
        "Sequence": {
          "id": "A",
          "type_id": 0
        }
      },
      {
        "SpecialToken": {
          "id": "[SEP]",
          "type_id": 0
        }
      }
    ],
    "pair": [
      {
        "SpecialToken": {
          "id": "[CLS]",
          "type_id": 0
        }
      },
      {
        "Sequence": {
          "id": "A",
          "type_id": 0
        }
      },
      {
        "SpecialToken": {
          "id": "[SEP]",
          "type_id": 0
        }
      },
      {
        "Sequence": {
          "id": "B",
          "type_id": 1
        }
      },
      {
        "SpecialToken": {
          "id": "[SEP]",
          "type_id": 1
        }
      }
    ],
    "special_tokens": {
      "[CLS]": {
        "id": "[CLS]",
        "ids": [
          2
        ],
        "tokens": [
          "[CLS]"
        ]
      },
      "[SEP]": {
        "id": "[SEP]",
        "ids": [
          3
        ],
        "tokens": [
          "[SEP]"
        ]
      }
    }
  },
  "decoder": {
    "type": "WordPiece",
    "prefix": "##",
    "cleanup": true
  },
  "model": {
    "type": "WordPiece",
    "unk_token": "[UNK]",
    "continuing_subword_prefix": "##",
    "max_input_chars_per_word": 100,
    "vocab": {
      "[PAD]": 0,
      "[UNK]": 1,
      "[CLS]": 2,
      "[SEP]": 3,
      "[MASK]": 4,
      "!": 5,
      "\"": 6,
      "#": 7,
      "$": 8,
      "%": 9,
      "&": 10,
      "'": 11,
      "(": 12,
      ")": 13,
      "*": 14,
      "+": 15,
      ",": 16,
      "-": 17,
      ".": 18,
      "/": 19,
      "0": 20,
      "1": 21,
      "2": 22,
      "3": 23,
      "4": 24,
      "5": 25,
      "6": 26,
      "7": 27,
      "8": 28,
      "9": 29,
      ":": 30,
      ";": 31,
      "<": 32,
      "=": 33,
      ">": 34,
      "?": 35,
      "@": 36,
      "[": 37,
      "\\": 38,
      "]": 39,
      "^": 40,
      "_": 41,
      "`": 42,
      "a": 43,
      "b": 44,
      "c": 45,
      "d": 46,
      "e": 47,
      "f": 48,
      "g": 49,
      "h": 50,
      "i": 51,
      "j": 52,
      "k": 53,
      "l": 54,
      "m": 55,
      "n": 56,
      "o": 57,
      "p": 58,
      "q": 59,
      "r": 60,
      "s": 61,
      "t": 62,
      "u": 63,
      "v": 64,
      "w": 65,
      "x": 66,
      "y": 67,
      "z": 68,
      "{": 69,
      "|": 70,
      "}": 71,
      "~": 72,
      "¤": 73,
      "##e": 74,
      "##d": 75,
      "##l": 76,
      "##r": 77,
      "##s": 78,
      "##c": 79,
      "##o": 80,
      "##n": 81,
      "##0": 82,
      "##w": 83,
      "##i": 84,
      "##m": 85,
      "##u": 86,
      "##p": 87,
      "##a": 88,
      "##k": 89,
      "##h": 90,
      "##5": 91,
      "##1": 92,
      "##6": 93,
      "##4": 94,
      "##v": 95,
      "##j": 96,
      "##3": 97,
      "##t": 98,
      "##b": 99,
      "##y": 100,
      "##9": 101,
      "##7": 102,
      "##f": 103,
      "##x": 104,
      "##2": 105,
      "##g": 106,
      "##z": 107,
      "##8": 108,
      "##q": 109,
      "##¤": 110,
      "th": 111,
      "##ti": 112,
      "##on": 113,
      "##er": 114,
      "the": 115,
      "##es": 116,
      "##in": 117,
      "##en": 118,
      "##al": 119,
      "##or": 120,
      "##tion": 121,
      "of": 122,
      "##ed": 123,
      "##at": 124,
      "in": 125,
      "##ar": 126,
      "an": 127,
      "##an": 128,
      "##it": 129,
      "##ro": 130,
      "##ic": 131,
      "##ing": 132,
      "##is": 133,
      "##el": 134,
      "and": 135,
      "##ec": 136,
      "##ation": 137,
      "##et": 138,
      "##as": 139,
      "##ur": 140,
      "to": 141,
      "##ent": 142,
      "##ac": 143,
      "##le": 144,
      "##om": 145,
      "##tr": 146,
      "##ul": 147,
      "for": 148,
      "we": 149,
      "##re": 150,
      "##ol": 151,
      "##im": 152,
      "pro": 153,
      "con": 154,
      "##od": 155,
      "is": 156,
      "##si": 157,
      "##ve": 158,
      "##tic": 159,
      "##ly": 160,
      "##ith": 161,
      "##st": 162,
      "##em": 163,
      "##am": 164,
      "on": 165,
      "##ow": 166,
      "##uc": 167,
      "ex": 168,
      "st": 169,
      "with": 170,
      "##ou": 171,
      "##ig": 172,
      "##per": 173,
      "that": 174,
      "##um": 175,
      "##ce": 176,
      "##il": 177,
      "##ter": 178,
      "##ity": 179,
      "##ts": 180,
      "##os": 181,
      "al": 182,
      "re": 183,
      "##ot": 184,
      "com": 185,
      "##pl": 186,
      "as": 187,
      "wh": 188,
      "##ate": 189,
      "##ir": 190,
      "sp": 191,
      "##ver": 192,
      "##ab": 193,
      "##id": 194,
      "##tin": 195,
      "mod": 196,
      "##ff": 197,
      "##ge": 198,
      "##ain": 199,
      "be": 200,
      "are": 201,
      "this": 202,
      "##qu": 203,
      "##ect": 204,
      "##ations": 205,
      "by": 206,
      "res": 207,
      "##se": 208,
      "##ut": 209,
      "##ting": 210,
      "##nd": 211,
      "pr": 212,
      "##iz": 213,
      "tr": 214,
      "de": 215,
      "comp": 216,
      "su": 217,
      "##ch": 218,
      "dis": 219,
      "sh": 220,
      "##ical": 221,
      "model": 222,
      "##ad": 223,
      "##ess": 224,
      "##ap": 225,
      "##ant": 226,
      "##ear": 227,
      "at": 228,
      "en": 229,
      "##tions": 230,
      "qu": 231,
      "##rom": 232,
      "##ag": 233,
      "##ure": 234,
      "ch": 235,
      "##sion": 236,
      "or": 237,
      "ap": 238,
      "par": 239,
      "##orm": 240,
      "##igh": 241,
      "##tive": 242,
      "sy": 243,
      "##ay": 244,
      "##oc": 245,
      "##ud": 246,
      "##ib": 247,
      "##th": 248,
      "ne": 249,
      "us": 250,
      "im": 251,
      "from": 252,
      "##ated": 253,
      "##ich": 254,
      "##ence": 255,
      "##og": 256,
      "cl": 257,
      "ob": 258,
      "str": 259,
      "di": 260,
      "##us": 261,
      "##form": 262,
      "##un": 263,
      "##ies": 264,
      "##ers": 265,
      "ph": 266,
      "##op": 267,
      "which": 268,
      "ac": 269,
      "##if": 270,
      "can": 271,
      "##pro": 272,
      "met": 273,
      "##ork": 274,
      "##ents": 275,
      "##ere": 276,
      "##erm": 277,
      "inter": 278,
      "##etw": 279,
      "##ari": 280,
      "##duc": 281,
      "##vel": 282,
      "##ble": 283,
      "##and": 284,
      "sc": 285,
      "un": 286,
      "mat": 287,
      "##iv": 288,
      "##ally": 289,
      "##ass": 290,
      "##ons": 291,
      "gen": 292,
      "dat": 293,
      "##ach": 294,
      "##able": 295,
      "##ore": 296,
      "int": 297,
      "##ous": 298,
      "show": 299,
      "##stem": 300,
      "resul": 301,
      "system": 302,
      "per": 303,
      "##all": 304,
      "##der": 305,
      "##rou": 306,
      "co": 307,
      "sim": 308,
      "gener": 309,
      "ad": 310,
      "eff": 311,
      "##av": 312,
      "##tim": 313,
      "tran": 314,
      "gr": 315,
      "##ution": 316,
      "bas": 317,
      "our": 318,
      "fin": 319,
      "##ell": 320,
      "##etr": 321,
      "##ati": 322,
      "##ance": 323,
      "rel": 324,
      "fi": 325,
      "##end": 326,
      "##ave": 327,
      "tw": 328,
      "##ary": 329,
      "diff": 330,
      "##enti": 331,
      "le": 332,
      "tim": 333,
      "##eld": 334,
      "ev": 335,
      "##ties": 336,
      "cons": 337,
      "meth": 338,
      "##ectr": 339,
      "method": 340,
      "non": 341,
      "##ment": 342,
      "##ace": 343,
      "op": 344,
      "##res": 345,
      "##uct": 346,
      "appro": 347,
      "##ri": 348,
      "##ak": 349,
      "##ular": 350,
      "##ase": 351,
      "me": 352,
      "it": 353,
      "ar": 354,
      "##ign": 355,
      "##ial": 356,
      "##pos": 357,
      "##act": 358,
      "##ys": 359,
      "det": 360,
      "##ple": 361,
      "##ine": 362,
      "stud": 363,
      "##ates": 364,
      "two": 365,
      "data": 366,
      "##unc": 367,
      "se": 368,
      "##tical": 369,
      "##erg": 370,
      "anal": 371,
      "pres": 372,
      "##tain": 373,
      "form": 374,
      "rec": 375,
      "sol": 376,
      "high": 377,
      "##por": 378,
      "##ound": 379,
      "##erv": 380,
      "##yn": 381,
      "##ens": 382,
      "field": 383,
      "pa": 384,
      "po": 385,
      "equ": 386,
      "these": 387,
      "el": 388,
      "cor": 389,
      "##ong": 390,
      "using": 391,
      "based": 392,
      "##agn": 393,
      "inc": 394,
      "fl": 395,
      "func": 396,
      "results": 397,
      "##ack": 398,
      "##ory": 399,
      "##ility": 400,
      "pl": 401,
      "em": 402,
      "des": 403,
      "##uch": 404,
      "##ization": 405,
      "##so": 406,
      "##ors": 407,
      "##ard": 408,
      "num": 409,
      "acc": 410,
      "all": 411,
      "differ": 412,
      "obs": 413,
      "time": 414,
      "##ax": 415,
      "trans": 416,
      "##our": 417,
      "##ension": 418,
      "##est": 419,
      "##ight": 420,
      "##age": 421,
      "propos": 422,
      "##enc": 423,
      "##trib": 424,
      "fr": 425,
      "also": 426,
      "ab": 427,
      "##ph": 428,
      "##olog": 429,
      "##ection": 430,
      "##plic": 431,
      "##ative": 432,
      "##ust": 433,
      "vari": 434,
      "mul": 435,
      "##ech": 436,
      "##ue": 437,
      "reg": 438,
      "##ist": 439,
      "have": 440,
      "##ree": 441,
      "mo": 442,
      "disc": 443,
      "##oth": 444,
      "quant": 445,
      "##een": 446,
      "##ite": 447,
      "quantum": 448,
      "##di": 449,
      "##ang": 450,
      "##ew": 451,
      "##ics": 452,
      "##ion": 453,
      "##blem": 454,
      "betw": 455,
      "between": 456,
      "no": 457,
      "problem": 458,
      "inv": 459,
      "##ynam": 460,
      "observ": 461,
      "##ures": 462,
      "such": 463,
      "multi": 464,
      "energ": 465,
      "##ning": 466,
      "##ature": 467,
      "sub": 468,
      "models": 469,
      "not": 470,
      "##ating": 471,
      "new": 472,
      "##ide": 473,
      "lar": 474,
      "super": 475,
      "##etwork": 476,
      "##yp": 477,
      "has": 478,
      "one": 479,
      "und": 480,
      "network": 481,
      "##ond": 482,
      "##ex": 483,
      "study": 484,
      "paper": 485,
      "partic": 486,
      "prov": 487,
      "dec": 488,
      "##port": 489,
      "dim": 490,
      "##cess": 491,
      "exper": 492,
      "meas": 493,
      "magn": 494,
      "scal": 495,
      "##ep": 496,
      "present": 497,
      "struct": 498,
      "es": 499,
      "cont": 500,
      "##gr": 501,
      "inf": 502,
      "col": 503,
      "approach": 504,
      "##etic": 505,
      "##aph": 506,
      "lear": 507,
      "##ied": 508,
      "ind": 509,
      "##ark": 510,
      "dimension": 511,
      "char": 512,
      "##gh": 513,
      "energy": 514,
      "##ential": 515,
      "##ized": 516,
      "over": 517,
      "##ely": 518,
      "##ability": 519,
      "general": 520,
      "##ithm": 521,
      "exp": 522,
      "##gor": 523,
      "ass": 524,
      "##ici": 525,
      "param": 526,
      "##ip": 527,
      "##adi": 528,
      "set": 529,
      "under": 530,
      "sign": 531,
      "##ill": 532,
      "constr": 533,
      "how": 534,
      "experim": 535,
      "pol": 536,
      "perform": 537,
      "state": 538,
      "man": 539,
      "##ual": 540,
      "loc": 541,
      "mass": 542,
      "sur": 543,
      "##ber": 544,
      "val": 545,
      "##ific": 546,
      "##mm": 547,
      "##inear": 548,
      "##les": 549,
      "low": 550,
      "##ev": 551,
      "order": 552,
      "##ther": 553,
      "dynam": 554,
      "its": 555,
      "their": 556,
      "effec": 557,
      "function": 558,
      "math": 559,
      "theory": 560,
      "space": 561,
      "dep": 562,
      "##ome": 563,
      "proper": 564,
      "more": 565,
      "##ob": 566,
      "algor": 567,
      "fe": 568,
      "algorithm": 569,
      "sam": 570,
      "##ros": 571,
      "bound": 572,
      "sm": 573,
      "out": 574,
      "distrib": 575,
      "class": 576,
      "grou": 577,
      "cur": 578,
      "systems": 579,
      "paramet": 580,
      "star": 581,
      "cou": 582,
      "large": 583,
      "process": 584,
      "typ": 585,
      "##mmetr": 586,
      "##anc": 587,
      "ver": 588,
      "simul": 589,
      "find": 590,
      "corr": 591,
      "##ational": 592,
      "li": 593,
      "##vi": 594,
      "##ected": 595,
      "different": 596,
      "##pt": 597,
      "fir": 598,
      "learning": 599,
      "spectr": 600,
      "##her": 601,
      "analys": 602,
      "gal": 603,
      "##action": 604,
      "where": 605,
      "compar": 606,
      "first": 607,
      "##ma": 608,
      "both": 609,
      "##onstr": 610,
      "up": 611,
      "##ian": 612,
      "consi": 613,
      "ag": 614,
      "obtain": 615,
      "##tiv": 616,
      "red": 617,
      "work": 618,
      "tem": 619,
      "##int": 620,
      "id": 621,
      "pre": 622,
      "##ose": 623,
      "estim": 624,
      "well": 625,
      "cal": 626,
      "consider": 627,
      "optim": 628,
      "##olution": 629,
      "##ile": 630,
      "##utions": 631,
      "electr": 632,
      "##edic": 633,
      "##au": 634,
      "##istic": 635,
      "than": 636,
      "graph": 637,
      "rep": 638,
      "##ize": 639,
      "##atic": 640,
      "##br": 641,
      "##ast": 642,
      "##ange": 643,
      "measur": 644,
      "##eng": 645,
      "spin": 646,
      "##fer": 647,
      "depend": 648,
      "lim": 649,
      "##formation": 650,
      "when": 651,
      "analysis": 652,
      "ext": 653,
      "##ise": 654,
      "##out": 655,
      "vi": 656,
      "##sition": 657,
      "expl": 658,
      "number": 659,
      "been": 660,
      "sing": 661,
      "dem": 662,
      "predic": 663,
      "##now": 664,
      "bl": 665,
      "##ail": 666,
      "coll": 667,
      "real": 668,
      "##sive": 669,
      "##dition": 670,
      "##ural": 671,
      "am": 672,
      "spec": 673,
      "phase": 674,
      "use": 675,
      "comple": 676,
      "used": 677,
      "##00": 678,
      "##ement": 679,
      "desc": 680,
      "##ni": 681,
      "applic": 682,
      "##ency": 683,
      "dir": 684,
      "##ator": 685,
      "group": 686,
      "##ole": 687,
      "produc": 688,
      "##old": 689,
      "limit": 690,
      "##ets": 691,
      "some": 692,
      "properties": 693,
      "##atter": 694,
      "##lud": 695,
      "oper": 696,
      "local": 697,
      "dimensional": 698,
      "he": 699,
      "##ically": 700,
      "##ensity": 701,
      "term": 702,
      "uni": 703,
      "##ism": 704,
      "##ently": 705,
      "pos": 706,
      "into": 707,
      "proposed": 708,
      "methods": 709,
      "structure": 710,
      "ge": 711,
      "comm": 712,
      "comput": 713,
      "##acter": 714,
      "##tig": 715,
      "magnetic": 716,
      "##iven": 717,
      "radi": 718,
      "tech": 719,
      "there": 720,
      "sel": 721,
      "hy": 722,
      "##velop": 723,
      "##bit": 724,
      "def": 725,
      "repres": 726,
      "character": 727,
      "know": 728,
      "only": 729,
      "min": 730,
      "##ometr": 731,
      "br": 732,
      "sch": 733,
      "der": 734,
      "fram": 735,
      "galax": 736,
      "##ject": 737,
      "analy": 738,
      "demonstr": 739,
      "sec": 740,
      "##cul": 741,
      "resp": 742,
      "cr": 743,
      "but": 744,
      "other": 745,
      "case": 746,
      "##row": 747,
      "##ior": 748,
      "dom": 749,
      "pot": 750,
      "linear": 751,
      "##ases": 752,
      "temper": 753,
      "inte": 754,
      "##ll": 755,
      "##ined": 756,
      "##over": 757,
      "experiment": 758,
      "##vely": 759,
      "develop": 760,
      "##ks": 761,
      "##ov": 762,
      "coupl": 763,
      "complex": 764,
      "##ord": 765,
      "performance": 766,
      "phys": 767,
      "states": 768,
      "##ub": 769,
      "calcul": 770,
      "dr": 771,
      "##onic": 772,
      "information": 773,
      "inves": 774,
      "phot": 775,
      "investig": 776,
      "##ological": 777,
      "##ty": 778,
      "##als": 779,
      "approx": 780,
      "symmetr": 781,
      "so": 782,
      "strong": 783,
      "##ann": 784,
      "##ication": 785,
      "density": 786,
      "##ish": 787,
      "##earch": 788,
      "##ive": 789,
      "##vers": 790,
      "##rough": 791,
      "##ever": 792,
      "##roduc": 793,
      "represent": 794,
      "includ": 795,
      "##are": 796,
      "impro": 797,
      "##ities": 798,
      "determ": 799,
      "plan": 800,
      "##rop": 801,
      "discus": 802,
      "small": 803,
      "train": 804,
      "introduc": 805,
      "top": 806,
      "10": 807,
      "distribution": 808,
      "effici": 809,
      "##sible": 810,
      "##ission": 811,
      "propose": 812,
      "through": 813,
      "however": 814,
      "contro": 815,
      "sour": 816,
      "three": 817,
      "##ings": 818,
      "if": 819,
      "conf": 820,
      "##par": 821,
      "pow": 822,
      "potential": 823,
      "neu": 824,
      "##ext": 825,
      "clust": 826,
      "type": 827,
      "gl": 828,
      "while": 829,
      "##ene": 830,
      "level": 831,
      "prob": 832,
      "approxim": 833,
      "##ted": 834,
      "surf": 835,
      "##atis": 836,
      "exam": 837,
      "##ption": 838,
      "##gebr": 839,
      "correl": 840,
      "sem": 841,
      "then": 842,
      "##atures": 843,
      "gam": 844,
      "##ions": 845,
      "extr": 846,
      "fact": 847,
      "lat": 848,
      "##ke": 849,
      "aut": 850,
      "##anti": 851,
      "##echan": 852,
      "##ments": 853,
      "discuss": 854,
      "##ality": 855,
      "##ues": 856,
      "##jec": 857,
      "beh": 858,
      "point": 859,
      "##low": 860,
      "reduc": 861,
      "most": 862,
      "fur": 863,
      "incre": 864,
      "##rib": 865,
      "each": 866,
      "fre": 867,
      "neutr": 868,
      "##ology": 869,
      "numer": 870,
      "functions": 871,
      "##ten": 872,
      "particular": 873,
      "##ages": 874,
      "power": 875,
      "allow": 876,
      "single": 877,
      "##ework": 878,
      "##ness": 879,
      "framework": 880,
      "signific": 881,
      "##ength": 882,
      "er": 883,
      "##aces": 884,
      "ray": 885,
      "##ross": 886,
      "##uld": 887,
      "design": 888,
      "requ": 889,
      "##oun": 890,
      "networks": 891,
      "constrain": 892,
      "identi": 893,
      "temperature": 894,
      "finite": 895,
      "mechan": 896,
      "do": 897,
      "integr": 898,
      "tas": 899,
      "##cop": 900,
      "accur": 901,
      "##pr": 902,
      "##ix": 903,
      "algebr": 904,
      "mon": 905,
      "dynamics": 906,
      "lead": 907,
      "##ators": 908,
      "scale": 909,
      "##urb": 910,
      "cap": 911,
      "comb": 912,
      "##und": 913,
      "curr": 914,
      "due": 915,
      "app": 916,
      "provide": 917,
      "parameters": 918,
      "##round": 919,
      "provid": 920,
      "describ": 921,
      "may": 922,
      "any": 923,
      "wave": 924,
      "observed": 925,
      "grav": 926,
      "behav": 927,
      "##ton": 928,
      "##tivity": 929,
      "techni": 930,
      "techniqu": 931,
      "##aus": 932,
      "significant": 933,
      "result": 934,
      "##ta": 935,
      "obtained": 936,
      "##ft": 937,
      "##ns": 938,
      "given": 939,
      "##chi": 940,
      "cent": 941,
      "mean": 942,
      "found": 943,
      "##ector": 944,
      "equation": 945,
      "##ples": 946,
      "##verse": 947,
      "max": 948,
      "theor": 949,
      "##oci": 950,
      "range": 951,
      "rand": 952,
      "##tial": 953,
      "conc": 954,
      "##acy": 955,
      "car": 956,
      "##ertain": 957,
      "##fy": 958,
      "was": 959,
      "random": 960,
      "many": 961,
      "achi": 962,
      "interac": 963,
      "rob": 964,
      "##ete": 965,
      "del": 966,
      "##aw": 967,
      "map": 968,
      "minim": 969,
      "##ort": 970,
      "##ision": 971,
      "long": 972,
      "20": 973,
      "##ucle": 974,
      "##resp": 975,
      "effect": 976,
      "addition": 977,
      "rem": 978,
      "datas": 979,
      "light": 980,
      "parameter": 981,
      "##assi": 982,
      "##tinu": 983,
      "solutions": 984,
      "equations": 985,
      "##ward": 986,
      "##ves": 987,
      "##ier": 988,
      "##vious": 989,
      "##alu": 990,
      "quanti": 991,
      "they": 992,
      "corresp": 993,
      "correspond": 994,
      "here": 995,
      "stand": 996,
      "##astic": 997,
      "exc": 998,
      "near": 999,
      "sever": 1000,
      "cod": 1001,
      "demonstrate": 1002,
      "##con": 1003,
      "##ays": 1004,
      "therm": 1005,
      "terms": 1006,
      "bi": 1007,
      "##ulation": 1008,
      "domain": 1009,
      "nucle": 1010,
      "sup": 1011,
      "import": 1012,
      "dist": 1013,
      "##ric": 1014,
      "flu": 1015,
      "within": 1016,
      "previous": 1017,
      "frequ": 1018,
      "evolution": 1019,
      "##ind": 1020,
      "geometr": 1021,
      "evalu": 1022,
      "##edi": 1023,
      "cos": 1024,
      "ent": 1025,
      "deg": 1026,
      "##ful": 1027,
      "mic": 1028,
      "effects": 1029,
      "##lu": 1030,
      "##ffici": 1031,
      "##its": 1032,
      "main": 1033,
      "classi": 1034,
      "##itud": 1035,
      "##cal": 1036,
      "experiments": 1037,
      "bet": 1038,
      "known": 1039,
      "##ines": 1040,
      "rate": 1041,
      "surface": 1042,
      "transition": 1043,
      "flow": 1044,
      "##fication": 1045,
      "second": 1046,
      "av": 1047,
      "##ditions": 1048,
      "associ": 1049,
      "deriv": 1050,
      "deep": 1051,
      "times": 1052,
      "##ym": 1053,
      "solution": 1054,
      "##ces": 1055,
      "##ences": 1056,
      "conditions": 1057,
      "##ements": 1058,
      "inst": 1059,
      "applications": 1060,
      "extend": 1061,
      "##otic": 1062,
      "ins": 1063,
      "numerical": 1064,
      "continu": 1065,
      "lo": 1066,
      "several": 1067,
      "mom": 1068,
      "prove": 1069,
      "##ensi": 1070,
      "bec": 1071,
      "standard": 1072,
      "free": 1073,
      "fields": 1074,
      "##tice": 1075,
      "simil": 1076,
      "gamma": 1077,
      "exis": 1078,
      "matter": 1079,
      "recent": 1080,
      "##ved": 1081,
      "go": 1082,
      "will": 1083,
      "optical": 1084,
      "consist": 1085,
      "cosm": 1086,
      "effective": 1087,
      "detection": 1088,
      "##gg": 1089,
      "##led": 1090,
      "conn": 1091,
      "imp": 1092,
      "##ving": 1093,
      "##sc": 1094,
      "theore": 1095,
      "galaxies": 1096,
      "experimental": 1097,
      "simple": 1098,
      "neural": 1099,
      "control": 1100,
      "mak": 1101,
      "abs": 1102,
      "current": 1103,
      "back": 1104,
      "##ger": 1105,
      "log": 1106,
      "compon": 1107,
      "assum": 1108,
      "pair": 1109,
      "image": 1110,
      "polar": 1111,
      "maxim": 1112,
      "stars": 1113,
      "band": 1114,
      "ful": 1115,
      "cri": 1116,
      "novel": 1117,
      "problems": 1118,
      "##ression": 1119,
      "similar": 1120,
      "##ough": 1121,
      "via": 1122,
      "emission": 1123,
      "schem": 1124,
      "like": 1125,
      "simulations": 1126,
      "observations": 1127,
      "possible": 1128,
      "features": 1129,
      "very": 1130,
      "prot": 1131,
      "shown": 1132,
      "cluster": 1133,
      "##ances": 1134,
      "##ps": 1135,
      "sequ": 1136,
      "peri": 1137,
      "mathb": 1138,
      "##ormal": 1139,
      "##ane": 1140,
      "##orph": 1141,
      "same": 1142,
      "##inc": 1143,
      "##ost": 1144,
      "interaction": 1145,
      "##uring": 1146,
      "subs": 1147,
      "black": 1148,
      "##rix": 1149,
      "electron": 1150,
      "##ath": 1151,
      "classical": 1152,
      "alph": 1153,
      "##och": 1154,
      "err": 1155,
      "##ice": 1156,
      "##put": 1157,
      "ini": 1158,
      "##ero": 1159,
      "conver": 1160,
      "training": 1161,
      "##ables": 1162,
      "weak": 1163,
      "const": 1164,
      "chall": 1165,
      "matrix": 1166,
      "self": 1167,
      "induc": 1168,
      "spati": 1169,
      "size": 1170,
      "##ern": 1171,
      "vis": 1172,
      "##cc": 1173,
      "##ress": 1174,
      "syn": 1175,
      "multiple": 1176,
      "critical": 1177,
      "statis": 1178,
      "algorithms": 1179,
      "nonl": 1180,
      "higher": 1181,
      "algebra": 1182,
      "sugg": 1183,
      "various": 1184,
      "including": 1185,
      "period": 1186,
      "##eg": 1187,
      "ele": 1188,
      "about": 1189,
      "alpha": 1190,
      "prec": 1191,
      "##roscop": 1192,
      "##ellar": 1193,
      "##turb": 1194,
      "particle": 1195,
      "ed": 1196,
      "compared": 1197,
      "##tively": 1198,
      "##get": 1199,
      "objec": 1200,
      "scatter": 1201,
      "##ination": 1202,
      "##lish": 1203,
      "measurements": 1204,
      "conv": 1205,
      "##ock": 1206,
      "even": 1207,
      "optimal": 1208,
      "lay": 1209,
      "##ateg": 1210,
      "coupling": 1211,
      "formation": 1212,
      "##inary": 1213,
      "exist": 1214,
      "invari": 1215,
      "important": 1216,
      "tak": 1217,
      "##annel": 1218,
      "source": 1219,
      "pop": 1220,
      "ser": 1221,
      "atom": 1222,
      "spectrum": 1223,
      "mechanism": 1224,
      "end": 1225,
      "further": 1226,
      "mol": 1227,
      "four": 1228,
      "investigate": 1229,
      "associated": 1230,
      "underst": 1231,
      "quas": 1232,
      "orbit": 1233,
      "moment": 1234,
      "ferm": 1235,
      "##ms": 1236,
      "symmetry": 1237,
      "formul": 1238,
      "##pec": 1239,
      "add": 1240,
      "ke": 1241,
      "channel": 1242,
      "fil": 1243,
      "test": 1244,
      "##ron": 1245,
      "spectral": 1246,
      "without": 1247,
      "value": 1248,
      "gas": 1249,
      "##eter": 1250,
      "direct": 1251,
      "perturb": 1252,
      "were": 1253,
      "contrib": 1254,
      "##erial": 1255,
      "cross": 1256,
      "line": 1257,
      "vel": 1258,
      "cir": 1259,
      "mix": 1260,
      "improve": 1261,
      "ang": 1262,
      "mu": 1263,
      "##tern": 1264,
      "behavior": 1265,
      "##ymmetr": 1266,
      "analyz": 1267,
      "##abil": 1268,
      "glob": 1269,
      "molec": 1270,
      "hyper": 1271,
      "sl": 1272,
      "mas": 1273,
      "lang": 1274,
      "compl": 1275,
      "lattice": 1276,
      "veloc": 1277,
      "imple": 1278,
      "##amb": 1279,
      "mathbb": 1280,
      "values": 1281,
      "##ping": 1282,
      "##ift": 1283,
      "frequency": 1284,
      "##ections": 1285,
      "##ised": 1286,
      "orig": 1287,
      "rot": 1288,
      "search": 1289,
      "commun": 1290,
      "##mentation": 1291,
      "##ade": 1292,
      "rati": 1293,
      "##tional": 1294,
      "origin": 1295,
      "##izing": 1296,
      "existing": 1297,
      "##da": 1298,
      "env": 1299,
      "call": 1300,
      "sum": 1301,
      "pi": 1302,
      "##plicit": 1303,
      "fol": 1304,
      "##uction": 1305,
      "interactions": 1306,
      "##reat": 1307,
      "##epend": 1308,
      "text": 1309,
      "research": 1310,
      "relati": 1311,
      "give": 1312,
      "nonlinear": 1313,
      "spe": 1314,
      "##ified": 1315,
      "way": 1316,
      "enh": 1317,
      "dark": 1318,
      "unc": 1319,
      "ii": 1320,
      "cy": 1321,
      "reson": 1322,
      "##oy": 1323,
      "ear": 1324,
      "circ": 1325,
      "independ": 1326,
      "##usion": 1327,
      "nat": 1328,
      "##iron": 1329,
      "requir": 1330,
      "supercon": 1331,
      "achiev": 1332,
      "region": 1333,
      "appl": 1334,
      "boundary": 1335,
      "##iter": 1336,
      "environ": 1337,
      "foc": 1338,
      "##ints": 1339,
      "indic": 1340,
      "corresponding": 1341,
      "##ising": 1342,
      "robust": 1343,
      "zero": 1344,
      "progr": 1345,
      "efficient": 1346,
      "factor": 1347,
      "##ould": 1348,
      "accuracy": 1349,
      "ref": 1350,
      "condition": 1351,
      "adv": 1352,
      "images": 1353,
      "noise": 1354,
      "construct": 1355,
      "compu": 1356,
      "af": 1357,
      "langu": 1358,
      "##omial": 1359,
      "sample": 1360,
      "dev": 1361,
      "coun": 1362,
      "##ild": 1363,
      "contr": 1364,
      "excit": 1365,
      "related": 1366,
      "scen": 1367,
      "open": 1368,
      "prim": 1369,
      "##te": 1370,
      "##ire": 1371,
      "##one": 1372,
      "mach": 1373,
      "posi": 1374,
      "gau": 1375,
      "scattering": 1376,
      "constant": 1377,
      "ir": 1378,
      "material": 1379,
      "specific": 1380,
      "##ival": 1381,
      "follow": 1382,
      "lower": 1383,
      "elect": 1384,
      "galaxy": 1385,
      "##ld": 1386,
      "transform": 1387,
      "##ner": 1388,
      "autom": 1389,
      "understand": 1390,
      "theorem": 1391,
      "##bed": 1392,
      "mem": 1393,
      "superconduc": 1394,
      "theoretical": 1395,
      "##sh": 1396,
      "conduc": 1397,
      "##ifold": 1398,
      "those": 1399,
      "physical": 1400,
      "##ino": 1401,
      "focus": 1402,
      "##onal": 1403,
      "regular": 1404,
      "##itude": 1405,
      "adap": 1406,
      "structures": 1407,
      "approximation": 1408,
      "studied": 1409,
      "finally": 1410,
      "##ules": 1411,
      "during": 1412,
      "thus": 1413,
      "techniques": 1414,
      "hom": 1415,
      "bar": 1416,
      "processes": 1417,
      "occ": 1418,
      "grow": 1419,
      "vol": 1420,
      "task": 1421,
      "##oid": 1422,
      "them": 1423,
      "tun": 1424,
      "##verage": 1425,
      "hal": 1426,
      "avail": 1427,
      "allows": 1428,
      "##romagn": 1429,
      "separ": 1430,
      "introduce": 1431,
      "##ropy": 1432,
      "nan": 1433,
      "relations": 1434,
      "##ount": 1435,
      "osc": 1436,
      "##oss": 1437,
      "initial": 1438,
      "est": 1439,
      "##amil": 1440,
      "##esting": 1441,
      "consistent": 1442,
      "gravit": 1443,
      "oscill": 1444,
      "lab": 1445,
      "contain": 1446,
      "discr": 1447,
      "##ein": 1448,
      "groups": 1449,
      "clos": 1450,
      "19": 1451,
      "need": 1452,
      "optimization": 1453,
      "lamb": 1454,
      "##asing": 1455,
      "enc": 1456,
      "report": 1457,
      "off": 1458,
      "recently": 1459,
      "##agr": 1460,
      "topological": 1461,
      "##ling": 1462,
      "particles": 1463,
      "scenari": 1464,
      "##ablish": 1465,
      "##idence": 1466,
      "pul": 1467,
      "##ible": 1468,
      "presented": 1469,
      "establish": 1470,
      "stellar": 1471,
      "exact": 1472,
      "polyn": 1473,
      "tra": 1474,
      "physics": 1475,
      "bel": 1476,
      "bu": 1477,
      "##ains": 1478,
      "hel": 1479,
      "studies": 1480,
      "rm": 1481,
      "##ants": 1482,
      "##ogene": 1483,
      "applied": 1484,
      "##ensive": 1485,
      "application": 1486,
      "surve": 1487,
      "representation": 1488,
      "gauge": 1489,
      "provides": 1490,
      "##ympt": 1491,
      "lambda": 1492,
      "##po": 1493,
      "tar": 1494,
      "wor": 1495,
      "velocity": 1496,
      "classification": 1497,
      "quark": 1498,
      "##ral": 1499,
      "hole": 1500,
      "constraints": 1501,
      "asympt": 1502,
      "scheme": 1503,
      "##ware": 1504,
      "##ily": 1505,
      "##ching": 1506,
      "##tics": 1507,
      "shap": 1508,
      "correlation": 1509,
      "approaches": 1510,
      "context": 1511,
      "polynomial": 1512,
      "explicit": 1513,
      "##til": 1514,
      "##ense": 1515,
      "decay": 1516,
      "##ustr": 1517,
      "princ": 1518,
      "thermal": 1519,
      "##of": 1520,
      "pe": 1521,
      "spatial": 1522,
      "##ices": 1523,
      "ul": 1524,
      "vector": 1525,
      "medi": 1526,
      "ampl": 1527,
      "asymptotic": 1528,
      "dependent": 1529,
      "spect": 1530,
      "ep": 1531,
      "hum": 1532,
      "att": 1533,
      "global": 1534,
      "cases": 1535,
      "##ensor": 1536,
      "bo": 1537,
      "##up": 1538,
      "##eti": 1539,
      "part": 1540,
      "error": 1541,
      "available": 1542,
      "challeng": 1543,
      "induced": 1544,
      "strateg": 1545,
      "##lying": 1546,
      "simulation": 1547,
      "phen": 1548,
      "points": 1549,
      "##yst": 1550,
      "graphs": 1551,
      "infin": 1552,
      "bre": 1553,
      "##gs": 1554,
      "##fore": 1555,
      "gu": 1556,
      "certain": 1557,
      "##ploy": 1558,
      "mathcal": 1559,
      "scalar": 1560,
      "presence": 1561,
      "##hib": 1562,
      "##eness": 1563,
      "##tal": 1564,
      "loss": 1565,
      "measure": 1566,
      "arch": 1567,
      "motion": 1568,
      "characteristic": 1569,
      "path": 1570,
      "prom": 1571,
      "sig": 1572,
      "expon": 1573,
      "regim": 1574,
      "detail": 1575,
      "sk": 1576,
      "##not": 1577,
      "om": 1578,
      "tasks": 1579,
      "converg": 1580,
      "art": 1581,
      "resolution": 1582,
      "human": 1583,
      "spaces": 1584,
      "aff": 1585,
      "derived": 1586,
      "spectra": 1587,
      "##aging": 1588,
      "hard": 1589,
      "##omen": 1590,
      "signal": 1591,
      "##ately": 1592,
      "##lo": 1593,
      "sources": 1594,
      "flux": 1595,
      "probability": 1596,
      "dynamical": 1597,
      "##ho": 1598,
      "##ochastic": 1599,
      "delta": 1600,
      "##actic": 1601,
      "##ilib": 1602,
      "##effici": 1603,
      "distance": 1604,
      "stochastic": 1605,
      "wid": 1606,
      "tool": 1607,
      "existence": 1608,
      "fix": 1609,
      "embed": 1610,
      "ide": 1611,
      "language": 1612,
      "##bility": 1613,
      "##ield": 1614,
      "continuous": 1615,
      "sigma": 1616,
      "soft": 1617,
      "bro": 1618,
      "neg": 1619,
      "201": 1620,
      "key": 1621,
      "called": 1622,
      "##ule": 1623,
      "infer": 1624,
      "##ament": 1625,
      "after": 1626,
      "patter": 1627,
      "phenomen": 1628,
      "law": 1629,
      "could": 1630,
      "generalized": 1631,
      "fraction": 1632,
      "gap": 1633,
      "independent": 1634,
      "length": 1635,
      "##idual": 1636,
      "transi": 1637,
      "ell": 1638,
      "##adr": 1639,
      "short": 1640,
      "##cept": 1641,
      "address": 1642,
      "generation": 1643,
      "transport": 1644,
      "step": 1645,
      "machine": 1646,
      "##ledge": 1647,
      "manifold": 1648,
      "##ture": 1649,
      "considered": 1650,
      "hand": 1651,
      "##sequ": 1652,
      "knowledge": 1653,
      "derive": 1654,
      "invol": 1655,
      "datasets": 1656,
      "sensi": 1657,
      "mark": 1658,
      "ratio": 1659,
      "program": 1660,
      "dual": 1661,
      "##ilibri": 1662,
      "##pret": 1663,
      "dataset": 1664,
      "3d": 1665,
      "radio": 1666,
      "transfer": 1667,
      "operator": 1668,
      "pers": 1669,
      "code": 1670,
      "##ground": 1671,
      "compact": 1672,
      "ax": 1673,
      "cost": 1674,
      "##ient": 1675,
      "gaus": 1676,
      "##pir": 1677,
      "##view": 1678,
      "normal": 1679,
      "estimation": 1680,
      "background": 1681,
      "dou": 1682,
      "dependence": 1683,
      "fut": 1684,
      "operators": 1685,
      "momentum": 1686,
      "##inos": 1687,
      "charge": 1688,
      "##dro": 1689,
      "sin": 1690,
      "fluct": 1691,
      "embedd": 1692,
      "fluctu": 1693,
      "feature": 1694,
      "enhanc": 1695,
      "##tically": 1696,
      "##sian": 1697,
      "interpret": 1698,
      "ground": 1699,
      "prop": 1700,
      "##fied": 1701,
      "bod": 1702,
      "reve": 1703,
      "coeffici": 1704,
      "identify": 1705,
      "##de": 1706,
      "distributions": 1707,
      "anti": 1708,
      "##ually": 1709,
      "appear": 1710,
      "along": 1711,
      "##ench": 1712,
      "few": 1713,
      "future": 1714,
      "differential": 1715,
      "exhib": 1716,
      "##aneous": 1717,
      "200": 1718,
      "##king": 1719,
      "squ": 1720,
      "et": 1721,
      "uncertain": 1722,
      "ion": 1723,
      "defined": 1724,
      "significantly": 1725,
      "loop": 1726,
      "##aves": 1727,
      "har": 1728,
      "cell": 1729,
      "ma": 1730,
      "hol": 1731,
      "objects": 1732,
      "ques": 1733,
      "##line": 1734,
      "technique": 1735,
      "relativ": 1736,
      "##raph": 1737,
      "lum": 1738,
      "natural": 1739,
      "##oud": 1740,
      "intr": 1741,
      "valid": 1742,
      "generated": 1743,
      "gravitational": 1744,
      "common": 1745,
      "##ibr": 1746,
      "##ega": 1747,
      "world": 1748,
      "##eler": 1749,
      "series": 1750,
      "describe": 1751,
      "##romagnetic": 1752,
      "##ared": 1753,
      "nod": 1754,
      "does": 1755,
      "##ining": 1756,
      "gravity": 1757,
      "chang": 1758,
      "relation": 1759,
      "##uted": 1760,
      "layer": 1761,
      "arbit": 1762,
      "prof": 1763,
      "better": 1764,
      "respon": 1765,
      "arbitr": 1766,
      "au": 1767,
      "##angle": 1768,
      "##bers": 1769,
      "equival": 1770,
      "invariant": 1771,
      "toward": 1772,
      "##igur": 1773,
      "moreover": 1774,
      "view": 1775,
      "production": 1776,
      "positive": 1777,
      "developed": 1778,
      "##lic": 1779,
      "role": 1780,
      "shows": 1781,
      "examples": 1782,
      "##ced": 1783,
      "fund": 1784,
      "less": 1785,
      "##red": 1786,
      "##iss": 1787,
      "sets": 1788,
      "util": 1789,
      "##ests": 1790,
      "omega": 1791,
      "descri": 1792,
      "##ead": 1793,
      "pm": 1794,
      "##ins": 1795,
      "require": 1796,
      "coupled": 1797,
      "##therm": 1798,
      "setting": 1799,
      "binary": 1800,
      "ill": 1801,
      "##ilibrium": 1802,
      "total": 1803,
      "seg": 1804,
      "modes": 1805,
      "beam": 1806,
      "stability": 1807,
      "##till": 1808,
      "##cd": 1809,
      "input": 1810,
      "quality": 1811,
      "full": 1812,
      "##eve": 1813,
      "##ooth": 1814,
      "ultr": 1815,
      "##ably": 1816,
      "among": 1817,
      "measurement": 1818,
      "respec": 1819,
      "dynamic": 1820,
      "caus": 1821,
      "driven": 1822,
      "occur": 1823,
      "complexity": 1824,
      "##ute": 1825,
      "explain": 1826,
      "regions": 1827,
      "##izes": 1828,
      "##ogeneous": 1829,
      "##ause": 1830,
      "efficiency": 1831,
      "##war": 1832,
      "cloud": 1833,
      "prediction": 1834,
      "break": 1835,
      "##tonian": 1836,
      "photon": 1837,
      "cm": 1838,
      "solar": 1839,
      "fixed": 1840,
      "component": 1841,
      "gradi": 1842,
      "princi": 1843,
      "target": 1844,
      "12": 1845,
      "##ety": 1846,
      "clusters": 1847,
      "action": 1848,
      "cryst": 1849,
      "##itect": 1850,
      "aim": 1851,
      "symmetric": 1852,
      "proof": 1853,
      "hydro": 1854,
      "synth": 1855,
      "univers": 1856,
      "fundament": 1857,
      "techn": 1858,
      "suggest": 1859,
      "architect": 1860,
      "detect": 1861,
      "mode": 1862,
      "satis": 1863,
      "arg": 1864,
      "##equ": 1865,
      "environment": 1866,
      "around": 1867,
      "##thermore": 1868,
      "furthermore": 1869,
      "##ference": 1870,
      "object": 1871,
      "od": 1872,
      "##itting": 1873,
      "atten": 1874,
      "central": 1875,
      "massive": 1876,
      "sequence": 1877,
      "cyc": 1878,
      "computational": 1879,
      "discussed": 1880,
      "##ither": 1881,
      "calculations": 1882,
      "##osph": 1883,
      "##iral": 1884,
      "gaussian": 1885,
      "##taneous": 1886,
      "##tit": 1887,
      "molecular": 1888,
      "ens": 1889,
      "cre": 1890,
      "##ove": 1891,
      "estimate": 1892,
      "complete": 1893,
      "wide": 1894,
      "acceler": 1895,
      "suc": 1896,
      "diffusion": 1897,
      "statistical": 1898,
      "plane": 1899,
      "##ars": 1900,
      "sit": 1901,
      "domin": 1902,
      "heav": 1903,
      "mes": 1904,
      "smooth": 1905,
      "body": 1906,
      "unit": 1907,
      "learn": 1908,
      "bos": 1909,
      "##esis": 1910,
      "configur": 1911,
      "##val": 1912,
      "##af": 1913,
      "propag": 1914,
      "yield": 1915,
      "example": 1916,
      "edge": 1917,
      "geometry": 1918,
      "measured": 1919,
      "theories": 1920,
      "arr": 1921,
      "computation": 1922,
      "understanding": 1923,
      "being": 1924,
      "lin": 1925,
      "average": 1926,
      "expan": 1927,
      "metric": 1928,
      "coher": 1929,
      "##ick": 1930,
      "survey": 1931,
      "bounds": 1932,
      "disk": 1933,
      "##ok": 1934,
      "##rm": 1935,
      "##omal": 1936,
      "support": 1937,
      "reconstr": 1938,
      "##oint": 1939,
      "tri": 1940,
      "weight": 1941,
      "stable": 1942,
      "eig": 1943,
      "extended": 1944,
      "transm": 1945,
      "entropy": 1946,
      "hamil": 1947,
      "functional": 1948,
      "##tices": 1949,
      "plas": 1950,
      "extension": 1951,
      "determine": 1952,
      "expansion": 1953,
      "ever": 1954,
      "##gen": 1955,
      "ran": 1956,
      "indiv": 1957,
      "good": 1958,
      "controll": 1959,
      "sw": 1960,
      "anomal": 1961,
      "comparis": 1962,
      "tor": 1963,
      "neutrino": 1964,
      "discover": 1965,
      "##que": 1966,
      "insi": 1967,
      "conject": 1968,
      "discrete": 1969,
      "fundamental": 1970,
      "convergence": 1971,
      "degree": 1972,
      "relev": 1973,
      "spectroscop": 1974,
      "expected": 1975,
      "prac": 1976,
      "regime": 1977,
      "##ots": 1978,
      "special": 1979,
      "representations": 1980,
      "increasing": 1981,
      "across": 1982,
      "resulting": 1983,
      "dimensions": 1984,
      "maximum": 1985,
      "components": 1986,
      "let": 1987,
      "label": 1988,
      "much": 1989,
      "##stein": 1990,
      "##tor": 1991,
      "##ped": 1992,
      "redsh": 1993,
      "##isions": 1994,
      "ro": 1995,
      "chem": 1996,
      "strongly": 1997,
      "agre": 1998,
      "leads": 1999,
      "modeling": 2000,
      "##omorph": 2001,
      "often": 2002,
      "##eam": 2003,
      "right": 2004,
      "best": 2005,
      "equilibrium": 2006,
      "##ecess": 2007,
      "dow": 2008,
      "respect": 2009,
      "bran": 2010,
      "year": 2011,
      "##mark": 2012,
      "impact": 2013,
      "types": 2014,
      "broad": 2015,
      "absor": 2016,
      "maj": 2017,
      "fast": 2018,
      "masses": 2019,
      "eigen": 2020,
      "whose": 2021,
      "larger": 2022,
      "##fic": 2023,
      "supers": 2024,
      "arbitrary": 2025,
      "explo": 2026,
      "beta": 2027,
      "##ymmetric": 2028,
      "bul": 2029,
      "##vised": 2030,
      "##ify": 2031,
      "sn": 2032,
      "evidence": 2033,
      "pub": 2034,
      "major": 2035,
      "review": 2036,
      "##lation": 2037,
      "extrem": 2038,
      "strength": 2039,
      "since": 2040,
      "formal": 2041,
      "quasi": 2042,
      "suffici": 2043,
      "leading": 2044,
      "##ecting": 2045,
      "tel": 2046,
      "core": 2047,
      "pur": 2048,
      "user": 2049,
      "respectively": 2050,
      "individual": 2051,
      "puls": 2052,
      "##poral": 2053,
      "##ia": 2054,
      "infr": 2055,
      "visual": 2056,
      "relative": 2057,
      "##aries": 2058,
      "##vex": 2059,
      "scaling": 2060,
      "##oring": 2061,
      "sci": 2062,
      "predictions": 2063,
      "employ": 2064,
      "tensor": 2065,
      "necess": 2066,
      "introduced": 2067,
      "press": 2068,
      "wa": 2069,
      "ren": 2070,
      "##omm": 2071,
      "highly": 2072,
      "achieve": 2073,
      "hamiltonian": 2074,
      "altern": 2075,
      "attention": 2076,
      "possi": 2077,
      "eng": 2078,
      "##isot": 2079,
      "iss": 2080,
      "##ges": 2081,
      "additional": 2082,
      "rates": 2083,
      "either": 2084,
      "##ticle": 2085,
      "11": 2086,
      "variables": 2087,
      "speed": 2088,
      "nature": 2089,
      "above": 2090,
      "##zation": 2091,
      "##iting": 2092,
      "upper": 2093,
      "lik": 2094,
      "parti": 2095,
      "parall": 2096,
      "uniform": 2097,
      "15": 2098,
      "wind": 2099,
      "population": 2100,
      "radiation": 2101,
      "##ification": 2102,
      "account": 2103,
      "version": 2104,
      "algebras": 2105,
      "neutron": 2106,
      "anisot": 2107,
      "therefore": 2108,
      "##less": 2109,
      "bench": 2110,
      "estimates": 2111,
      "cosmological": 2112,
      "fac": 2113,
      "every": 2114,
      "rad": 2115,
      "analyze": 2116,
      "implement": 2117,
      "emerg": 2118,
      "formula": 2119,
      "nuclear": 2120,
      "##entially": 2121,
      "##ged": 2122,
      "##sil": 2123,
      "##read": 2124,
      "partial": 2125,
      "vac": 2126,
      "compare": 2127,
      "heavy": 2128,
      "interf": 2129,
      "fluctuations": 2130,
      "influ": 2131,
      "samples": 2132,
      "nam": 2133,
      "hig": 2134,
      "waves": 2135,
      "##rees": 2136,
      "##pling": 2137,
      "benchmark": 2138,
      "description": 2139,
      "##ium": 2140,
      "computing": 2141,
      "limited": 2142,
      "growth": 2143,
      "run": 2144,
      "change": 2145,
      "post": 2146,
      "##hip": 2147,
      "gradient": 2148,
      "##tinc": 2149,
      "##ropic": 2150,
      "cho": 2151,
      "reveal": 2152,
      "accurate": 2153,
      "##ured": 2154,
      "compute": 2155,
      "100": 2156,
      "illustr": 2157,
      "active": 2158,
      "classes": 2159,
      "nu": 2160,
      "higgs": 2161,
      "elements": 2162,
      "build": 2163,
      "volum": 2164,
      "element": 2165,
      "decom": 2166,
      "response": 2167,
      "fully": 2168,
      "##ased": 2169,
      "analog": 2170,
      "recog": 2171,
      "behavi": 2172,
      "##icity": 2173,
      "communication": 2174,
      "string": 2175,
      "fluid": 2176,
      "correlations": 2177,
      "far": 2178,
      "described": 2179,
      "polarization": 2180,
      "towards": 2181,
      "processing": 2182,
      "temporal": 2183,
      "las": 2184,
      "seman": 2185,
      "success": 2186,
      "apply": 2187,
      "relativistic": 2188,
      "agreement": 2189,
      "close": 2190,
      "consequ": 2191,
      "##silon": 2192,
      "peak": 2193,
      "comparison": 2194,
      "minimal": 2195,
      "prior": 2196,
      "investigated": 2197,
      "##abilities": 2198,
      "fam": 2199,
      "property": 2200,
      "event": 2201,
      "la": 2202,
      "quadr": 2203,
      "shape": 2204,
      "##olation": 2205,
      "product": 2206,
      "index": 2207,
      "##bol": 2208,
      "make": 2209,
      "##vari": 2210,
      "interest": 2211,
      "scales": 2212,
      "galactic": 2213,
      "parallel": 2214,
      "expression": 2215,
      "determined": 2216,
      "increase": 2217,
      "intern": 2218,
      "##ially": 2219,
      "##pc": 2220,
      "confir": 2221,
      "closed": 2222,
      "2d": 2223,
      "##ives": 2224,
      "##agram": 2225,
      "construction": 2226,
      "convex": 2227,
      "suit": 2228,
      "attack": 2229,
      "##for": 2230,
      "liter": 2231,
      "because": 2232,
      "##arch": 2233,
      "sat": 2234,
      "able": 2235,
      "lines": 2236,
      "maps": 2237,
      "proced": 2238,
      "##time": 2239,
      "resour": 2240,
      "ast": 2241,
      "decre": 2242,
      "electronic": 2243,
      "infinite": 2244,
      "systematic": 2245,
      "diagram": 2246,
      "still": 2247,
      "direction": 2248,
      "##urst": 2249,
      "distributed": 2250,
      "##ograph": 2251,
      "lif": 2252,
      "cosmic": 2253,
      "refl": 2254,
      "resol": 2255,
      "should": 2256,
      "##ored": 2257,
      "modul": 2258,
      "##anglement": 2259,
      "trained": 2260,
      "great": 2261,
      "magnet": 2262,
      "cle": 2263,
      "memory": 2264,
      "##hom": 2265,
      "##ether": 2266,
      "geometric": 2267,
      "##onom": 2268,
      "double": 2269,
      "least": 2270,
      "encod": 2271,
      "##li": 2272,
      "materials": 2273,
      "vide": 2274,
      "dust": 2275,
      "evaluation": 2276,
      "qcd": 2277,
      "bounded": 2278,
      "spl": 2279,
      "micro": 2280,
      "##man": 2281,
      "imaging": 2282,
      "events": 2283,
      "performed": 2284,
      "##hold": 2285,
      "relevant": 2286,
      "frac": 2287,
      "reas": 2288,
      "pressure": 2289,
      "##iving": 2290,
      "literature": 2291,
      "##icul": 2292,
      "again": 2293,
      "development": 2294,
      "variable": 2295,
      "spher": 2296,
      "ord": 2297,
      "changes": 2298,
      "question": 2299,
      "play": 2300,
      "devices": 2301,
      "##arrow": 2302,
      "pse": 2303,
      "##ener": 2304,
      "previously": 2305,
      "means": 2306,
      "pseud": 2307,
      "##ides": 2308,
      "mathrm": 2309,
      "##inal": 2310,
      "entanglement": 2311,
      "##quid": 2312,
      "vir": 2313,
      "##ee": 2314,
      "accre": 2315,
      "##encies": 2316,
      "soc": 2317,
      "13": 2318,
      "universe": 2319,
      "##omes": 2320,
      "liquid": 2321,
      "negative": 2322,
      "cand": 2323,
      "poly": 2324,
      "magnitude": 2325,
      "angular": 2326,
      "iter": 2327,
      "made": 2328,
      "numbers": 2329,
      "##ensing": 2330,
      "##ather": 2331,
      "family": 2332,
      "conven": 2333,
      "##produc": 2334,
      "##inosity": 2335,
      "luminosity": 2336,
      "ess": 2337,
      "disper": 2338,
      "##cs": 2339,
      "counter": 2340,
      "fer": 2341,
      "##forms": 2342,
      "curv": 2343,
      "##ective": 2344,
      "consis": 2345,
      "semi": 2346,
      "singular": 2347,
      "reduction": 2348,
      "explore": 2349,
      "##gan": 2350,
      "##electr": 2351,
      "##tric": 2352,
      "energies": 2353,
      "collisions": 2354,
      "##arse": 2355,
      "selection": 2356,
      "down": 2357,
      "empir": 2358,
      "basis": 2359,
      "contribution": 2360,
      "chiral": 2361,
      "specif": 2362,
      "cd": 2363,
      "periodic": 2364,
      "would": 2365,
      "##nn": 2366,
      "conjecture": 2367,
      "##back": 2368,
      "cond": 2369,
      "planet": 2370,
      "##ater": 2371,
      "integral": 2372,
      "outper": 2373,
      "##position": 2374,
      "##odynam": 2375,
      "concept": 2376,
      "##truct": 2377,
      "users": 2378,
      "inequ": 2379,
      "reduced": 2380,
      "lie": 2381,
      "##ematic": 2382,
      "hor": 2383,
      "coefficients": 2384,
      "infrared": 2385,
      "##ming": 2386,
      "factors": 2387,
      "rank": 2388,
      "candid": 2389,
      "contrast": 2390,
      "tur": 2391,
      "curves": 2392,
      "ans": 2393,
      "connected": 2394,
      "polic": 2395,
      "inference": 2396,
      "provided": 2397,
      "##ometric": 2398,
      "##air": 2399,
      "predict": 2400,
      "relax": 2401,
      "##rices": 2402,
      "heter": 2403,
      "years": 2404,
      "tau": 2405,
      "feed": 2406,
      "##ument": 2407,
      "gev": 2408,
      "filter": 2409,
      "strategy": 2410,
      "reach": 2411,
      "simultaneous": 2412,
      "##ects": 2413,
      "surfaces": 2414,
      "##ptions": 2415,
      "##nov": 2416,
      "track": 2417,
      "##escop": 2418,
      "obser": 2419,
      "center": 2420,
      "extern": 2421,
      "redshift": 2422,
      "##reshold": 2423,
      "improved": 2424,
      "underlying": 2425,
      "hier": 2426,
      "telescop": 2427,
      "transitions": 2428,
      "specifically": 2429,
      "turb": 2430,
      "eas": 2431,
      "##etric": 2432,
      "difference": 2433,
      "directly": 2434,
      "required": 2435,
      "##urity": 2436,
      "phases": 2437,
      "matrices": 2438,
      "scenarios": 2439,
      "hierarch": 2440,
      "##ef": 2441,
      "enti": 2442,
      "rotation": 2443,
      "##reg": 2444,
      "##though": 2445,
      "metal": 2446,
      "threshold": 2447,
      "bey": 2448,
      "although": 2449,
      "beyond": 2450,
      "extract": 2451,
      "van": 2452,
      "motiv": 2453,
      "pairs": 2454,
      "##by": 2455,
      "##ler": 2456,
      "holes": 2457,
      "##brid": 2458,
      "ellip": 2459,
      "qubit": 2460,
      "uncertainty": 2461,
      "fermi": 2462,
      "shar": 2463,
      "medium": 2464,
      "sym": 2465,
      "universal": 2466,
      "incor": 2467,
      "##monic": 2468,
      "difficul": 2469,
      "evaluate": 2470,
      "wavel": 2471,
      "electric": 2472,
      "##atory": 2473,
      "generate": 2474,
      "##most": 2475,
      "##dynam": 2476,
      "bulk": 2477,
      "##ivial": 2478,
      "##ss": 2479,
      "mill": 2480,
      "exch": 2481,
      "##warf": 2482,
      "metall": 2483,
      "variety": 2484,
      "limits": 2485,
      "generalization": 2486,
      "area": 2487,
      "ris": 2488,
      "condens": 2489,
      "flat": 2490,
      "volume": 2491,
      "chemical": 2492,
      "force": 2493,
      "recover": 2494,
      "abund": 2495,
      "hybrid": 2496,
      "external": 2497,
      "##atively": 2498,
      "early": 2499,
      "restric": 2500,
      "analytical": 2501,
      "##lusion": 2502,
      "curvature": 2503,
      "##xt": 2504,
      "amplitude": 2505,
      "serv": 2506,
      "reason": 2507,
      "##order": 2508,
      "relationship": 2509,
      "orient": 2510,
      "detected": 2511,
      "##ering": 2512,
      "dop": 2513,
      "architecture": 2514,
      "##nition": 2515,
      "fit": 2516,
      "resonance": 2517,
      "phi": 2518,
      "observation": 2519,
      "position": 2520,
      "solve": 2521,
      "scenario": 2522,
      "computer": 2523,
      "patterns": 2524,
      "against": 2525,
      "cat": 2526,
      "##apid": 2527,
      "conform": 2528,
      "bay": 2529,
      "calculate": 2530,
      "atomic": 2531,
      "useful": 2532,
      "calculated": 2533,
      "dwarf": 2534,
      "block": 2535,
      "##pu": 2536,
      "##avity": 2537,
      "interm": 2538,
      "requires": 2539,
      "align": 2540,
      "assess": 2541,
      "protoc": 2542,
      "electro": 2543,
      "treat": 2544,
      "joint": 2545,
      "reproduc": 2546,
      "achieved": 2547,
      "##icon": 2548,
      "##cep": 2549,
      "measures": 2550,
      "advers": 2551,
      "vary": 2552,
      "radius": 2553,
      "exhibit": 2554,
      "orbital": 2555,
      "##10": 2556,
      "kern": 2557,
      "##instein": 2558,
      "accretion": 2559,
      "turbul": 2560,
      "##entr": 2561,
      "convolution": 2562,
      "absorption": 2563,
      "detector": 2564,
      "almost": 2565,
      "##eless": 2566,
      "priv": 2567,
      "social": 2568,
      "chain": 2569,
      "##ash": 2570,
      "coord": 2571,
      "segmentation": 2572,
      "kernel": 2573,
      "defin": 2574,
      "laser": 2575,
      "whether": 2576,
      "sampling": 2577,
      "distinc": 2578,
      "vacu": 2579,
      "##plac": 2580,
      "bayes": 2581,
      "heat": 2582,
      "making": 2583,
      "following": 2584,
      "equivalent": 2585,
      "include": 2586,
      "article": 2587,
      "algebraic": 2588,
      "extensive": 2589,
      "confirm": 2590,
      "infty": 2591,
      "challenges": 2592,
      "mar": 2593,
      "depth": 2594,
      "protocol": 2595,
      "##inger": 2596,
      "##den": 2597,
      "next": 2598,
      "challenging": 2599,
      "unique": 2600,
      "projec": 2601,
      "einstein": 2602,
      "cannot": 2603,
      "##ighb": 2604,
      "land": 2605,
      "thermodynam": 2606,
      "neighb": 2607,
      "rapid": 2608,
      "reli": 2609,
      "##let": 2610,
      "angle": 2611,
      "jet": 2612,
      "plasma": 2613,
      "thin": 2614,
      "interacting": 2615,
      "monte": 2616,
      "rich": 2617,
      "structural": 2618,
      "carri": 2619,
      "below": 2620,
      "signals": 2621,
      "principle": 2622,
      "precision": 2623,
      "carlo": 2624,
      "##izations": 2625,
      "tree": 2626,
      "mixing": 2627,
      "inverse": 2628,
      "minimum": 2629,
      "had": 2630,
      "adj": 2631,
      "cover": 2632,
      "determin": 2633,
      "16": 2634,
      "advant": 2635,
      "##ae": 2636,
      "recognition": 2637,
      "##fr": 2638,
      "implementation": 2639,
      "horiz": 2640,
      "interesting": 2641,
      "14": 2642,
      "rev": 2643,
      "##aving": 2644,
      "##urr": 2645,
      "characteristics": 2646,
      "word": 2647,
      "procedure": 2648,
      "domains": 2649,
      "##eck": 2650,
      "detailed": 2651,
      "simpl": 2652,
      "incorpor": 2653,
      "##ained": 2654,
      "what": 2655,
      "necessary": 2656,
      "superconducting": 2657,
      "ring": 2658,
      "traject": 2659,
      "##bs": 2660,
      "adaptive": 2661,
      "influence": 2662,
      "##pa": 2663,
      "##lex": 2664,
      "coherent": 2665,
      "software": 2666,
      "transmission": 2667,
      "codes": 2668,
      "graphene": 2669,
      "corrections": 2670,
      "##isation": 2671,
      "bright": 2672,
      "analytic": 2673,
      "##itt": 2674,
      "##son": 2675,
      "##pose": 2676,
      "automatic": 2677,
      "slow": 2678,
      "##jection": 2679,
      "##rt": 2680,
      "##omb": 2681,
      "practical": 2682,
      "hist": 2683,
      "##ition": 2684,
      "emph": 2685,
      "exchange": 2686,
      "atoms": 2687,
      "sq": 2688,
      "capac": 2689,
      "designed": 2690,
      "##ii": 2691,
      "gives": 2692,
      "original": 2693,
      "norm": 2694,
      "conventional": 2695,
      "manifolds": 2696,
      "temperatures": 2697,
      "perm": 2698,
      "##atch": 2699,
      "##gn": 2700,
      "station": 2701,
      "statistics": 2702,
      "concentr": 2703,
      "atm": 2704,
      "##berg": 2705,
      "smaller": 2706,
      "electrons": 2707,
      "criter": 2708,
      "cam": 2709,
      "bias": 2710,
      "reduce": 2711,
      "##ores": 2712,
      "ensem": 2713,
      "##reen": 2714,
      "attr": 2715,
      "##bly": 2716,
      "disorder": 2717,
      "predicted": 2718,
      "tradi": 2719,
      "output": 2720,
      "##tiveness": 2721,
      "trap": 2722,
      "combined": 2723,
      "pack": 2724,
      "act": 2725,
      "reconstruction": 2726,
      "degener": 2727,
      "combination": 2728,
      "microscop": 2729,
      "sensitivity": 2730,
      "##ediate": 2731,
      "##osition": 2732,
      "hyp": 2733,
      "fail": 2734,
      "quantit": 2735,
      "##ologies": 2736,
      "breaking": 2737,
      "atmosph": 2738,
      "magneti": 2739,
      "enhanced": 2740,
      "renormal": 2741,
      "##hood": 2742,
      "behaviour": 2743,
      "forms": 2744,
      "##hic": 2745,
      "access": 2746,
      "semantic": 2747,
      "engine": 2748,
      "levels": 2749,
      "video": 2750,
      "##he": 2751,
      "online": 2752,
      "nodes": 2753,
      "schemes": 2754,
      "suitable": 2755,
      "feedback": 2756,
      "produced": 2757,
      "##yl": 2758,
      "##sk": 2759,
      "phon": 2760,
      "##ope": 2761,
      "spectroscopy": 2762,
      "public": 2763,
      "##ymmetry": 2764,
      "sus": 2765,
      "bary": 2766,
      "clustering": 2767,
      "depends": 2768,
      "supervised": 2769,
      "curve": 2770,
      "##oper": 2771,
      "kin": 2772,
      "##ategor": 2773,
      "fermion": 2774,
      "summ": 2775,
      "become": 2776,
      "accord": 2777,
      "demonstrated": 2778,
      "uses": 2779,
      "must": 2780,
      "sufficient": 2781,
      "proton": 2782,
      "##enge": 2783,
      "##eline": 2784,
      "##omp": 2785,
      "vacuum": 2786,
      "rig": 2787,
      "propagation": 2788,
      "link": 2789,
      "channels": 2790,
      "perturbation": 2791,
      "compos": 2792,
      "##20": 2793,
      "dispersion": 2794,
      "empirical": 2795,
      "auth": 2796,
      "##olds": 2797,
      "vert": 2798,
      "solving": 2799,
      "espec": 2800,
      "rather": 2801,
      "preserv": 2802,
      "##sip": 2803,
      "bayesian": 2804,
      "approximate": 2805,
      "fine": 2806,
      "challenge": 2807,
      "especially": 2808,
      "dip": 2809,
      "increases": 2810,
      "left": 2811,
      "adm": 2812,
      "cool": 2813,
      "dirac": 2814,
      "answ": 2815,
      "identified": 2816,
      "##oration": 2817,
      "evol": 2818,
      "width": 2819,
      "organ": 2820,
      "wavelength": 2821,
      "theta": 2822,
      "##ensities": 2823,
      "color": 2824,
      "merg": 2825,
      "insigh": 2826,
      "yet": 2827,
      "static": 2828,
      "combin": 2829,
      "lh": 2830,
      "intrins": 2831,
      "toget": 2832,
      "together": 2833,
      "mechanisms": 2834,
      "insul": 2835,
      "decision": 2836,
      "exponential": 2837,
      "##arily": 2838,
      "formalism": 2839,
      "##ises": 2840,
      "charged": 2841,
      "complet": 2842,
      "##other": 2843,
      "final": 2844,
      "kine": 2845,
      "30": 2846,
      "situ": 2847,
      "produce": 2848,
      "conserv": 2849,
      "define": 2850,
      "##ights": 2851,
      "constructed": 2852,
      "effectiveness": 2853,
      "radial": 2854,
      "adversari": 2855,
      "help": 2856,
      "coordin": 2857,
      "##ott": 2858,
      "latter": 2859,
      "bal": 2860,
      "valu": 2861,
      "decays": 2862,
      "##pects": 2863,
      "##ital": 2864,
      "modified": 2865,
      "lept": 2866,
      "metr": 2867,
      "square": 2868,
      "section": 2869,
      "orth": 2870,
      "formulation": 2871,
      "quer": 2872,
      "clear": 2873,
      "leq": 2874,
      "##enting": 2875,
      "ri": 2876,
      "covari": 2877,
      "mixed": 2878,
      "dense": 2879,
      "dissip": 2880,
      "halo": 2881,
      "layers": 2882,
      "contributions": 2883,
      "categor": 2884,
      "telescope": 2885,
      "continuum": 2886,
      "sparse": 2887,
      "activity": 2888,
      "##art": 2889,
      "works": 2890,
      "##ra": 2891,
      "correct": 2892,
      "considering": 2893,
      "cruc": 2894,
      "##ibility": 2895,
      "hypoth": 2896,
      "flav": 2897,
      "##active": 2898,
      "content": 2899,
      "25": 2900,
      "horizon": 2901,
      "isot": 2902,
      "##electric": 2903,
      "##ectors": 2904,
      "boson": 2905,
      "sensitive": 2906,
      "finding": 2907,
      "dig": 2908,
      "##flow": 2909,
      "arti": 2910,
      "##pri": 2911,
      "##eric": 2912,
      "##ema": 2913,
      "errors": 2914,
      "adversarial": 2915,
      "sky": 2916,
      "distinct": 2917,
      "calculation": 2918,
      "plat": 2919,
      "decomposition": 2920,
      "life": 2921,
      "mac": 2922,
      "connection": 2923,
      "half": 2924,
      "tools": 2925,
      "fractional": 2926,
      "flows": 2927,
      "interface": 2928,
      "pattern": 2929,
      "polynomials": 2930,
      "tev": 2931,
      "ret": 2932,
      "##bert": 2933,
      "regression": 2934,
      "instr": 2935,
      "ga": 2936,
      "morph": 2937,
      "##ids": 2938,
      "observe": 2939,
      "adop": 2940,
      "presents": 2941,
      "implic": 2942,
      "rho": 2943,
      "regard": 2944,
      "bin": 2945,
      "matching": 2946,
      "##alog": 2947,
      "intermediate": 2948,
      "correlated": 2949,
      "findings": 2950,
      "electromagnetic": 2951,
      "##bolic": 2952,
      "another": 2953,
      "agn": 2954,
      "transverse": 2955,
      "div": 2956,
      "metrics": 2957,
      "guar": 2958,
      "alternative": 2959,
      "synch": 2960,
      "strategies": 2961,
      "##ood": 2962,
      "##itz": 2963,
      "guarant": 2964,
      "supernov": 2965,
      "18": 2966,
      "enables": 2967,
      "##elian": 2968,
      "lhc": 2969,
      "circu": 2970,
      "##tt": 2971,
      "construc": 2972,
      "namely": 2973,
      "elastic": 2974,
      "appropri": 2975,
      "vertex": 2976,
      "##cl": 2977,
      "subst": 2978,
      "##tors": 2979,
      "shell": 2980,
      "ones": 2981,
      "traditional": 2982,
      "impl": 2983,
      "homogeneous": 2984,
      "ability": 2985,
      "satisfy": 2986,
      "variation": 2987,
      "according": 2988,
      "wall": 2989,
      "importance": 2990,
      "##eli": 2991,
      "##gc": 2992,
      "objective": 2993,
      "quadratic": 2994,
      "ve": 2995,
      "weighted": 2996,
      "promising": 2997,
      "rece": 2998,
      "epsilon": 2999,
      "localization": 3000,
      "##sm": 3001,
      "wal": 3002,
      "cp": 3003,
      "tex": 3004,
      "##imin": 3005,
      "sqrt": 3006,
      "##ogen": 3007,
      "##ided": 3008,
      "##itudes": 3009,
      "degrees": 3010,
      "indicate": 3011,
      "integrated": 3012,
      "##io": 3013,
      "successful": 3014,
      "makes": 3015,
      "##ading": 3016,
      "host": 3017,
      "##zed": 3018,
      "##to": 3019,
      "remains": 3020,
      "typical": 3021,
      "devi": 3022,
      "stream": 3023,
      "generating": 3024,
      "testing": 3025,
      "eigenval": 3026,
      "configuration": 3027,
      "sequences": 3028,
      "##ematical": 3029,
      "constraint": 3030,
      "##hz": 3031,
      "realistic": 3032,
      "relaxation": 3033,
      "hall": 3034,
      "water": 3035,
      "##ug": 3036,
      "explicitly": 3037,
      "ly": 3038,
      "mapping": 3039,
      "uns": 3040,
      "instead": 3041,
      "##bi": 3042,
      "established": 3043,
      "upd": 3044,
      "avoid": 3045,
      "bene": 3046,
      "environments": 3047,
      "constrained": 3048,
      "cu": 3049,
      "varying": 3050,
      "providing": 3051,
      "discre": 3052,
      "##play": 3053,
      "stage": 3054,
      "generic": 3055,
      "contains": 3056,
      "50": 3057,
      "shift": 3058,
      "oscillations": 3059,
      "goal": 3060,
      "##roph": 3061,
      "possibility": 3062,
      "attrib": 3063,
      "becomes": 3064,
      "basic": 3065,
      "crucial": 3066,
      "agent": 3067,
      "retr": 3068,
      "perturbations": 3069,
      "##onical": 3070,
      "##anced": 3071,
      "##ifts": 3072,
      "rein": 3073,
      "robustness": 3074,
      "##arities": 3075,
      "intrinsic": 3076,
      "##ven": 3077,
      "conformal": 3078,
      "lagr": 3079,
      "subset": 3080,
      "probe": 3081,
      "axis": 3082,
      "##emann": 3083,
      "##bo": 3084,
      "transformation": 3085,
      "neutral": 3086,
      "##edom": 3087,
      "pass": 3088,
      "instability": 3089,
      "reported": 3090,
      "ads": 3091,
      "achieves": 3092,
      "##ories": 3093,
      "glu": 3094,
      "crystal": 3095,
      "ox": 3096,
      "harmonic": 3097,
      "exists": 3098,
      "variations": 3099,
      "showing": 3100,
      "tail": 3101,
      "thir": 3102,
      "geq": 3103,
      "policy": 3104,
      "contact": 3105,
      "##ah": 3106,
      "likely": 3107,
      "risk": 3108,
      "##ayer": 3109,
      "##nel": 3110,
      "lack": 3111,
      "wr": 3112,
      "calibr": 3113,
      "aug": 3114,
      "trivial": 3115,
      "phenomena": 3116,
      "##ne": 3117,
      "flex": 3118,
      "##reh": 3119,
      "nuclei": 3120,
      "assumptions": 3121,
      "med": 3122,
      "hot": 3123,
      "equal": 3124,
      "topology": 3125,
      "notion": 3126,
      "match": 3127,
      "experimentally": 3128,
      "having": 3129,
      "differences": 3130,
      "agents": 3131,
      "##agonal": 3132,
      "frame": 3133,
      "estimated": 3134,
      "den": 3135,
      "##know": 3136,
      "##iles": 3137,
      "diver": 3138,
      "initi": 3139,
      "characterized": 3140,
      "capture": 3141,
      "nm": 3142,
      "ideal": 3143,
      "hub": 3144,
      "##na": 3145,
      "fib": 3146,
      "##ategory": 3147,
      "compreh": 3148,
      "multiplic": 3149,
      "upon": 3150,
      "competi": 3151,
      "##fect": 3152,
      "hence": 3153,
      "vehic": 3154,
      "##mann": 3155,
      "earth": 3156,
      "##isted": 3157,
      "overall": 3158,
      "abelian": 3159,
      "array": 3160,
      "adapt": 3161,
      "characterization": 3162,
      "##ways": 3163,
      "outperforms": 3164,
      "##iev": 3165,
      "analyzed": 3166,
      "synthetic": 3167,
      "stationary": 3168,
      "rational": 3169,
      "characterize": 3170,
      "taking": 3171,
      "##ocks": 3172,
      "visc": 3173,
      "widely": 3174,
      "##ometry": 3175,
      "involving": 3176,
      "riemann": 3177,
      "seen": 3178,
      "internal": 3179,
      "forward": 3180,
      "device": 3181,
      "variational": 3182,
      "essential": 3183,
      "excitation": 3184,
      "##here": 3185,
      "inner": 3186,
      "profile": 3187,
      "decod": 3188,
      "suggests": 3189,
      "interpretation": 3190,
      "five": 3191,
      "17": 3192,
      "##tingu": 3193,
      "speech": 3194,
      "exce": 3195,
      "inflation": 3196,
      "mechanical": 3197,
      "illustrate": 3198,
      "perspec": 3199,
      "##tinguish": 3200,
      "implications": 3201,
      "convolutional": 3202,
      "collap": 3203,
      "take": 3204,
      "sil": 3205,
      "security": 3206,
      "dam": 3207,
      "interference": 3208,
      "identification": 3209,
      "amount": 3210,
      "module": 3211,
      "##wise": 3212,
      "embedding": 3213,
      "##bon": 3214,
      "expect": 3215,
      "##omorphic": 3216,
      "depending": 3217,
      "larg": 3218,
      "particularly": 3219,
      "simultaneously": 3220,
      "wir": 3221,
      "densities": 3222,
      "yields": 3223,
      "sd": 3224,
      "ll": 3225,
      "desp": 3226,
      "assumption": 3227,
      "big": 3228,
      "eta": 3229,
      "taken": 3230,
      "intensity": 3231,
      "deform": 3232,
      "despite": 3233,
      "##tz": 3234,
      "popular": 3235,
      "thick": 3236,
      "collision": 3237,
      "pic": 3238,
      "reaction": 3239,
      "cas": 3240,
      "##times": 3241,
      "pure": 3242,
      "delay": 3243,
      "configurations": 3244,
      "capacity": 3245,
      "remain": 3246,
      "vanish": 3247,
      "separation": 3248,
      "solit": 3249,
      "computed": 3250,
      "##forc": 3251,
      "hydrodynam": 3252,
      "integer": 3253,
      "##omorphism": 3254,
      "potentials": 3255,
      "##ry": 3256,
      "##alities": 3257,
      "anomalous": 3258,
      "##olar": 3259,
      "substanti": 3260,
      "unknow": 3261,
      "##uter": 3262,
      "kinetic": 3263,
      "treatment": 3264,
      "##iant": 3265,
      "##era": 3266,
      "typically": 3267,
      "monit": 3268,
      "##iver": 3269,
      "last": 3270,
      "examine": 3271,
      "virt": 3272,
      "privacy": 3273,
      "mechanics": 3274,
      "modules": 3275,
      "canonical": 3276,
      "##net": 3277,
      "efficiently": 3278,
      "orders": 3279,
      "mathematical": 3280,
      "category": 3281,
      "swit": 3282,
      "##acts": 3283,
      "photons": 3284,
      "includes": 3285,
      "##ficial": 3286,
      "var": 3287,
      "agg": 3288,
      "##ipar": 3289,
      "##utative": 3290,
      "tuning": 3291,
      "##uments": 3292,
      "sense": 3293,
      "improvement": 3294,
      "proved": 3295,
      "composition": 3296,
      "ms": 3297,
      "##cent": 3298,
      "elliptic": 3299,
      "relatively": 3300,
      "though": 3301,
      "locally": 3302,
      "third": 3303,
      "appropriate": 3304,
      "burst": 3305,
      "spacetime": 3306,
      "applying": 3307,
      "tests": 3308,
      "markov": 3309,
      "resource": 3310,
      "##ulations": 3311,
      "remark": 3312,
      "inters": 3313,
      "generally": 3314,
      "aspects": 3315,
      "unknown": 3316,
      "coefficient": 3317,
      "consists": 3318,
      "conclud": 3319,
      "numerically": 3320,
      "maximal": 3321,
      "ps": 3322,
      "parad": 3323,
      "see": 3324,
      "tunnel": 3325,
      "##angian": 3326,
      "science": 3327,
      "issues": 3328,
      "##ters": 3329,
      "ram": 3330,
      "selected": 3331,
      "annot": 3332,
      "##alth": 3333,
      "##utes": 3334,
      "before": 3335,
      "conduct": 3336,
      "##ips": 3337,
      "rules": 3338,
      "age": 3339,
      "photo": 3340,
      "might": 3341,
      "consum": 3342,
      "##graph": 3343,
      "ngc": 3344,
      "quantitative": 3345,
      "cha": 3346,
      "molecules": 3347,
      "inver": 3348,
      "bund": 3349,
      "difficult": 3350,
      "##elf": 3351,
      "partition": 3352,
      "##urally": 3353,
      "saf": 3354,
      "viol": 3355,
      "recomm": 3356,
      "##ans": 3357,
      "uv": 3358,
      "frequencies": 3359,
      "game": 3360,
      "qual": 3361,
      "effectively": 3362,
      "orthog": 3363,
      "##ancy": 3364,
      "supersymmetric": 3365,
      "km": 3366,
      "choice": 3367,
      "ai": 3368,
      "##oph": 3369,
      "collid": 3370,
      "highl": 3371,
      "issue": 3372,
      "assuming": 3373,
      "si": 3374,
      "##ited": 3375,
      "##ease": 3376,
      "##ortex": 3377,
      "cut": 3378,
      "stat": 3379,
      "ensemble": 3380,
      "complement": 3381,
      "discovery": 3382,
      "sr": 3383,
      "hop": 3384,
      "cub": 3385,
      "stress": 3386,
      "hil": 3387,
      "profiles": 3388,
      "##ensors": 3389,
      "psi": 3390,
      "operations": 3391,
      "##forcement": 3392,
      "##posed": 3393,
      "shock": 3394,
      "ratios": 3395,
      "pd": 3396,
      "facil": 3397,
      "##ands": 3398,
      "note": 3399,
      "collab": 3400,
      "side": 3401,
      "node": 3402,
      "##plet": 3403,
      "lagrangian": 3404,
      "forming": 3405,
      "##gin": 3406,
      "perturbative": 3407,
      "##idden": 3408,
      "intell": 3409,
      "shear": 3410,
      "kind": 3411,
      "explan": 3412,
      "199": 3413,
      "mut": 3414,
      "inspir": 3415,
      "##ump": 3416,
      "##ites": 3417,
      "pc": 3418,
      "implemented": 3419,
      "sharp": 3420,
      "technology": 3421,
      "rise": 3422,
      "vertices": 3423,
      "driving": 3424,
      "weakly": 3425,
      "controlled": 3426,
      "mev": 3427,
      "evaluated": 3428,
      "##ends": 3429,
      "motivated": 3430,
      "benef": 3431,
      "simulated": 3432,
      "##lier": 3433,
      "cavity": 3434,
      "base": 3435,
      "vortex": 3436,
      "allowing": 3437,
      "programming": 3438,
      "anisotropic": 3439,
      "htt": 3440,
      "face": 3441,
      "##ci": 3442,
      "attacks": 3443,
      "pseudo": 3444,
      "precise": 3445,
      "embedded": 3446,
      "te": 3447,
      "solid": 3448,
      "##yr": 3449,
      "ca": 3450,
      "spherical": 3451,
      "phenomenon": 3452,
      "combining": 3453,
      "fermions": 3454,
      "now": 3455,
      "mi": 3456,
      "##puts": 3457,
      "iii": 3458,
      "symmetries": 3459,
      "##aster": 3460,
      "aggreg": 3461,
      "stabil": 3462,
      "usually": 3463,
      "mid": 3464,
      "argue": 3465,
      "kinematic": 3466,
      "distinguish": 3467,
      "famil": 3468,
      "vision": 3469,
      "##come": 3470,
      "capt": 3471,
      "rang": 3472,
      "correction": 3473,
      "youn": 3474,
      "reference": 3475,
      "perfect": 3476,
      "reinforcement": 3477,
      "dm": 3478,
      "lor": 3479,
      "satisf": 3480,
      "mob": 3481,
      "##ull": 3482,
      "hydrogen": 3483,
      "intellig": 3484,
      "imm": 3485,
      "##arithm": 3486,
      "couplings": 3487,
      "enab": 3488,
      "observational": 3489,
      "building": 3490,
      "hyperbolic": 3491,
      "rule": 3492,
      "freedom": 3493,
      "##plan": 3494,
      "formed": 3495,
      "express": 3496,
      "hilbert": 3497,
      "aver": 3498,
      "##odes": 3499,
      "probabil": 3500,
      "prime": 3501,
      "##ote": 3502,
      "turn": 3503,
      "implies": 3504,
      "mm": 3505,
      "qualit": 3506,
      "##ken": 3507,
      "branch": 3508,
      "21": 3509,
      "additionally": 3510,
      "rely": 3511,
      "##isson": 3512,
      "manip": 3513,
      "probabilistic": 3514,
      "acceleration": 3515,
      "fusion": 3516,
      "cycle": 3517,
      "radiative": 3518,
      "enhancement": 3519,
      "inside": 3520,
      "edges": 3521,
      "diffu": 3522,
      "bands": 3523,
      "resolved": 3524,
      "fill": 3525,
      "variability": 3526,
      "##cale": 3527,
      "satell": 3528,
      "classif": 3529,
      "diam": 3530,
      "comparable": 3531,
      "operation": 3532,
      "poisson": 3533,
      "gain": 3534,
      "primary": 3535,
      "deploy": 3536,
      "sun": 3537,
      "subject": 3538,
      "detectors": 3539,
      "##inement": 3540,
      "##fs": 3541,
      "rotating": 3542,
      "splitting": 3543,
      "dominated": 3544,
      "renormalization": 3545,
      "phonon": 3546,
      "##uration": 3547,
      "generative": 3548,
      "always": 3549,
      "anisotropy": 3550,
      "tracking": 3551,
      "needed": 3552,
      "resonant": 3553,
      "antifer": 3554,
      "exhibits": 3555,
      "40": 3556,
      "box": 3557,
      "integration": 3558,
      "offer": 3559,
      "inequality": 3560,
      "candidate": 3561,
      "bor": 3562,
      "principles": 3563,
      "sensing": 3564,
      "improves": 3565,
      "subg": 3566,
      "narrow": 3567,
      "fu": 3568,
      "true": 3569,
      "##az": 3570,
      "combinator": 3571,
      "##ffic": 3572,
      "polarized": 3573,
      "robot": 3574,
      "naturally": 3575,
      "expressions": 3576,
      "planets": 3577,
      "##50": 3578,
      "pb": 3579,
      "##iti": 3580,
      "ml": 3581,
      "##ocal": 3582,
      "purpose": 3583,
      "##ucl": 3584,
      "nucleon": 3585,
      "amplitudes": 3586,
      "planar": 3587,
      "completely": 3588,
      "similarity": 3589,
      "interfer": 3590,
      "##jected": 3591,
      "actions": 3592,
      "traffic": 3593,
      "feas": 3594,
      "aims": 3595,
      "##unction": 3596,
      "brow": 3597,
      "giant": 3598,
      "moving": 3599,
      "24": 3600,
      "localized": 3601,
      "doc": 3602,
      "##lin": 3603,
      "extra": 3604,
      "record": 3605,
      "containing": 3606,
      "fourier": 3607,
      "location": 3608,
      "concer": 3609,
      "spread": 3610,
      "imag": 3611,
      "pen": 3612,
      "moments": 3613,
      "scienti": 3614,
      "past": 3615,
      "white": 3616,
      "cold": 3617,
      "##erge": 3618,
      "latent": 3619,
      "observables": 3620,
      "media": 3621,
      "cop": 3622,
      "pulse": 3623,
      "turbulence": 3624,
      "##orous": 3625,
      "duality": 3626,
      "##off": 3627,
      "questions": 3628,
      "##ict": 3629,
      "subsequ": 3630,
      "dipole": 3631,
      "six": 3632,
      "digital": 3633,
      "cooper": 3634,
      "##aul": 3635,
      "ow": 3636,
      "cohom": 3637,
      "virtual": 3638,
      "logic": 3639,
      "diagn": 3640,
      "fair": 3641,
      "hierarchical": 3642,
      "comprehensive": 3643,
      "compan": 3644,
      "sensor": 3645,
      "community": 3646,
      "orthogonal": 3647,
      "##ography": 3648,
      "species": 3649,
      "##press": 3650,
      "powerful": 3651,
      "carbon": 3652,
      "deformation": 3653,
      "war": 3654,
      "maintain": 3655,
      "she": 3656,
      "ultra": 3657,
      "diverg": 3658,
      "comparing": 3659,
      "mag": 3660,
      "young": 3661,
      "nearly": 3662,
      "enough": 3663,
      "abundance": 3664,
      "##actions": 3665,
      "##oidal": 3666,
      "##ring": 3667,
      "products": 3668,
      "artificial": 3669,
      "exactly": 3670,
      "distances": 3671,
      "##elihood": 3672,
      "interp": 3673,
      "gover": 3674,
      "appears": 3675,
      "settings": 3676,
      "quantities": 3677,
      "cooling": 3678,
      "##way": 3679,
      "##atives": 3680,
      "##bles": 3681,
      "hadr": 3682,
      "##sim": 3683,
      "##ake": 3684,
      "likelihood": 3685,
      "resources": 3686,
      "enable": 3687,
      "rays": 3688,
      "logarithm": 3689,
      "trig": 3690,
      "frag": 3691,
      "clouds": 3692,
      "autonom": 3693,
      "retriev": 3694,
      "conclude": 3695,
      "orbits": 3696,
      "advantage": 3697,
      "##ems": 3698,
      "translation": 3699,
      "air": 3700,
      "consistency": 3701,
      "bri": 3702,
      "sphere": 3703,
      "acqu": 3704,
      "tight": 3705,
      "##otyp": 3706,
      "propor": 3707,
      "##igu": 3708,
      "glass": 3709,
      "odd": 3710,
      "categories": 3711,
      "lever": 3712,
      "mobile": 3713,
      "perspective": 3714,
      "whole": 3715,
      "equivalence": 3716,
      "experi": 3717,
      "deterministic": 3718,
      "compati": 3719,
      "##ired": 3720,
      "transformations": 3721,
      "shot": 3722,
      "##eed": 3723,
      "requirements": 3724,
      "##co": 3725,
      "##itely": 3726,
      "sections": 3727,
      "grid": 3728,
      "hypothesis": 3729,
      "chi": 3730,
      "miss": 3731,
      "occurs": 3732,
      "nav": 3733,
      "read": 3734,
      "constit": 3735,
      "excitations": 3736,
      "counterpar": 3737,
      "faster": 3738,
      "collapse": 3739,
      "wireless": 3740,
      "##uth": 3741,
      "earlier": 3742,
      "##oustic": 3743,
      "extreme": 3744,
      "consequence": 3745,
      "dil": 3746,
      "##rophys": 3747,
      "##eady": 3748,
      "draw": 3749,
      "sector": 3750,
      "metallicity": 3751,
      "##ived": 3752,
      "datab": 3753,
      "variance": 3754,
      "ic": 3755,
      "cells": 3756,
      "causal": 3757,
      "synthesis": 3758,
      "##entz": 3759,
      "synchron": 3760,
      "films": 3761,
      "instance": 3762,
      "baseline": 3763,
      "diagnos": 3764,
      "easily": 3765,
      "thermodynamic": 3766,
      "describing": 3767,
      "https": 3768,
      "directions": 3769,
      "##ky": 3770,
      "neutrinos": 3771,
      "anomaly": 3772,
      "modelling": 3773,
      "##aded": 3774,
      "generalize": 3775,
      "improving": 3776,
      "spectroscopic": 3777,
      "##sp": 3778,
      "23": 3779,
      "astrophys": 3780,
      "semicon": 3781,
      "##nns": 3782,
      "##mon": 3783,
      "parts": 3784,
      "hadron": 3785,
      "##idel": 3786,
      "##ixel": 3787,
      "assi": 3788,
      "weights": 3789,
      "polym": 3790,
      "fav": 3791,
      "place": 3792,
      "##ilt": 3793,
      "excited": 3794,
      "idea": 3795,
      "learned": 3796,
      "takes": 3797,
      "brief": 3798,
      "##tron": 3799,
      "##cri": 3800,
      "paradig": 3801,
      "hidden": 3802,
      "health": 3803,
      "distor": 3804,
      "parametric": 3805,
      "unified": 3806,
      "violation": 3807,
      "increased": 3808,
      "subgrou": 3809,
      "fron": 3810,
      "methodology": 3811,
      "investigation": 3812,
      "monot": 3813,
      "candidates": 3814,
      "whereas": 3815,
      "caused": 3816,
      "lorentz": 3817,
      "recommend": 3818,
      "##ocation": 3819,
      "meson": 3820,
      "employed": 3821,
      "ur": 3822,
      "##ithub": 3823,
      "uncertainties": 3824,
      "github": 3825,
      "absol": 3826,
      "facilit": 3827,
      "conductivity": 3828,
      "project": 3829,
      "suppress": 3830,
      "volt": 3831,
      "22": 3832,
      "eucl": 3833,
      "##ening": 3834,
      "brown": 3835,
      "definition": 3836,
      "manag": 3837,
      "nl": 3838,
      "coul": 3839,
      "##yc": 3840,
      "mir": 3841,
      "bose": 3842,
      "odot": 3843,
      "sizes": 3844,
      "describes": 3845,
      "poor": 3846,
      "diverse": 3847,
      "engineering": 3848,
      "bil": 3849,
      "projective": 3850,
      "##zz": 3851,
      "modular": 3852,
      "quantization": 3853,
      "coulomb": 3854,
      "spatially": 3855,
      "kev": 3856,
      "##stellar": 3857,
      "##rel": 3858,
      "families": 3859,
      "circular": 3860,
      "collective": 3861,
      "mis": 3862,
      "analyses": 3863,
      "##tives": 3864,
      "##ply": 3865,
      "##ley": 3866,
      "invariants": 3867,
      "barri": 3868,
      "##ularities": 3869,
      "jets": 3870,
      "studying": 3871,
      "sufficiently": 3872,
      "preserving": 3873,
      "superconductivity": 3874,
      "##ressive": 3875,
      "amb": 3876,
      "insights": 3877,
      "tested": 3878,
      "query": 3879,
      "extraction": 3880,
      "expand": 3881,
      "concentration": 3882,
      "affine": 3883,
      "carried": 3884,
      "##ulated": 3885,
      "aware": 3886,
      "coherence": 3887,
      "excess": 3888,
      "vers": 3889,
      "canc": 3890,
      "arise": 3891,
      "prefer": 3892,
      "autonomous": 3893,
      "neighbor": 3894,
      "abstr": 3895,
      "vl": 3896,
      "##ittle": 3897,
      "approximately": 3898,
      "mn": 3899,
      "flavor": 3900,
      "web": 3901,
      "unli": 3902,
      "tre": 3903,
      "##oming": 3904,
      "nois": 3905,
      "##ares": 3906,
      "##uper": 3907,
      "progress": 3908,
      "semiconduc": 3909,
      "trees": 3910,
      "uniqu": 3911,
      "vectors": 3912,
      "##go": 3913,
      "chains": 3914,
      "steady": 3915,
      "quantify": 3916,
      "triang": 3917,
      "degenerate": 3918,
      "mainly": 3919,
      "magnetization": 3920,
      "gluon": 3921,
      "asymmetry": 3922,
      "bott": 3923,
      "recurr": 3924,
      "architectures": 3925,
      "tunneling": 3926,
      "inspired": 3927,
      "##ape": 3928,
      "conditional": 3929,
      "##lap": 3930,
      "prox": 3931,
      "interval": 3932,
      "reveals": 3933,
      "manner": 3934,
      "bf": 3935,
      "##itten": 3936,
      "move": 3937,
      "modern": 3938,
      "mim": 3939,
      "pixel": 3940,
      "ball": 3941,
      "inhom": 3942,
      "coinc": 3943,
      "stack": 3944,
      "microw": 3945,
      "##iers": 3946,
      "exec": 3947,
      "disks": 3948,
      "erg": 3949,
      "##ds": 3950,
      "suppor": 3951,
      "arising": 3952,
      "currently": 3953,
      "##oles": 3954,
      "##ious": 3955,
      "outer": 3956,
      "##elastic": 3957,
      "lens": 3958,
      "mc": 3959,
      "lattices": 3960,
      "reduces": 3961,
      "##uler": 3962,
      "herm": 3963,
      "dominant": 3964,
      "acoustic": 3965,
      "##wid": 3966,
      "subsp": 3967,
      "valued": 3968,
      "superior": 3969,
      "catalog": 3970,
      "estimator": 3971,
      "brane": 3972,
      "outflow": 3973,
      "##width": 3974,
      "conj": 3975,
      "##anning": 3976,
      "##istance": 3977,
      "extensions": 3978,
      "entire": 3979,
      "##pler": 3980,
      "##angled": 3981,
      "collected": 3982,
      "care": 3983,
      "unitary": 3984,
      "vor": 3985,
      "mil": 3986,
      "spon": 3987,
      "trajectories": 3988,
      "remov": 3989,
      "labels": 3990,
      "get": 3991,
      "solved": 3992,
      "classify": 3993,
      "alignment": 3994,
      "cite": 3995,
      "site": 3996,
      "bond": 3997,
      "modulation": 3998,
      "starting": 3999,
      "extremely": 4000,
      "accurately": 4001,
      "isol": 4002,
      "forec": 4003,
      "ferromagnetic": 4004,
      "##tructure": 4005,
      "green": 4006,
      "##ru": 4007,
      "vo": 4008,
      "platform": 4009,
      "spontaneous": 4010,
      "moduli": 4011,
      "landau": 4012,
      "hardware": 4013,
      "negl": 4014,
      "forces": 4015,
      "compound": 4016,
      "theoretically": 4017,
      "planning": 4018,
      "inequalities": 4019,
      "##ret": 4020,
      "circum": 4021,
      "##cepts": 4022,
      "asymptotically": 4023,
      "compression": 4024,
      "fitting": 4025,
      "##enberg": 4026,
      "##err": 4027,
      "##burst": 4028,
      "##abatic": 4029,
      "commonly": 4030,
      "##ready": 4031,
      "already": 4032,
      "xi": 4033,
      "criterion": 4034,
      "##idean": 4035,
      "populations": 4036,
      "bol": 4037,
      "aud": 4038,
      "regularization": 4039,
      "euclidean": 4040,
      "microwave": 4041,
      "net": 4042,
      "constants": 4043,
      "absence": 4044,
      "invariance": 4045,
      "discrimin": 4046,
      "heterogeneous": 4047,
      "##unctions": 4048,
      "determination": 4049,
      "supernova": 4050,
      "emphas": 4051,
      "unst": 4052,
      "##ffer": 4053,
      "##12": 4054,
      "rough": 4055,
      "relativity": 4056,
      "recon": 4057,
      "diffr": 4058,
      "consisting": 4059,
      "sal": 4060,
      "cohomology": 4061,
      "areas": 4062,
      "combinatorial": 4063,
      "##itted": 4064,
      "limitations": 4065,
      "conclusion": 4066,
      "steps": 4067,
      "00": 4068,
      "dri": 4069,
      "nor": 4070,
      "enhance": 4071,
      "medical": 4072,
      "nonc": 4073,
      "transformer": 4074,
      "stor": 4075,
      "just": 4076,
      "ste": 4077,
      "pion": 4078,
      "trade": 4079,
      "surveys": 4080,
      "microscopic": 4081,
      "ordered": 4082,
      "answer": 4083,
      "extracted": 4084,
      "protein": 4085,
      "##idal": 4086,
      "##anck": 4087,
      "assumed": 4088,
      "games": 4089,
      "regimes": 4090,
      "mess": 4091,
      "reliable": 4092,
      "little": 4093,
      "##oh": 4094,
      "parity": 4095,
      "approximations": 4096,
      "dot": 4097,
      "##ging": 4098,
      "diagonal": 4099,
      "resonances": 4100,
      "strain": 4101,
      "dissipation": 4102,
      "pp": 4103,
      "##side": 4104,
      "inher": 4105,
      "industr": 4106,
      "##eties": 4107,
      "##uli": 4108,
      "discovered": 4109,
      "##omic": 4110,
      "##set": 4111,
      "evolutionary": 4112,
      "kap": 4113,
      "diagrams": 4114,
      "rightarrow": 4115,
      "##ectic": 4116,
      "bes": 4117,
      "showed": 4118,
      "attem": 4119,
      "deal": 4120,
      "baryon": 4121,
      "noisy": 4122,
      "##ention": 4123,
      "suggested": 4124,
      "correspondence": 4125,
      "rigid": 4126,
      "binaries": 4127,
      "confidence": 4128,
      "explained": 4129,
      "projection": 4130,
      "crystals": 4131,
      "measuring": 4132,
      "concepts": 4133,
      "##ades": 4134,
      "storage": 4135,
      "transl": 4136,
      "##iction": 4137,
      "residual": 4138,
      "pip": 4139,
      "##aged": 4140,
      "scientific": 4141,
      "sched": 4142,
      "##upervised": 4143,
      "planck": 4144,
      "pati": 4145,
      "insulator": 4146,
      "cosmology": 4147,
      "brain": 4148,
      "asymmetric": 4149,
      "##istr": 4150,
      "singularities": 4151,
      "paths": 4152,
      "monitoring": 4153,
      "verify": 4154,
      "potentially": 4155,
      "superf": 4156,
      "velocities": 4157,
      "unsupervised": 4158,
      "ber": 4159,
      "usual": 4160,
      "exponent": 4161,
      "##ectivity": 4162,
      "photometric": 4163,
      "calibration": 4164,
      "accoun": 4165,
      "trajectory": 4166,
      "allowed": 4167,
      "oc": 4168,
      "greater": 4169,
      "bit": 4170,
      "demand": 4171,
      "conducted": 4172,
      "##emic": 4173,
      "indicates": 4174,
      "ions": 4175,
      "euler": 4176,
      "automated": 4177,
      "holds": 4178,
      "overlap": 4179,
      "##ticles": 4180,
      "##itive": 4181,
      "itself": 4182,
      "voltage": 4183,
      "inform": 4184,
      "capable": 4185,
      "weyl": 4186,
      "##ili": 4187,
      "instant": 4188,
      "formulas": 4189,
      "ghz": 4190,
      "substr": 4191,
      "solv": 4192,
      "refer": 4193,
      "##inding": 4194,
      "underg": 4195,
      "##ident": 4196,
      "predictive": 4197,
      "##mc": 4198,
      "trace": 4199,
      "partially": 4200,
      "absolute": 4201,
      "##iding": 4202,
      "assign": 4203,
      "practice": 4204,
      "mitig": 4205,
      "successfully": 4206,
      "derivative": 4207,
      "history": 4208,
      "cnn": 4209,
      "exploit": 4210,
      "sound": 4211,
      "embeddings": 4212,
      "root": 4213,
      "holog": 4214,
      "##pot": 4215,
      "circuit": 4216,
      "schr": 4217,
      "##cepti": 4218,
      "rings": 4219,
      "na": 4220,
      "kn": 4221,
      "differenti": 4222,
      "adi": 4223,
      "spac": 4224,
      "restricted": 4225,
      "activ": 4226,
      "summar": 4227,
      "##osen": 4228,
      "regularity": 4229,
      "introducing": 4230,
      "management": 4231,
      "communic": 4232,
      "collection": 4233,
      "kappa": 4234,
      "turbulent": 4235,
      "##ze": 4236,
      "yang": 4237,
      "capabilities": 4238,
      "particip": 4239,
      "lepton": 4240,
      "ra": 4241,
      "eigenvalues": 4242,
      "ni": 4243,
      "walk": 4244,
      "retrieval": 4245,
      "service": 4246,
      "done": 4247,
      "hi": 4248,
      "built": 4249,
      "market": 4250,
      "drop": 4251,
      "reducing": 4252,
      "nucleus": 4253,
      "##osity": 4254,
      "pose": 4255,
      "analyzing": 4256,
      "fed": 4257,
      "reasoning": 4258,
      "gate": 4259,
      "##vity": 4260,
      "connections": 4261,
      "decrease": 4262,
      "words": 4263,
      "mathbf": 4264,
      "structured": 4265,
      "quarks": 4266,
      "criteria": 4267,
      "sequential": 4268,
      "involves": 4269,
      "##eta": 4270,
      "performing": 4271,
      "##abol": 4272,
      "ban": 4273,
      "instrument": 4274,
      "appar": 4275,
      "improvements": 4276,
      "detecting": 4277,
      "determining": 4278,
      "vibr": 4279,
      "signatures": 4280,
      "unstable": 4281,
      "picture": 4282,
      "laws": 4283,
      "planetary": 4284,
      "coding": 4285,
      "camera": 4286,
      "thereby": 4287,
      "languages": 4288,
      "strict": 4289,
      "transient": 4290,
      "vanishing": 4291,
      "##urf": 4292,
      "analytically": 4293,
      "identifying": 4294,
      "reconstruct": 4295,
      "cs": 4296,
      "reflection": 4297,
      "iterative": 4298,
      "affect": 4299,
      "fold": 4300,
      "##oher": 4301,
      "60": 4302,
      "nearby": 4303,
      "##odal": 4304,
      "##band": 4305,
      "qubits": 4306,
      "assem": 4307,
      "trac": 4308,
      "possibly": 4309,
      "paradigm": 4310,
      "branching": 4311,
      "compatible": 4312,
      "rou": 4313,
      "oscillation": 4314,
      "##ists": 4315,
      "##pled": 4316,
      "onto": 4317,
      "create": 4318,
      "holograph": 4319,
      "princip": 4320,
      "publish": 4321,
      "##plectic": 4322,
      "##acting": 4323,
      "assume": 4324,
      "missing": 4325,
      "##bl": 4326,
      "adiabatic": 4327,
      "econ": 4328,
      "##eds": 4329,
      "superconductors": 4330,
      "defects": 4331,
      "late": 4332,
      "##ographic": 4333,
      "fract": 4334,
      "##isely": 4335,
      "##21": 4336,
      "automatically": 4337,
      "estimating": 4338,
      "##reduc": 4339,
      "integrable": 4340,
      "theorems": 4341,
      "meta": 4342,
      "entangled": 4343,
      "discon": 4344,
      "satellite": 4345,
      "##tite": 4346,
      "nanos": 4347,
      "discreti": 4348,
      "lensing": 4349,
      "suscepti": 4350,
      "##itter": 4351,
      "surround": 4352,
      "isotropic": 4353,
      "observable": 4354,
      "clin": 4355,
      "flexible": 4356,
      "pt": 4357,
      "iden": 4358,
      "000": 4359,
      "score": 4360,
      "meaning": 4361,
      "infinity": 4362,
      "sent": 4363,
      "revealed": 4364,
      "rotational": 4365,
      "bosons": 4366,
      "##ivari": 4367,
      "##oplan": 4368,
      "##versity": 4369,
      "proposes": 4370,
      "ec": 4371,
      "##ulate": 4372,
      "unlike": 4373,
      "##izable": 4374,
      "implicit": 4375,
      "##portun": 4376,
      "opportun": 4377,
      "slight": 4378,
      "largest": 4379,
      "adaptation": 4380,
      "atmospheric": 4381,
      "integrals": 4382,
      "prototyp": 4383,
      "##ees": 4384,
      "##app": 4385,
      "understood": 4386,
      "colum": 4387,
      "##mented": 4388,
      "advantages": 4389,
      "crystall": 4390,
      "##cence": 4391,
      "chrom": 4392,
      "binding": 4393,
      "technologies": 4394,
      "changing": 4395,
      "kpc": 4396,
      "##ours": 4397,
      "details": 4398,
      "boundaries": 4399,
      "ising": 4400,
      "textit": 4401,
      "varieties": 4402,
      "theoretic": 4403,
      "subm": 4404,
      "##okes": 4405,
      "##ube": 4406,
      "longitud": 4407,
      "cov": 4408,
      "located": 4409,
      "achieving": 4410,
      "condensate": 4411,
      "cubic": 4412,
      "##aton": 4413,
      "mesh": 4414,
      "later": 4415,
      "pulsar": 4416,
      "mixture": 4417,
      "heating": 4418,
      "sensors": 4419,
      "precisely": 4420,
      "oriented": 4421,
      "##eak": 4422,
      "never": 4423,
      "screen": 4424,
      "bh": 4425,
      "##fact": 4426,
      "##eters": 4427,
      "smart": 4428,
      "##lusive": 4429,
      "ordering": 4430,
      "singularity": 4431,
      "relies": 4432,
      "discussion": 4433,
      "##gers": 4434,
      "auto": 4435,
      "doped": 4436,
      "surpr": 4437,
      "exploration": 4438,
      "geodes": 4439,
      "isolated": 4440,
      "null": 4441,
      "##erior": 4442,
      "hierarchy": 4443,
      "decreases": 4444,
      "outperform": 4445,
      "rest": 4446,
      "bur": 4447,
      "carry": 4448,
      "persist": 4449,
      "demonstrates": 4450,
      "probabilities": 4451,
      "orientation": 4452,
      "trigger": 4453,
      "directed": 4454,
      "represented": 4455,
      "advanced": 4456,
      "ordinary": 4457,
      "##luid": 4458,
      "focusing": 4459,
      "attract": 4460,
      "mg": 4461,
      "cmb": 4462,
      "abundances": 4463,
      "highlight": 4464,
      "principal": 4465,
      "plays": 4466,
      "envelop": 4467,
      "##vities": 4468,
      "##ilation": 4469,
      "collider": 4470,
      "quite": 4471,
      "fidel": 4472,
      "##ata": 4473,
      "multim": 4474,
      "poss": 4475,
      "explored": 4476,
      "riemannian": 4477,
      "validate": 4478,
      "parametr": 4479,
      "composite": 4480,
      "optimized": 4481,
      "irreduc": 4482,
      "limiting": 4483,
      "##well": 4484,
      "switching": 4485,
      "applicable": 4486,
      "corresponds": 4487,
      "excell": 4488,
      "offers": 4489,
      "addi": 4490,
      "cycles": 4491,
      "extends": 4492,
      "##ski": 4493,
      "links": 4494,
      "introduces": 4495,
      "check": 4496,
      "mor": 4497,
      "rare": 4498,
      "jac": 4499,
      "antiferromagnetic": 4500,
      "mirr": 4501,
      "fab": 4502,
      "mer": 4503,
      "film": 4504,
      "growing": 4505,
      "hd": 4506,
      "permut": 4507,
      "anten": 4508,
      "fiber": 4509,
      "photonic": 4510,
      "running": 4511,
      "follows": 4512,
      "##ik": 4513,
      "stokes": 4514,
      "rapidly": 4515,
      "##arity": 4516,
      "signature": 4517,
      "labor": 4518,
      "revers": 4519,
      "protocols": 4520,
      "reproduce": 4521,
      "##nih": 4522,
      "developing": 4523,
      "fo": 4524,
      "90": 4525,
      "card": 4526,
      "prev": 4527,
      "##har": 4528,
      "computationally": 4529,
      "##tream": 4530,
      "moder": 4531,
      "tend": 4532,
      "##assive": 4533,
      "##odic": 4534,
      "##frak": 4535,
      "database": 4536,
      "eu": 4537,
      "too": 4538,
      "##60": 4539,
      "electrical": 4540,
      "##tructures": 4541,
      "mathfrak": 4542,
      "behaviors": 4543,
      "safety": 4544,
      "ways": 4545,
      "##imeter": 4546,
      "needs": 4547,
      "logarithmic": 4548,
      "##ram": 4549,
      "employing": 4550,
      "twisted": 4551,
      "metallic": 4552,
      "bub": 4553,
      "competitive": 4554,
      "day": 4555,
      "hold": 4556,
      "mal": 4557,
      "scene": 4558,
      "thickness": 4559,
      "##aim": 4560,
      "coordinate": 4561,
      "consequences": 4562,
      "rigorous": 4563,
      "secondary": 4564,
      "##entric": 4565,
      "##ode": 4566,
      "rl": 4567,
      "conversion": 4568,
      "spiral": 4569,
      "chosen": 4570,
      "##oll": 4571,
      "iner": 4572,
      "currents": 4573,
      "sites": 4574,
      "load": 4575,
      "silicon": 4576,
      "##oti": 4577,
      "hadronic": 4578,
      "ded": 4579,
      "inputs": 4580,
      "proportional": 4581,
      "explanation": 4582,
      "realized": 4583,
      "##acti": 4584,
      "elementary": 4585,
      "ld": 4586,
      "symplectic": 4587,
      "included": 4588,
      "##ones": 4589,
      "##econd": 4590,
      "diversity": 4591,
      "expressed": 4592,
      "longitudinal": 4593,
      "nn": 4594,
      "excellent": 4595,
      "ionization": 4596,
      "astrophysical": 4597,
      "##gets": 4598,
      "chaotic": 4599,
      "gw": 4600,
      "neb": 4601,
      "pairing": 4602,
      "superconductor": 4603,
      "cone": 4604,
      "created": 4605,
      "longer": 4606,
      "annih": 4607,
      "perce": 4608,
      "possess": 4609,
      "indeed": 4610,
      "searches": 4611,
      "barrier": 4612,
      "##aps": 4613,
      "identity": 4614,
      "dielectric": 4615,
      "oscillator": 4616,
      "spins": 4617,
      "belong": 4618,
      "confirmed": 4619,
      "members": 4620,
      "pulses": 4621,
      "newton": 4622,
      "inversion": 4623,
      "coordinates": 4624,
      "counting": 4625,
      "benchmarks": 4626,
      "loops": 4627,
      "plac": 4628,
      "macroscop": 4629,
      "easy": 4630,
      "her": 4631,
      "torus": 4632,
      "brid": 4633,
      "##ned": 4634,
      "fidelity": 4635,
      "##uristic": 4636,
      "window": 4637,
      "extending": 4638,
      "cust": 4639,
      "##tivities": 4640,
      "suggesting": 4641,
      "coverage": 4642,
      "authors": 4643,
      "produces": 4644,
      "responsible": 4645,
      "emerging": 4646,
      "##80": 4647,
      "researchers": 4648,
      "degr": 4649,
      "oth": 4650,
      "hubble": 4651,
      "surprising": 4652,
      "##itian": 4653,
      "monol": 4654,
      "neur": 4655,
      "etc": 4656,
      "doping": 4657,
      "supersymmetry": 4658,
      "substantial": 4659,
      "utility": 4660,
      "hydrodynamic": 4661,
      "broken": 4662,
      "predicting": 4663,
      "casc": 4664,
      "##ession": 4665,
      "instances": 4666,
      "##kov": 4667,
      "mobility": 4668,
      "supported": 4669,
      "dc": 4670,
      "heis": 4671,
      "regarding": 4672,
      "dots": 4673,
      "np": 4674,
      "##rs": 4675,
      "involved": 4676,
      "published": 4677,
      "27": 4678,
      "##ologically": 4679,
      "manif": 4680,
      "beli": 4681,
      "programs": 4682,
      "cause": 4683,
      "heisenberg": 4684,
      "claim": 4685,
      "perp": 4686,
      "highest": 4687,
      "##abolic": 4688,
      "##asting": 4689,
      "bursts": 4690,
      "biological": 4691,
      "conservation": 4692,
      "##osp": 4693,
      "enabling": 4694,
      "count": 4695,
      "1d": 4696,
      "##17": 4697,
      "##oys": 4698,
      "tack": 4699,
      "shared": 4700,
      "leg": 4701,
      "hermitian": 4702,
      "irreducible": 4703,
      "##hd": 4704,
      "interpreted": 4705,
      "##epsilon": 4706,
      "covering": 4707,
      "##bal": 4708,
      "others": 4709,
      "covariance": 4710,
      "accept": 4711,
      "##ystem": 4712,
      "shifts": 4713,
      "automorph": 4714,
      "arises": 4715,
      "##ana": 4716,
      "dwarfs": 4717,
      "varepsilon": 4718,
      "astr": 4719,
      "jacob": 4720,
      "desired": 4721,
      "fall": 4722,
      "chern": 4723,
      "diffraction": 4724,
      "strip": 4725,
      "zeta": 4726,
      "overcome": 4727,
      "realization": 4728,
      "##22": 4729,
      "travel": 4730,
      "reward": 4731,
      "custom": 4732,
      "qualitative": 4733,
      "reactions": 4734,
      "viscosity": 4735,
      "##ometer": 4736,
      "composed": 4737,
      "tc": 4738,
      "circuits": 4739,
      "interstellar": 4740,
      "tidal": 4741,
      "homology": 4742,
      "estimators": 4743,
      "unf": 4744,
      "occup": 4745,
      "interplay": 4746,
      "radii": 4747,
      "capability": 4748,
      "proxim": 4749,
      "represents": 4750,
      "allocation": 4751,
      "insight": 4752,
      "constructing": 4753,
      "who": 4754,
      "modal": 4755,
      "muon": 4756,
      "##orts": 4757,
      "cli": 4758,
      "guarantees": 4759,
      "expectation": 4760,
      "brownian": 4761,
      "##uting": 4762,
      "split": 4763,
      "##14": 4764,
      "technical": 4765,
      "pin": 4766,
      "indicating": 4767,
      "factorization": 4768,
      "setup": 4769,
      "appearance": 4770,
      "vehicle": 4771,
      "nearest": 4772,
      "shapes": 4773,
      "35": 4774,
      "##ba": 4775,
      "80": 4776,
      "electrow": 4777,
      "oxy": 4778,
      "separated": 4779,
      "posed": 4780,
      "utilizing": 4781,
      "list": 4782,
      "cyclic": 4783,
      "turns": 4784,
      "##ompl": 4785,
      "mesons": 4786,
      "revis": 4787,
      "verification": 4788,
      "relationships": 4789,
      "linearly": 4790,
      "macroscopic": 4791,
      "brightness": 4792,
      "##agnetic": 4793,
      "begin": 4794,
      "ba": 4795,
      "##ilities": 4796,
      "days": 4797,
      "electroweak": 4798,
      "##head": 4799,
      "satisfies": 4800,
      "cores": 4801,
      "fluctuation": 4802,
      "astronom": 4803,
      "policies": 4804,
      "computations": 4805,
      "##ogeneity": 4806,
      "balance": 4807,
      "trunc": 4808,
      "patch": 4809,
      "sty": 4810,
      "##30": 4811,
      "ce": 4812,
      "heuristic": 4813,
      "##la": 4814,
      "bandwidth": 4815,
      "introduction": 4816,
      "discrep": 4817,
      "##kin": 4818,
      "##pts": 4819,
      "author": 4820,
      "uniqueness": 4821,
      "exploiting": 4822,
      "document": 4823,
      "additive": 4824,
      "inhomogeneous": 4825,
      "analogous": 4826,
      "modeled": 4827,
      "faul": 4828,
      "epoch": 4829,
      "##opes": 4830,
      "motions": 4831,
      "display": 4832,
      "merger": 4833,
      "deviation": 4834,
      "ss": 4835,
      "maxwell": 4836,
      "libr": 4837,
      "inclusion": 4838,
      "identical": 4839,
      "posterior": 4840,
      "robotic": 4841,
      "wise": 4842,
      "##ifying": 4843,
      "lowest": 4844,
      "redshifts": 4845,
      "##15": 4846,
      "recur": 4847,
      "units": 4848,
      "##elines": 4849,
      "conjug": 4850,
      "concerning": 4851,
      "assessment": 4852,
      "dynamically": 4853,
      "recovery": 4854,
      "frames": 4855,
      "supp": 4856,
      "eigenvalue": 4857,
      "besides": 4858,
      "##gu": 4859,
      "separate": 4860,
      "ns": 4861,
      "massless": 4862,
      "26": 4863,
      "clinical": 4864,
      "noncomm": 4865,
      "combine": 4866,
      "periods": 4867,
      "replac": 4868,
      "sharing": 4869,
      "mission": 4870,
      "emergence": 4871,
      "gold": 4872,
      "##ending": 4873,
      "oxygen": 4874,
      "##sitions": 4875,
      "covid": 4876,
      "##place": 4877,
      "##param": 4878,
      "stronger": 4879,
      "tension": 4880,
      "positions": 4881,
      "collabor": 4882,
      "uniformly": 4883,
      "##ople": 4884,
      "##inous": 4885,
      "confined": 4886,
      "intelligence": 4887,
      "scalable": 4888,
      "##pus": 4889,
      "targets": 4890,
      "branes": 4891,
      "drift": 4892,
      "ranging": 4893,
      "own": 4894,
      "contin": 4895,
      "thermodynamics": 4896,
      "derivatives": 4897,
      "##oids": 4898,
      "affected": 4899,
      "defect": 4900,
      "wil": 4901,
      "##comes": 4902,
      "satisfying": 4903,
      "##eting": 4904,
      "displac": 4905,
      "rg": 4906,
      "focused": 4907,
      "formulate": 4908,
      "operating": 4909,
      "##hed": 4910,
      "mpc": 4911,
      "stra": 4912,
      "labeled": 4913,
      "people": 4914,
      "synthes": 4915,
      "speak": 4916,
      "ideas": 4917,
      "retur": 4918,
      "bundle": 4919,
      "repe": 4920,
      "classifier": 4921,
      "ia": 4922,
      "##els": 4923,
      "angles": 4924,
      "derivation": 4925,
      "room": 4926,
      "front": 4927,
      "py": 4928,
      "commutative": 4929,
      "##ordial": 4930,
      "complic": 4931,
      "primordial": 4932,
      "blue": 4933,
      "##isms": 4934,
      "briefly": 4935,
      "photometry": 4936,
      "consumption": 4937,
      "sti": 4938,
      "closely": 4939,
      "contribute": 4940,
      "adjust": 4941,
      "encoder": 4942,
      "##rich": 4943,
      "disease": 4944,
      "##radi": 4945,
      "intersection": 4946,
      "discontinu": 4947,
      "column": 4948,
      "benefits": 4949,
      "schedul": 4950,
      "costs": 4951,
      "connectivity": 4952,
      "flo": 4953,
      "torsion": 4954,
      "atmosphere": 4955,
      "oppos": 4956,
      "straight": 4957,
      "modification": 4958,
      "05": 4959,
      "beams": 4960,
      "purely": 4961,
      "blocks": 4962,
      "quench": 4963,
      "systematically": 4964,
      "##urc": 4965,
      "superfluid": 4966,
      "argument": 4967,
      "vs": 4968,
      "rf": 4969,
      "generates": 4970,
      "encoding": 4971,
      "prepar": 4972,
      "arguments": 4973,
      "disordered": 4974,
      "mills": 4975,
      "holographic": 4976,
      "multivari": 4977,
      "services": 4978,
      "simplic": 4979,
      "magneto": 4980,
      "careful": 4981,
      "slightly": 4982,
      "formulated": 4983,
      "ct": 4984,
      "impos": 4985,
      "fal": 4986,
      "advances": 4987,
      "##ressible": 4988,
      "predicts": 4989,
      "gradients": 4990,
      "hypers": 4991,
      "named": 4992,
      "zone": 4993,
      "tom": 4994,
      "conductance": 4995,
      "cdot": 4996,
      "audio": 4997,
      "validity": 4998,
      "molecule": 4999,
      "odinger": 5000,
      "fri": 5001,
      "situation": 5002,
      "acces": 5003,
      "95": 5004,
      "28": 5005,
      "piec": 5006,
      "visible": 5007,
      "nontr": 5008,
      "equip": 5009,
      "away": 5010,
      "fermionic": 5011,
      "300": 5012,
      "supernovae": 5013,
      "decou": 5014,
      "raman": 5015,
      "resis": 5016,
      "extent": 5017,
      "##itation": 5018,
      "undergo": 5019,
      "bif": 5020,
      "generator": 5021,
      "vehicles": 5022,
      "inelastic": 5023,
      "recurrent": 5024,
      "nonlocal": 5025,
      "entr": 5026,
      "suppression": 5027,
      "trapped": 5028,
      "queries": 5029,
      "parabolic": 5030,
      "schwar": 5031,
      "strings": 5032,
      "look": 5033,
      "abstract": 5034,
      "##ders": 5035,
      "iron": 5036,
      "exponentially": 5037,
      "supergr": 5038,
      "##igrou": 5039,
      "confinement": 5040,
      "followed": 5041,
      "prel": 5042,
      "recogn": 5043,
      "essentially": 5044,
      "decoding": 5045,
      "mus": 5046,
      "dirich": 5047,
      "singlet": 5048,
      "##placian": 5049,
      "divergence": 5050,
      "robots": 5051,
      "##oted": 5052,
      "##tine": 5053,
      "subspace": 5054,
      "shall": 5055,
      "##imension": 5056,
      "dirichlet": 5057,
      "plate": 5058,
      "accelerated": 5059,
      "handle": 5060,
      "nanop": 5061,
      "ensure": 5062,
      "polymer": 5063,
      "deduc": 5064,
      "##uk": 5065,
      "consistently": 5066,
      "orb": 5067,
      "designs": 5068,
      "compr": 5069,
      "asp": 5070,
      "laplacian": 5071,
      "gran": 5072,
      "mr": 5073,
      "outside": 5074,
      "##bard": 5075,
      "##point": 5076,
      "port": 5077,
      "examined": 5078,
      "morphology": 5079,
      "intu": 5080,
      "remarkable": 5081,
      "doub": 5082,
      "internet": 5083,
      "spars": 5084,
      "cellular": 5085,
      "##assical": 5086,
      "##ai": 5087,
      "reliability": 5088,
      "experience": 5089,
      "cog": 5090,
      "##ipartite": 5091,
      "arm": 5092,
      "hubbard": 5093,
      "##otop": 5094,
      "variant": 5095,
      "genus": 5096,
      "02": 5097,
      "mirror": 5098,
      "attractive": 5099,
      "500": 5100,
      "fain": 5101,
      "##menting": 5102,
      "keep": 5103,
      "height": 5104,
      "slope": 5105,
      "##erc": 5106,
      "calculus": 5107,
      "why": 5108,
      "##sch": 5109,
      "microscopy": 5110,
      "deliver": 5111,
      "sitter": 5112,
      "##ox": 5113,
      "vertical": 5114,
      "old": 5115,
      "simply": 5116,
      "arithm": 5117,
      "bundles": 5118,
      "70": 5119,
      "diffuse": 5120,
      "soliton": 5121,
      "nontrivial": 5122,
      "mathematic": 5123,
      "once": 5124,
      "damping": 5125,
      "topic": 5126,
      "hu": 5127,
      "membr": 5128,
      "##we": 5129,
      "geometries": 5130,
      "grb": 5131,
      "##ude": 5132,
      "violating": 5133,
      "consequently": 5134,
      "repul": 5135,
      "increasingly": 5136,
      "proofs": 5137,
      "nebul": 5138,
      "independently": 5139,
      "unb": 5140,
      "multivariate": 5141,
      "##quark": 5142,
      "deviations": 5143,
      "obtaining": 5144,
      "complementary": 5145,
      "exponents": 5146,
      "performs": 5147,
      "llms": 5148,
      "overview": 5149,
      "interfaces": 5150,
      "##ighting": 5151,
      "charges": 5152,
      "remn": 5153,
      "descent": 5154,
      "##lab": 5155,
      "personal": 5156,
      "exception": 5157,
      "32": 5158,
      "update": 5159,
      "##igr": 5160,
      "head": 5161,
      "giving": 5162,
      "iot": 5163,
      "validation": 5164,
      "gre": 5165,
      "prelim": 5166,
      "situations": 5167,
      "dissipative": 5168,
      "filtering": 5169,
      "preliminary": 5170,
      "companion": 5171,
      "significance": 5172,
      "semiconductor": 5173,
      "marg": 5174,
      "mutual": 5175,
      "release": 5176,
      "locations": 5177,
      "compress": 5178,
      "clearly": 5179,
      "homotop": 5180,
      "impurity": 5181,
      "leveraging": 5182,
      "##ls": 5183,
      "##40": 5184,
      "manipulation": 5185,
      "bir": 5186,
      "semantics": 5187,
      "peaks": 5188,
      "publicly": 5189,
      "##ker": 5190,
      "nano": 5191,
      "proven": 5192,
      "boltz": 5193,
      "##iol": 5194,
      "downs": 5195,
      "coron": 5196,
      "simulate": 5197,
      "bosonic": 5198,
      "cros": 5199,
      "suppressed": 5200,
      "arrays": 5201,
      "sen": 5202,
      "collaboration": 5203,
      "timing": 5204,
      "combines": 5205,
      "switch": 5206,
      "##axial": 5207,
      "observatory": 5208,
      "substantially": 5209,
      "##umps": 5210,
      "videos": 5211,
      "pipeline": 5212,
      "guarantee": 5213,
      "secure": 5214,
      "carrier": 5215,
      "45": 5216,
      "colour": 5217,
      "boltzmann": 5218,
      "trust": 5219,
      "mostly": 5220,
      "largely": 5221,
      "perc": 5222,
      "individuals": 5223,
      "serve": 5224,
      "multipl": 5225,
      "evaluating": 5226,
      "parton": 5227,
      "optics": 5228,
      "exploring": 5229,
      "majorana": 5230,
      "##ame": 5231,
      "substrate": 5232,
      "representing": 5233,
      "twist": 5234,
      "##hm": 5235,
      "enrich": 5236,
      "ds": 5237,
      "##13": 5238,
      "majority": 5239,
      "##ifications": 5240,
      "distortion": 5241,
      "grain": 5242,
      "grained": 5243,
      "minimization": 5244,
      "quasars": 5245,
      "##ie": 5246,
      "former": 5247,
      "semigrou": 5248,
      "coarse": 5249,
      "leverage": 5250,
      "exotic": 5251,
      "optimize": 5252,
      "phenomenological": 5253,
      "association": 5254,
      "utilize": 5255,
      "contras": 5256,
      "emo": 5257,
      "kerr": 5258,
      "sou": 5259,
      "stages": 5260,
      "tang": 5261,
      "boost": 5262,
      "subgroup": 5263,
      "vul": 5264,
      "pu": 5265,
      "pec": 5266,
      "##aling": 5267,
      "##bar": 5268,
      "generators": 5269,
      "geometrical": 5270,
      "designing": 5271,
      "noncommutative": 5272,
      "sf": 5273,
      "schwarz": 5274,
      "price": 5275,
      "milky": 5276,
      "lifetime": 5277,
      "feasible": 5278,
      "##awa": 5279,
      "##algebr": 5280,
      "adding": 5281,
      "relevance": 5282,
      "##be": 5283,
      "##19": 5284,
      "navig": 5285,
      "prompt": 5286,
      "##izer": 5287,
      "bell": 5288,
      "##enced": 5289,
      "##inity": 5290,
      "numerous": 5291,
      "solitons": 5292,
      "kinematics": 5293,
      "da": 5294,
      "diss": 5295,
      "supergravity": 5296,
      "##16": 5297,
      "wavegu": 5298,
      "hopf": 5299,
      "analyse": 5300,
      "decreasing": 5301,
      "arithmetic": 5302,
      "teach": 5303,
      "fluxes": 5304,
      "##sing": 5305,
      "##ked": 5306,
      "papers": 5307,
      "quoti": 5308,
      "##sibility": 5309,
      "creation": 5310,
      "nit": 5311,
      "manifest": 5312,
      "energe": 5313,
      "environmental": 5314,
      "dro": 5315,
      "mel": 5316,
      "iv": 5317,
      "status": 5318,
      "incorporating": 5319,
      "diameter": 5320,
      "##sively": 5321,
      "##dle": 5322,
      "##alactic": 5323,
      "extinc": 5324,
      "adopted": 5325,
      "controller": 5326,
      "##ensively": 5327,
      "globular": 5328,
      "ann": 5329,
      "transpar": 5330,
      "put": 5331,
      "duration": 5332,
      "##tered": 5333,
      "style": 5334,
      "md": 5335,
      "##ensus": 5336,
      "opposite": 5337,
      "outcomes": 5338,
      "scheduling": 5339,
      "universality": 5340,
      "gaps": 5341,
      "date": 5342,
      "tetr": 5343,
      "##xiv": 5344,
      "inferred": 5345,
      "pay": 5346,
      "ta": 5347,
      "vortices": 5348,
      "subsequent": 5349,
      "annihilation": 5350,
      "replic": 5351,
      "students": 5352,
      "covariant": 5353,
      "working": 5354,
      "ric": 5355,
      "feder": 5356,
      "##18": 5357,
      "deformations": 5358,
      "cour": 5359,
      "throughput": 5360,
      "guided": 5361,
      "aux": 5362,
      "start": 5363,
      "person": 5364,
      "holomorphic": 5365,
      "requiring": 5366,
      "halos": 5367,
      "variants": 5368,
      "expos": 5369,
      "averaged": 5370,
      "vulner": 5371,
      "crossing": 5372,
      "##las": 5373,
      "jointly": 5374,
      "ecc": 5375,
      "##atz": 5376,
      "##static": 5377,
      "##jective": 5378,
      "projected": 5379,
      "hund": 5380,
      "bottom": 5381,
      "03": 5382,
      "esc": 5383,
      "assisted": 5384,
      "arxiv": 5385,
      "latency": 5386,
      "mos": 5387,
      "axion": 5388,
      "skyrm": 5389,
      "surrounding": 5390,
      "ice": 5391,
      "plus": 5392,
      "facilitate": 5393,
      "sums": 5394,
      "filling": 5395,
      "admits": 5396,
      "counterparts": 5397,
      "por": 5398,
      "##zing": 5399,
      "tuned": 5400,
      "wavelengths": 5401,
      "incomp": 5402,
      "susceptibility": 5403,
      "##cing": 5404,
      "pros": 5405,
      "bifurc": 5406,
      "resistance": 5407,
      "unex": 5408,
      "##entioned": 5409,
      "##des": 5410,
      "cf": 5411,
      "##etary": 5412,
      "deformed": 5413,
      "communications": 5414,
      "applicability": 5415,
      "failure": 5416,
      "##acle": 5417,
      "equivari": 5418,
      "wilson": 5419,
      "##iness": 5420,
      "effort": 5421,
      "##tures": 5422,
      "multic": 5423,
      "til": 5424,
      "vic": 5425,
      "33": 5426,
      "distill": 5427,
      "##prec": 5428,
      "##ban": 5429,
      "polyt": 5430,
      "elimin": 5431,
      "dram": 5432,
      "supports": 5433,
      "analogue": 5434,
      "##ding": 5435,
      "proposal": 5436,
      "bus": 5437,
      "decisions": 5438,
      "lengths": 5439,
      "##onses": 5440,
      "fm": 5441,
      "ol": 5442,
      "29": 5443,
      "round": 5444,
      "versions": 5445,
      "apparent": 5446,
      "reasonable": 5447,
      "responses": 5448,
      "monop": 5449,
      "aspect": 5450,
      "neglig": 5451,
      "necessarily": 5452,
      "quasipar": 5453,
      "##oherence": 5454,
      "attempt": 5455,
      "interv": 5456,
      "coex": 5457,
      "##ga": 5458,
      "occurr": 5459,
      "platforms": 5460,
      "##icular": 5461,
      "##bh": 5462,
      "generalizes": 5463,
      "quantized": 5464,
      "##icl": 5465,
      "laboratory": 5466,
      "screening": 5467,
      "luminous": 5468,
      "led": 5469,
      "##irect": 5470,
      "written": 5471,
      "crosso": 5472,
      "cum": 5473,
      "##ink": 5474,
      "finitely": 5475,
      "augmentation": 5476,
      "migr": 5477,
      "##ilde": 5478,
      "contextual": 5479,
      "##o3": 5480,
      "##ey": 5481,
      "compacti": 5482,
      "penal": 5483,
      "envelope": 5484,
      "actual": 5485,
      "helium": 5486,
      "stop": 5487,
      "bipartite": 5488,
      "feasibility": 5489,
      "execution": 5490,
      "2n": 5491,
      "newly": 5492,
      "##bf": 5493,
      "##etch": 5494,
      "exoplan": 5495,
      "reversal": 5496,
      "initially": 5497,
      "accessible": 5498,
      "kle": 5499,
      "micros": 5500,
      "##iliary": 5501,
      "evolving": 5502,
      "losses": 5503,
      "involve": 5504,
      "quick": 5505,
      "iteration": 5506,
      "hat": 5507,
      "anomalies": 5508,
      "interior": 5509,
      "cc": 5510,
      "tilde": 5511,
      "rever": 5512,
      "uncon": 5513,
      "##rob": 5514,
      "recommendation": 5515,
      "sight": 5516,
      "##sities": 5517,
      "mergers": 5518,
      "##ended": 5519,
      "inherent": 5520,
      "representative": 5521,
      "decoder": 5522,
      "encoun": 5523,
      "false": 5524,
      "efforts": 5525,
      "soci": 5526,
      "##ita": 5527,
      "select": 5528,
      "##osphere": 5529,
      "auxiliary": 5530,
      "promin": 5531,
      "##endicular": 5532,
      "share": 5533,
      "sa": 5534,
      "perpendicular": 5535,
      "kernels": 5536,
      "simplified": 5537,
      "cer": 5538,
      "convers": 5539,
      "comment": 5540,
      "minor": 5541,
      "ls": 5542,
      "progen": 5543,
      "clean": 5544,
      "strengths": 5545,
      "divis": 5546,
      "##umann": 5547,
      "##forward": 5548,
      "agree": 5549,
      "causes": 5550,
      "acting": 5551,
      "homotopy": 5552,
      "intervals": 5553,
      "competition": 5554,
      "compton": 5555,
      "greatly": 5556,
      "arc": 5557,
      "financ": 5558,
      "favor": 5559,
      "symbol": 5560,
      "synchronization": 5561,
      "integers": 5562,
      "crow": 5563,
      "versus": 5564,
      "##eth": 5565,
      "##omorphisms": 5566,
      "junction": 5567,
      "##owski": 5568,
      "substit": 5569,
      "constitu": 5570,
      "##amm": 5571,
      "optically": 5572,
      "complexes": 5573,
      "squares": 5574,
      "moderate": 5575,
      "axial": 5576,
      "wavef": 5577,
      "grad": 5578,
      "expensive": 5579,
      "mimo": 5580,
      "##abi": 5581,
      "incorporate": 5582,
      "extremal": 5583,
      "explosion": 5584,
      "ultrav": 5585,
      "##elling": 5586,
      "chand": 5587,
      "extinction": 5588,
      "truth": 5589,
      "imply": 5590,
      "sne": 5591,
      "##ery": 5592,
      "surv": 5593,
      "gan": 5594,
      "triplet": 5595,
      "hypersurf": 5596,
      "cryp": 5597,
      "##schild": 5598,
      "##lind": 5599,
      "charm": 5600,
      "obst": 5601,
      "neumann": 5602,
      "remaining": 5603,
      "adjac": 5604,
      "progenit": 5605,
      "algorithmic": 5606,
      "exclud": 5607,
      "##erve": 5608,
      "private": 5609,
      "shif": 5610,
      "crossover": 5611,
      "##70": 5612,
      "ten": 5613,
      "tackle": 5614,
      "forecasting": 5615,
      "accum": 5616,
      "interpolation": 5617,
      "downstream": 5618,
      "baselines": 5619,
      "##iolet": 5620,
      "##ifies": 5621,
      "decoherence": 5622,
      "concern": 5623,
      "producing": 5624,
      "ultraviolet": 5625,
      "counterpart": 5626,
      "negligible": 5627,
      "probing": 5628,
      "aggregation": 5629,
      "strictly": 5630,
      "marginal": 5631,
      "activation": 5632,
      "developments": 5633,
      "treated": 5634,
      "expanding": 5635,
      "demonstrating": 5636,
      "team": 5637,
      "behind": 5638,
      "##ompan": 5639,
      "tm": 5640,
      "dialog": 5641,
      "procedures": 5642,
      "attain": 5643,
      "filters": 5644,
      "quasar": 5645,
      "aligned": 5646,
      "indices": 5647,
      "##layer": 5648,
      "accompan": 5649,
      "##own": 5650,
      "multimodal": 5651,
      "landsc": 5652,
      "randomly": 5653,
      "##une": 5654,
      "augmented": 5655,
      "illustrated": 5656,
      "empirically": 5657,
      "fits": 5658,
      "financial": 5659,
      "rs": 5660,
      "minimize": 5661,
      "04": 5662,
      "drive": 5663,
      "instabilities": 5664,
      "minimizing": 5665,
      "consideration": 5666,
      "complicated": 5667,
      "onset": 5668,
      "unus": 5669,
      "observing": 5670,
      "trend": 5671,
      "squee": 5672,
      "converges": 5673,
      "##ented": 5674,
      "benefit": 5675,
      "backward": 5676,
      "gc": 5677,
      "sdss": 5678,
      "peculi": 5679,
      "##vin": 5680,
      "requirement": 5681,
      "reserv": 5682,
      "flare": 5683,
      "##istry": 5684,
      "du": 5685,
      "federated": 5686,
      "equivariant": 5687,
      "##crib": 5688,
      "36": 5689,
      "satur": 5690,
      "outcome": 5691,
      "quantity": 5692,
      "fuzz": 5693,
      "sparsity": 5694,
      "considerable": 5695,
      "induce": 5696,
      "newtonian": 5697,
      "##ovi": 5698,
      "##rotron": 5699,
      "throughout": 5700,
      "fairness": 5701,
      "defining": 5702,
      "percent": 5703,
      "75": 5704,
      "contained": 5705,
      "sv": 5706,
      "posit": 5707,
      "banach": 5708,
      "ferro": 5709,
      "hundred": 5710,
      "rout": 5711,
      "powers": 5712,
      "adjoint": 5713,
      "kepler": 5714,
      "##anes": 5715,
      "multiplicity": 5716,
      "nanopar": 5717,
      "pulsars": 5718,
      "stim": 5719,
      "gates": 5720,
      "scanning": 5721,
      "##ads": 5722,
      "graded": 5723,
      "suffer": 5724,
      "qualitatively": 5725,
      "physically": 5726,
      "receiver": 5727,
      "superv": 5728,
      "indirect": 5729,
      "##oscop": 5730,
      "##imal": 5731,
      "skew": 5732,
      "tag": 5733,
      "clar": 5734,
      "propagating": 5735,
      "shaped": 5736,
      "synchrotron": 5737,
      "neighborhood": 5738,
      "prototype": 5739,
      "ign": 5740,
      "jose": 5741,
      "valence": 5742,
      "learns": 5743,
      "machines": 5744,
      "granular": 5745,
      "tunable": 5746,
      "focuses": 5747,
      "infras": 5748,
      "dimensionality": 5749,
      "##onsist": 5750,
      "characterizing": 5751,
      "remote": 5752,
      "##ospheric": 5753,
      "overhead": 5754,
      "saturation": 5755,
      "##day": 5756,
      "innov": 5757,
      "chaos": 5758,
      "prog": 5759,
      "alone": 5760,
      "extrap": 5761,
      "guide": 5762,
      "joseph": 5763,
      "usage": 5764,
      "ensembles": 5765,
      "faint": 5766,
      "added": 5767,
      "viscous": 5768,
      "deployment": 5769,
      "bases": 5770,
      "exciton": 5771,
      "patients": 5772,
      "ling": 5773,
      "compens": 5774,
      "##uning": 5775,
      "##enet": 5776,
      "compounds": 5777,
      "hex": 5778,
      "arbitrarily": 5779,
      "comes": 5780,
      "cogni": 5781,
      "surprisingly": 5782,
      "arrang": 5783,
      "percolation": 5784,
      "contrastive": 5785,
      "intelligent": 5786,
      "addressed": 5787,
      "comparisons": 5788,
      "fragmentation": 5789,
      "assembly": 5790,
      "yr": 5791,
      "##chitz": 5792,
      "normalized": 5793,
      "dramatic": 5794,
      "antenna": 5795,
      "dl": 5796,
      "##iclassical": 5797,
      "alternating": 5798,
      "geodesic": 5799,
      "margin": 5800,
      "##eding": 5801,
      "identities": 5802,
      "calculating": 5803,
      "fractions": 5804,
      "lips": 5805,
      "##ubes": 5806,
      "biom": 5807,
      "affects": 5808,
      "subsets": 5809,
      "remarkably": 5810,
      "condensation": 5811,
      "plasm": 5812,
      "attributes": 5813,
      "combinations": 5814,
      "##aining": 5815,
      "render": 5816,
      "seems": 5817,
      "dna": 5818,
      "conclusions": 5819,
      "message": 5820,
      "irradi": 5821,
      "histor": 5822,
      "except": 5823,
      "outburst": 5824,
      "##unov": 5825,
      "99": 5826,
      "controlling": 5827,
      "susp": 5828,
      "toler": 5829,
      "##dr": 5830,
      "coronal": 5831,
      "primarily": 5832,
      "triangular": 5833,
      "##ovian": 5834,
      "genetic": 5835,
      "##cr": 5836,
      "spanning": 5837,
      "received": 5838,
      "discrepancy": 5839,
      "cylind": 5840,
      "josephson": 5841,
      "##dm": 5842,
      "triple": 5843,
      "imper": 5844,
      "practic": 5845,
      "master": 5846,
      "verified": 5847,
      "trends": 5848,
      "mp": 5849,
      "optimizing": 5850,
      "identif": 5851,
      "his": 5852,
      "lesssim": 5853,
      "spheres": 5854,
      "bath": 5855,
      "##ung": 5856,
      "outputs": 5857,
      "package": 5858,
      "cancer": 5859,
      "activities": 5860,
      "cognitive": 5861,
      "quantitatively": 5862,
      "uav": 5863,
      "spi": 5864,
      "##ush": 5865,
      "crypt": 5866,
      "degeneracy": 5867,
      "interven": 5868,
      "az": 5869,
      "ingr": 5870,
      "until": 5871,
      "##eq": 5872,
      "cn": 5873,
      "mining": 5874,
      "zer": 5875,
      "fluids": 5876,
      "lipschitz": 5877,
      "completion": 5878,
      "38": 5879,
      "consensus": 5880,
      "34": 5881,
      "utilized": 5882,
      "decent": 5883,
      "validated": 5884,
      "injection": 5885,
      "##eres": 5886,
      "repor": 5887,
      "##dynamics": 5888,
      "isomorphic": 5889,
      "##hler": 5890,
      "##coming": 5891,
      "##len": 5892,
      "subgroups": 5893,
      "poinc": 5894,
      "properly": 5895,
      "shocks": 5896,
      "evaluations": 5897,
      "h2": 5898,
      "curved": 5899,
      "telescopes": 5900,
      "occurrence": 5901,
      "flexibility": 5902,
      "fault": 5903,
      "cooperative": 5904,
      "ranking": 5905,
      "grains": 5906,
      "ecl": 5907,
      "##unch": 5908,
      "unbound": 5909,
      "##hol": 5910,
      "solvable": 5911,
      "##23": 5912,
      "crystalline": 5913,
      "neverth": 5914,
      "##11": 5915,
      "ho": 5916,
      "humans": 5917,
      "##imet": 5918,
      "nevertheless": 5919,
      "##going": 5920,
      "subsequently": 5921,
      "sob": 5922,
      "klein": 5923,
      "##oir": 5924,
      "##fe": 5925,
      "interactive": 5926,
      "##uctions": 5927,
      "lam": 5928,
      "realize": 5929,
      "randomized": 5930,
      "inconsist": 5931,
      "shor": 5932,
      "difficulty": 5933,
      "attributed": 5934,
      "nil": 5935,
      "disturb": 5936,
      "##iors": 5937,
      "cart": 5938,
      "##ales": 5939,
      "cach": 5940,
      "relate": 5941,
      "37": 5942,
      "friction": 5943,
      "classifiers": 5944,
      "##ondo": 5945,
      "functionals": 5946,
      "gauss": 5947,
      "considers": 5948,
      "circle": 5949,
      "fractal": 5950,
      "maintaining": 5951,
      "specified": 5952,
      "heteros": 5953,
      "enabled": 5954,
      "walks": 5955,
      "ru": 5956,
      "nonlinearity": 5957,
      "##oor": 5958,
      "ferromagn": 5959,
      "##bm": 5960,
      "##ale": 5961,
      "applies": 5962,
      "cft": 5963,
      "walls": 5964,
      "initio": 5965,
      "antic": 5966,
      "determines": 5967,
      "kinds": 5968,
      "converge": 5969,
      "mediated": 5970,
      "thor": 5971,
      "intra": 5972,
      "##ionization": 5973,
      "adapted": 5974,
      "junctions": 5975,
      "ricci": 5976,
      "ingredi": 5977,
      "illum": 5978,
      "quadrup": 5979,
      "monotonic": 5980,
      "resolve": 5981,
      "44": 5982,
      "##bilities": 5983,
      "##actable": 5984,
      "ambigu": 5985,
      "routing": 5986,
      "valuable": 5987,
      "refr": 5988,
      "##ested": 5989,
      "##apunov": 5990,
      "arcs": 5991,
      "induces": 5992,
      "anne": 5993,
      "implementations": 5994,
      "choices": 5995,
      "seem": 5996,
      "spacetimes": 5997,
      "server": 5998,
      "##box": 5999,
      "mink": 6000,
      "pn": 6001,
      "sg": 6002,
      "clim": 6003,
      "cdm": 6004,
      "pm0": 6005,
      "decades": 6006,
      "##ativity": 6007,
      "scores": 6008,
      "news": 6009,
      "constructions": 6010,
      "ideals": 6011,
      "conduction": 6012,
      "centr": 6013,
      "cav": 6014,
      "modifications": 6015,
      "ambient": 6016,
      "##hat": 6017,
      "bilayer": 6018,
      "centers": 6019,
      "lyapunov": 6020,
      "oscillators": 6021,
      "templ": 6022,
      "perception": 6023,
      "ech": 6024,
      "eccentric": 6025,
      "kondo": 6026,
      "creating": 6027,
      "epid": 6028,
      "fock": 6029,
      "eight": 6030,
      "##ank": 6031,
      "##imination": 6032,
      "explanations": 6033,
      "##zero": 6034,
      "inertial": 6035,
      "topics": 6036,
      "##chain": 6037,
      "interact": 6038,
      "##print": 6039,
      "subgraph": 6040,
      "convection": 6041,
      "deno": 6042,
      "distant": 6043,
      "gh": 6044,
      "ze": 6045,
      "##log": 6046,
      "jacobi": 6047,
      "superm": 6048,
      "infinitely": 6049,
      "subt": 6050,
      "roughly": 6051,
      "navier": 6052,
      "haw": 6053,
      "ansatz": 6054,
      "elliptical": 6055,
      "chandra": 6056,
      "captured": 6057,
      "dependencies": 6058,
      "##atest": 6059,
      "squared": 6060,
      "mild": 6061,
      "##ashion": 6062,
      "##phi": 6063,
      "road": 6064,
      "##seen": 6065,
      "sust": 6066,
      "reservoir": 6067,
      "leak": 6068,
      "home": 6069,
      "multip": 6070,
      "39": 6071,
      "##min": 6072,
      "inclusive": 6073,
      "spectro": 6074,
      "passive": 6075,
      "##eled": 6076,
      "bridge": 6077,
      "decentral": 6078,
      "tomography": 6079,
      "snr": 6080,
      "43": 6081,
      "frustr": 6082,
      "warm": 6083,
      "fp": 6084,
      "biased": 6085,
      "lies": 6086,
      "##adow": 6087,
      "gyr": 6088,
      "concerns": 6089,
      "fis": 6090,
      "ts": 6091,
      "expansions": 6092,
      "##olev": 6093,
      "equipped": 6094,
      "simeq": 6095,
      "cv": 6096,
      "##igner": 6097,
      "nanow": 6098,
      "fashion": 6099,
      "##etry": 6100,
      "discretization": 6101,
      "hypothes": 6102,
      "frameworks": 6103,
      "solver": 6104,
      "proximity": 6105,
      "investigating": 6106,
      "economic": 6107,
      "nanot": 6108,
      "proving": 6109,
      "rh": 6110,
      "##equilibrium": 6111,
      "semiclassical": 6112,
      "resistivity": 6113,
      "jus": 6114,
      "pairwise": 6115,
      "bb": 6116,
      "ranges": 6117,
      "sobolev": 6118,
      "permutation": 6119,
      "##regular": 6120,
      "answering": 6121,
      "statistically": 6122,
      "##itch": 6123,
      "linked": 6124,
      "##iom": 6125,
      "pretr": 6126,
      "centre": 6127,
      "eth": 6128,
      "educ": 6129,
      "items": 6130,
      "bud": 6131,
      "##lat": 6132,
      "ti": 6133,
      "bubble": 6134,
      "wigner": 6135,
      "tends": 6136,
      "optimality": 6137,
      "65": 6138,
      "##ius": 6139,
      "volati": 6140,
      "asymmetr": 6141,
      "participants": 6142,
      "continuously": 6143,
      "kr": 6144,
      "aa": 6145,
      "corpus": 6146,
      "separable": 6147,
      "##positions": 6148,
      "perturbed": 6149,
      "viewed": 6150,
      "qed": 6151,
      "##roid": 6152,
      "incident": 6153,
      "jup": 6154,
      "knot": 6155,
      "##land": 6156,
      "lag": 6157,
      "multiplicative": 6158,
      "maximize": 6159,
      "integrating": 6160,
      "##down": 6161,
      "##ca": 6162,
      "come": 6163,
      "dp": 6164,
      "notions": 6165,
      "tiss": 6166,
      "restor": 6167,
      "hamiltonians": 6168,
      "recomb": 6169,
      "##ying": 6170,
      "bs": 6171,
      "emergent": 6172,
      "straightforward": 6173,
      "thought": 6174,
      "markovian": 6175,
      "tum": 6176,
      "##rete": 6177,
      "metals": 6178,
      "industrial": 6179,
      "balanced": 6180,
      "globally": 6181,
      "opportunities": 6182,
      "filament": 6183,
      "jump": 6184,
      "actually": 6185,
      "biases": 6186,
      "bodies": 6187,
      "198": 6188,
      "operational": 6189,
      "alle": 6190,
      "layered": 6191,
      "mhd": 6192,
      "sentence": 6193,
      "deb": 6194,
      "contrary": 6195,
      "displacement": 6196,
      "coc": 6197,
      "table": 6198,
      "opin": 6199,
      "bra": 6200,
      "entity": 6201,
      "aper": 6202,
      "navigation": 6203,
      "blow": 6204,
      "opens": 6205,
      "chemistry": 6206,
      "emphasis": 6207,
      "01": 6208,
      "##gm": 6209,
      "independence": 6210,
      "nonzero": 6211,
      "##itions": 6212,
      "concurr": 6213,
      "##ounts": 6214,
      "reflect": 6215,
      "##ano": 6216,
      "monolayer": 6217,
      "letter": 6218,
      "micron": 6219,
      "cumul": 6220,
      "otherwise": 6221,
      "##erson": 6222,
      "ultim": 6223,
      "ergodic": 6224,
      "coexist": 6225,
      "##orrel": 6226,
      "closure": 6227,
      "imbal": 6228,
      "enhancing": 6229,
      "reconstructed": 6230,
      "rele": 6231,
      "segment": 6232,
      "captures": 6233,
      "batch": 6234,
      "covers": 6235,
      "industry": 6236,
      "membrane": 6237,
      "##cur": 6238,
      "investigations": 6239,
      "##rog": 6240,
      "##umer": 6241,
      "schwarzschild": 6242,
      "diagnosis": 6243,
      "horizontal": 6244,
      "trial": 6245,
      "cascade": 6246,
      "coh": 6247,
      "supporting": 6248,
      "fem": 6249,
      "ter": 6250,
      "admit": 6251,
      "vicinity": 6252,
      "streaming": 6253,
      "entities": 6254,
      "determinant": 6255,
      "##encod": 6256,
      "##lor": 6257,
      "##osing": 6258,
      "lumino": 6259,
      "urban": 6260,
      "##joint": 6261,
      "um": 6262,
      "##ipro": 6263,
      "luminosities": 6264,
      "2020": 6265,
      "speaker": 6266,
      "06": 6267,
      "flares": 6268,
      "gases": 6269,
      "peculiar": 6270,
      "classified": 6271,
      "adsor": 6272,
      "fuzzy": 6273,
      "sfr": 6274,
      "shadow": 6275,
      "starburst": 6276,
      "library": 6277,
      "##ewise": 6278,
      "unseen": 6279,
      "##cribed": 6280,
      "##oelectric": 6281,
      "mhz": 6282,
      "##ously": 6283,
      "mott": 6284,
      "##ille": 6285,
      "tot": 6286,
      "addresses": 6287,
      "condensates": 6288,
      "bon": 6289,
      "gaia": 6290,
      "communities": 6291,
      "refinement": 6292,
      "dich": 6293,
      "nonequilibrium": 6294,
      "happ": 6295,
      "##ogram": 6296,
      "landscape": 6297,
      "##wh": 6298,
      "55": 6299,
      "hst": 6300,
      "cus": 6301,
      "acquis": 6302,
      "autoencod": 6303,
      "crowd": 6304,
      "million": 6305,
      "minkowski": 6306,
      "descriptions": 6307,
      "##elves": 6308,
      "ionized": 6309,
      "##plets": 6310,
      "##pass": 6311,
      "##ancing": 6312,
      "dy": 6313,
      "colors": 6314,
      "student": 6315,
      "incl": 6316,
      "attribute": 6317,
      "susy": 6318,
      "##inting": 6319,
      "redund": 6320,
      "effic": 6321,
      "##ires": 6322,
      "amounts": 6323,
      "standing": 6324,
      "exceptional": 6325,
      "disent": 6326,
      "shallow": 6327,
      "overline": 6328,
      "countr": 6329,
      "objectives": 6330,
      "boole": 6331,
      "atlas": 6332,
      "##oul": 6333,
      "diamond": 6334,
      "conserved": 6335,
      "contam": 6336,
      "governed": 6337,
      "fourth": 6338,
      "momenta": 6339,
      "strange": 6340,
      "asymptotics": 6341,
      "seven": 6342,
      "extensively": 6343,
      "cupr": 6344,
      "##ued": 6345,
      "considerably": 6346,
      "evolve": 6347,
      "satisfied": 6348,
      "##otes": 6349,
      "som": 6350,
      "prominent": 6351,
      "##ean": 6352,
      "insulators": 6353,
      "ln": 6354,
      "##oking": 6355,
      "born": 6356,
      "migration": 6357,
      "scalability": 6358,
      "##fications": 6359,
      "knots": 6360,
      "centered": 6361,
      "averaging": 6362,
      "my": 6363,
      "compressed": 6364,
      "##aments": 6365,
      "rr": 6366,
      "automata": 6367,
      "achievable": 6368,
      "imaginary": 6369,
      "corrected": 6370,
      "hz": 6371,
      "tal": 6372,
      "myr": 6373,
      "adopt": 6374,
      "##omplete": 6375,
      "similarly": 6376,
      "nom": 6377,
      "dedic": 6378,
      "axiom": 6379,
      "##uation": 6380,
      "coming": 6381,
      "justi": 6382,
      "regularized": 6383,
      "parameterized": 6384,
      "##ighter": 6385,
      "lem": 6386,
      "ped": 6387,
      "bulge": 6388,
      "boolean": 6389,
      "emitted": 6390,
      "nov": 6391,
      "subsystem": 6392,
      "degrad": 6393,
      "##potent": 6394,
      "2018": 6395,
      "##edy": 6396,
      "irregular": 6397,
      "mot": 6398,
      "plau": 6399,
      "jo": 6400,
      "hypergraph": 6401,
      "gene": 6402,
      "##icities": 6403,
      "hydrodynamics": 6404,
      "rgb": 6405,
      "patient": 6406,
      "infrastructure": 6407,
      "increment": 6408,
      "logical": 6409,
      "competing": 6410,
      "##apor": 6411,
      "backgrounds": 6412,
      "differentiable": 6413,
      "nlp": 6414,
      "organic": 6415,
      "diffe": 6416,
      "widths": 6417,
      "diffusive": 6418,
      "outflows": 6419,
      "persistent": 6420,
      "oxide": 6421,
      "simpler": 6422,
      "attach": 6423,
      "##irable": 6424,
      "gpu": 6425,
      "dnn": 6426,
      "chec": 6427,
      "belief": 6428,
      "multis": 6429,
      "##ivers": 6430,
      "efficacy": 6431,
      "##bur": 6432,
      "mri": 6433,
      "2017": 6434,
      "bill": 6435,
      "resid": 6436,
      "partitions": 6437,
      "##arr": 6438,
      "##ropies": 6439,
      "proce": 6440,
      "suff": 6441,
      "imposed": 6442,
      "merging": 6443,
      "dft": 6444,
      "continuity": 6445,
      "chip": 6446,
      "median": 6447,
      "meaningful": 6448,
      "transmit": 6449,
      "unbounded": 6450,
      "infl": 6451,
      "cauch": 6452,
      "2015": 6453,
      "decon": 6454,
      "packet": 6455,
      "bern": 6456,
      "smallest": 6457,
      "span": 6458,
      "weaker": 6459,
      "english": 6460,
      "monotone": 6461,
      "2019": 6462,
      "##imensional": 6463,
      "metast": 6464,
      "correctly": 6465,
      "ldots": 6466,
      "##nection": 6467,
      "relay": 6468,
      "texts": 6469,
      "mitigate": 6470,
      "cauchy": 6471,
      "metam": 6472,
      "allevi": 6473,
      "##icing": 6474,
      "pool": 6475,
      "bring": 6476,
      "##ental": 6477,
      "pan": 6478,
      "extracting": 6479,
      "unusual": 6480,
      "grbs": 6481,
      "dedicated": 6482,
      "##ovsk": 6483,
      "varphi": 6484,
      "varies": 6485,
      "##oscopic": 6486,
      "encoded": 6487,
      "transforms": 6488,
      "counts": 6489,
      "gains": 6490,
      "distillation": 6491,
      "safe": 6492,
      "pole": 6493,
      "db": 6494,
      "##lity": 6495,
      "performances": 6496,
      "sampled": 6497,
      "msun": 6498,
      "drag": 6499,
      "##mer": 6500,
      "##weight": 6501,
      "helps": 6502,
      "resem": 6503,
      "bid": 6504,
      "mt": 6505,
      "annotated": 6506,
      "##char": 6507,
      "quar": 6508,
      "expert": 6509,
      "reality": 6510,
      "flavour": 6511,
      "85": 6512,
      "##utive": 6513,
      "probes": 6514,
      "formulae": 6515,
      "decentralized": 6516,
      "##exts": 6517,
      "yielding": 6518,
      "bc": 6519,
      "implementing": 6520,
      "today": 6521,
      "lig": 6522,
      "observer": 6523,
      "torque": 6524,
      "quickly": 6525,
      "generalizations": 6526,
      "##ois": 6527,
      "ha": 6528,
      "lym": 6529,
      "simplest": 6530,
      "enumer": 6531,
      "acquisition": 6532,
      "selective": 6533,
      "priori": 6534,
      "concrete": 6535,
      "vibrational": 6536,
      "isomorphism": 6537,
      "sb": 6538,
      "##erman": 6539,
      "##ellation": 6540,
      "##sl": 6541,
      "visualization": 6542,
      "valley": 6543,
      "42": 6544,
      "##imir": 6545,
      "chir": 6546,
      "carefully": 6547,
      "150": 6548,
      "placed": 6549,
      "normalization": 6550,
      "supervision": 6551,
      "recombination": 6552,
      "electrostatic": 6553,
      "simons": 6554,
      "fisher": 6555,
      "grows": 6556,
      "emitting": 6557,
      "##ats": 6558,
      "adic": 6559,
      "notably": 6560,
      "recorded": 6561,
      "heterogeneity": 6562,
      "nebula": 6563,
      "historical": 6564,
      "annotations": 6565,
      "offline": 6566,
      "##ayers": 6567,
      "approximated": 6568,
      "inflationary": 6569,
      "##ancies": 6570,
      "trapping": 6571,
      "emerge": 6572,
      "searching": 6573,
      "##ospin": 6574,
      "##thern": 6575,
      "decaying": 6576,
      "2016": 6577,
      "##inite": 6578,
      "cutoff": 6579,
      "transit": 6580,
      "succes": 6581,
      "fb": 6582,
      "enter": 6583,
      "utilizes": 6584,
      "##omer": 6585,
      "incorporates": 6586,
      "tensors": 6587,
      "casimir": 6588,
      "interpretable": 6589,
      "movement": 6590,
      "##elled": 6591,
      "08": 6592,
      "modulus": 6593,
      "strati": 6594,
      "energetic": 6595,
      "course": 6596,
      "48": 6597,
      "subtr": 6598,
      "goes": 6599,
      "unlab": 6600,
      "##ryp": 6601,
      "collaborative": 6602,
      "##cales": 6603,
      "fa": 6604,
      "preserve": 6605,
      "cnns": 6606,
      "gib": 6607,
      "thanks": 6608,
      "##osting": 6609,
      "ka": 6610,
      "blaz": 6611,
      "gro": 6612,
      "quenched": 6613,
      "exposure": 6614,
      "nb": 6615,
      "contexts": 6616,
      "ultrac": 6617,
      "topologically": 6618,
      "laplace": 6619,
      "eigenst": 6620,
      "don": 6621,
      "07": 6622,
      "1000": 6623,
      "bis": 6624,
      "superposition": 6625,
      "firstly": 6626,
      "##me": 6627,
      "interestingly": 6628,
      "baryons": 6629,
      "##ody": 6630,
      "hc": 6631,
      "thorough": 6632,
      "##ert": 6633,
      "mask": 6634,
      "modulated": 6635,
      "avoiding": 6636,
      "choose": 6637,
      "escape": 6638,
      "graphical": 6639,
      "conflic": 6640,
      "multid": 6641,
      "separately": 6642,
      "restriction": 6643,
      "##ulating": 6644,
      "frequently": 6645,
      "400": 6646,
      "gp": 6647,
      "recovered": 6648,
      "recursive": 6649,
      "forest": 6650,
      "lst": 6651,
      "poses": 6652,
      "silic": 6653,
      "que": 6654,
      "accounts": 6655,
      "##nas": 6656,
      "quotient": 6657,
      "##urs": 6658,
      "toric": 6659,
      "##manifold": 6660,
      "nematic": 6661,
      "##ki": 6662,
      "importantly": 6663,
      "neurons": 6664,
      "passing": 6665,
      "shed": 6666,
      "blockchain": 6667,
      "eventually": 6668,
      "forcing": 6669,
      "addressing": 6670,
      "conjectured": 6671,
      "classic": 6672,
      "worst": 6673,
      "insulating": 6674,
      "degradation": 6675,
      "occurring": 6676,
      "4d": 6677,
      "yau": 6678,
      "reaching": 6679,
      "09": 6680,
      "respective": 6681,
      "hopping": 6682,
      "##etism": 6683,
      "dd": 6684,
      "timescale": 6685,
      "56": 6686,
      "threat": 6687,
      "commut": 6688,
      "helicity": 6689,
      "polarit": 6690,
      "ubi": 6691,
      "viable": 6692,
      "lf": 6693,
      "symbolic": 6694,
      "##sis": 6695,
      "2012": 6696,
      "texture": 6697,
      "acts": 6698,
      "annotation": 6699,
      "dependency": 6700,
      "bifurcation": 6701,
      "availability": 6702,
      "31": 6703,
      "deuter": 6704,
      "##stand": 6705,
      "chap": 6706,
      "regret": 6707,
      "2m": 6708,
      "emerged": 6709,
      "##quet": 6710,
      "##olved": 6711,
      "pyth": 6712,
      "doppler": 6713,
      "incomplete": 6714,
      "ubiqu": 6715,
      "yuk": 6716,
      "reverse": 6717,
      "##33": 6718,
      "goals": 6719,
      "2010": 6720,
      "suited": 6721,
      "##ords": 6722,
      "##sf": 6723,
      "##izability": 6724,
      "protons": 6725,
      "thous": 6726,
      "antiferromagn": 6727,
      "considerations": 6728,
      "haus": 6729,
      "impacts": 6730,
      "asymmetries": 6731,
      "quad": 6732,
      "waveguide": 6733,
      "eigenf": 6734,
      "interpol": 6735,
      "##obs": 6736,
      "slowly": 6737,
      "##aly": 6738,
      "##dor": 6739,
      "47": 6740,
      "nanoparticles": 6741,
      "satellites": 6742,
      "analysed": 6743,
      "pum": 6744,
      "winds": 6745,
      "46": 6746,
      "evolved": 6747,
      "players": 6748,
      "bits": 6749,
      "deployed": 6750,
      "repeated": 6751,
      "restrictions": 6752,
      "uncover": 6753,
      "##oli": 6754,
      "directional": 6755,
      "magnitudes": 6756,
      "##itable": 6757,
      "skill": 6758,
      "azim": 6759,
      "leverages": 6760,
      "##izers": 6761,
      "foundation": 6762,
      "reached": 6763,
      "interferometer": 6764,
      "##ster": 6765,
      "##ploys": 6766,
      "##ydro": 6767,
      "spatio": 6768,
      "mixtures": 6769,
      "##pto": 6770,
      "updates": 6771,
      "azimuth": 6772,
      "ages": 6773,
      "semimet": 6774,
      "spherically": 6775,
      "pump": 6776,
      "##adily": 6777,
      "orbifold": 6778,
      "##biased": 6779,
      "lying": 6780,
      "td": 6781,
      "sized": 6782,
      "remnant": 6783,
      "yukawa": 6784,
      "feyn": 6785,
      "positron": 6786,
      "2000": 6787,
      "triangle": 6788,
      "##pected": 6789,
      "answers": 6790,
      "##matic": 6791,
      "guid": 6792,
      "assignment": 6793,
      "lith": 6794,
      "establishing": 6795,
      "instruments": 6796,
      "projections": 6797,
      "##process": 6798,
      "2011": 6799,
      "difficulties": 6800,
      "xmm": 6801,
      "era": 6802,
      "encour": 6803,
      "integrate": 6804,
      "rangle": 6805,
      "artif": 6806,
      "polyg": 6807,
      "rect": 6808,
      "adjacent": 6809,
      "foreg": 6810,
      "updated": 6811,
      "protected": 6812,
      "climate": 6813,
      "expectations": 6814,
      "clock": 6815,
      "thems": 6816,
      "schro": 6817,
      "scenes": 6818,
      "##pings": 6819,
      "facial": 6820,
      "generalizing": 6821,
      "batter": 6822,
      "comparative": 6823,
      "timescales": 6824,
      "subspaces": 6825,
      "themselves": 6826,
      "scattered": 6827,
      "lid": 6828,
      "raw": 6829,
      "##harmonic": 6830,
      "amplification": 6831,
      "commerc": 6832,
      "hadrons": 6833,
      "colliders": 6834,
      "von": 6835,
      "referred": 6836,
      "unprec": 6837,
      "experts": 6838,
      "##ender": 6839,
      "possibilities": 6840,
      "discontinuous": 6841,
      "lyman": 6842,
      "spectrom": 6843,
      "detections": 6844,
      "sentim": 6845,
      "##omy": 6846,
      "survival": 6847,
      "64": 6848,
      "spot": 6849,
      "documents": 6850,
      "reform": 6851,
      "prospects": 6852,
      "hear": 6853,
      "cylindr": 6854,
      "##rupt": 6855,
      "##anic": 6856,
      "truncated": 6857,
      "stiff": 6858,
      "stabilization": 6859,
      "capturing": 6860,
      "oct": 6861,
      "reviewed": 6862,
      "unpreced": 6863,
      "planes": 6864,
      "latest": 6865,
      "galois": 6866,
      "fabric": 6867,
      "thom": 6868,
      "##cu": 6869,
      "##ermal": 6870,
      "organization": 6871,
      "##echanical": 6872,
      "neither": 6873,
      "primitive": 6874,
      "repulsive": 6875,
      "electrodynamics": 6876,
      "employs": 6877,
      "condensed": 6878,
      "##itous": 6879,
      "maximization": 6880,
      "nons": 6881,
      "route": 6882,
      "accounting": 6883,
      "views": 6884,
      "##ilinear": 6885,
      "filaments": 6886,
      "modalities": 6887,
      "##osyn": 6888,
      "sheet": 6889,
      "probably": 6890,
      "foreground": 6891,
      "characters": 6892,
      "plastic": 6893,
      "reproduced": 6894,
      "piecewise": 6895,
      "unprecedented": 6896,
      "##tition": 6897,
      "bim": 6898,
      "simulating": 6899,
      "##sed": 6900,
      "##wa": 6901,
      "pred": 6902,
      "doubly": 6903,
      "##ened": 6904,
      "priors": 6905,
      "witten": 6906,
      "##25": 6907,
      "devel": 6908,
      "discs": 6909,
      "grown": 6910,
      "##oil": 6911,
      "hours": 6912,
      "##urities": 6913,
      "2014": 6914,
      "##ouv": 6915,
      "##jects": 6916,
      "conceptual": 6917,
      "demonstration": 6918,
      "##raft": 6919,
      "lad": 6920,
      "controls": 6921,
      "things": 6922,
      "##aterial": 6923,
      "emerges": 6924,
      "player": 6925,
      "intensive": 6926,
      "##ball": 6927,
      "adequ": 6928,
      "zeros": 6929,
      "broadband": 6930,
      "sgr": 6931,
      "feynman": 6932,
      "nir": 6933,
      "##chron": 6934,
      "##poses": 6935,
      "##dorff": 6936,
      "96": 6937,
      "developer": 6938,
      "##oscal": 6939,
      "flip": 6940,
      "##elet": 6941,
      "quasiparticle": 6942,
      "emit": 6943,
      "drawn": 6944,
      "incompressible": 6945,
      "fewer": 6946,
      "plann": 6947,
      "times10": 6948,
      "labeling": 6949,
      "astero": 6950,
      "projects": 6951,
      "pand": 6952,
      "##ered": 6953,
      "reports": 6954,
      "smoothing": 6955,
      "decade": 6956,
      "steep": 6957,
      "explains": 6958,
      "##ele": 6959,
      "##31": 6960,
      "millimeter": 6961,
      "zh": 6962,
      "definite": 6963,
      "sed": 6964,
      "south": 6965,
      "item": 6966,
      "conservative": 6967,
      "spreading": 6968,
      "cyber": 6969,
      "denote": 6970,
      "manual": 6971,
      "phonons": 6972,
      "##uistic": 6973,
      "bottlen": 6974,
      "hausdorff": 6975,
      "##eller": 6976,
      "calabi": 6977,
      "matched": 6978,
      "##fold": 6979,
      "##irection": 6980,
      "zn": 6981,
      "##essel": 6982,
      "unbiased": 6983,
      "preferences": 6984,
      "foot": 6985,
      "##ini": 6986,
      "##encing": 6987,
      "2013": 6988,
      "67": 6989,
      "ongoing": 6990,
      "return": 6991,
      "huge": 6992,
      "shorter": 6993,
      "anderson": 6994,
      "finger": 6995,
      "intense": 6996,
      "exhibiting": 6997,
      "denoising": 6998,
      "hawking": 6999,
      "##rogen": 7000,
      "nd": 7001,
      "mini": 7002,
      "##riting": 7003,
      "synt": 7004,
      "##com": 7005,
      "shifted": 7006,
      "##iable": 7007,
      "conducting": 7008,
      "pron": 7009,
      "win": 7010,
      "liquids": 7011,
      "relying": 7012,
      "runs": 7013,
      "unexpected": 7014,
      "budget": 7015,
      "beamform": 7016,
      "##cription": 7017,
      "europ": 7018,
      "morphological": 7019,
      "prevent": 7020,
      "music": 7021,
      "accompanied": 7022,
      "automorphism": 7023,
      "limitation": 7024,
      "semigroup": 7025,
      "ip": 7026,
      "##unately": 7027,
      "eject": 7028,
      "diagnostic": 7029,
      "liouv": 7030,
      "handed": 7031,
      "harmon": 7032,
      "##ouse": 7033,
      "dt": 7034,
      "nonn": 7035,
      "modality": 7036,
      "quies": 7037,
      "deduce": 7038,
      "phenomenology": 7039,
      "inser": 7040,
      "##pher": 7041,
      "definitions": 7042,
      "worm": 7043,
      "fitted": 7044,
      "relating": 7045,
      "opt": 7046,
      "##estim": 7047,
      "##map": 7048,
      "protost": 7049,
      "segments": 7050,
      "matches": 7051,
      "older": 7052,
      "##hr": 7053,
      "summary": 7054,
      "corona": 7055,
      "solely": 7056,
      "oscillatory": 7057,
      "bert": 7058,
      "reaches": 7059,
      "disjoint": 7060,
      "fluores": 7061,
      "ahler": 7062,
      "textbf": 7063,
      "neighbour": 7064,
      "mappings": 7065,
      "gord": 7066,
      "perspectives": 7067,
      "##appear": 7068,
      "magnetized": 7069,
      "operate": 7070,
      "analogy": 7071,
      "##acial": 7072,
      "nodal": 7073,
      "dg": 7074,
      "passage": 7075,
      "tax": 7076,
      "encryp": 7077,
      "oh": 7078,
      "ultraf": 7079,
      "resonator": 7080,
      "##ilibria": 7081,
      "fails": 7082,
      "##hal": 7083,
      "gm": 7084,
      "les": 7085,
      "thz": 7086,
      "##ambigu": 7087,
      "entir": 7088,
      "##aring": 7089,
      "##sivity": 7090,
      "##agalactic": 7091,
      "govern": 7092,
      "ey": 7093,
      "selecting": 7094,
      "doublet": 7095,
      "recipro": 7096,
      "coales": 7097,
      "##trap": 7098,
      "dimer": 7099,
      "##inant": 7100,
      "monopole": 7101,
      "accelerator": 7102,
      "dee": 7103,
      "exploited": 7104,
      "##akes": 7105,
      "equilibria": 7106,
      "cavities": 7107,
      "termin": 7108,
      "row": 7109,
      "obsc": 7110,
      "##tionally": 7111,
      "streams": 7112,
      "bethe": 7113,
      "tip": 7114,
      "##entic": 7115,
      "perovsk": 7116,
      "nanoscale": 7117,
      "gd": 7118,
      "carriers": 7119,
      "nitrogen": 7120,
      "computers": 7121,
      "released": 7122,
      "transformers": 7123,
      "tay": 7124,
      "vanishes": 7125,
      "modify": 7126,
      "dialogue": 7127,
      "refined": 7128,
      "generalised": 7129,
      "exploits": 7130,
      "quadrupole": 7131,
      "##ismic": 7132,
      "epit": 7133,
      "acad": 7134,
      "vast": 7135,
      "believe": 7136,
      "pal": 7137,
      "deposition": 7138,
      "multiplication": 7139,
      "opportunity": 7140,
      "versati": 7141,
      "unlabeled": 7142,
      "##acies": 7143,
      "attempts": 7144,
      "##ez": 7145,
      "deriving": 7146,
      "penetr": 7147,
      "formulations": 7148,
      "month": 7149,
      "desirable": 7150,
      "transformed": 7151,
      "uniquely": 7152,
      "impurities": 7153,
      "extragalactic": 7154,
      "mentioned": 7155,
      "scaled": 7156,
      "##rec": 7157,
      "becoming": 7158,
      "dilaton": 7159,
      "revisit": 7160,
      "##aff": 7161,
      "##tree": 7162,
      "puzz": 7163,
      "ry": 7164,
      "##ynchron": 7165,
      "ultras": 7166,
      "annealing": 7167,
      "xy": 7168,
      "removal": 7169,
      "##ya": 7170,
      "stri": 7171,
      "##ufact": 7172,
      "constraining": 7173,
      "alter": 7174,
      "##ucid": 7175,
      "bloch": 7176,
      "maximally": 7177,
      "bps": 7178,
      "intuitive": 7179,
      "nv": 7180,
      "##tro": 7181,
      "agrees": 7182,
      "##eras": 7183,
      "##ws": 7184,
      "sentiment": 7185,
      "plausible": 7186,
      "faces": 7187,
      "reconnection": 7188,
      "decoupling": 7189,
      "congr": 7190,
      "circumstellar": 7191,
      "nonneg": 7192,
      "reproduces": 7193,
      "subd": 7194,
      "mathematics": 7195,
      "##yclic": 7196,
      "gibbs": 7197,
      "dex": 7198,
      "totally": 7199,
      "revealing": 7200,
      "##estr": 7201,
      "magnetism": 7202,
      "cylindrical": 7203,
      "encode": 7204,
      "similarities": 7205,
      "protection": 7206,
      "##ommod": 7207,
      "severe": 7208,
      "##algebra": 7209,
      "os": 7210,
      "hod": 7211,
      "poincar": 7212,
      "manufact": 7213,
      "##fl": 7214,
      "interested": 7215,
      "fs": 7216,
      "shr": 7217,
      "sad": 7218,
      "ism": 7219,
      "sud": 7220,
      "ejecta": 7221,
      "##ensur": 7222,
      "##emical": 7223,
      "##ounced": 7224,
      "87": 7225,
      "##osecond": 7226,
      "cul": 7227,
      "connecting": 7228,
      "unity": 7229,
      "traces": 7230,
      "fibr": 7231,
      "accelerating": 7232,
      "investigates": 7233,
      "linearized": 7234,
      "##ometers": 7235,
      "spinor": 7236,
      "surrog": 7237,
      "handling": 7238,
      "sz": 7239,
      "rigidity": 7240,
      "##oscalar": 7241,
      "wavelet": 7242,
      "##itzer": 7243,
      "ut": 7244,
      "assist": 7245,
      "taylor": 7246,
      "did": 7247,
      "68": 7248,
      "international": 7249,
      "##lear": 7250,
      "disappear": 7251,
      "progenitor": 7252,
      "lot": 7253,
      "sea": 7254,
      "atmospheres": 7255,
      "nilpotent": 7256,
      "##illing": 7257,
      "reflected": 7258,
      "dipolar": 7259,
      "propto": 7260,
      "chat": 7261,
      "business": 7262,
      "detectable": 7263,
      "##cm": 7264,
      "multidimensional": 7265,
      "certi": 7266,
      "accommod": 7267,
      "division": 7268,
      "pde": 7269,
      "dispersive": 7270,
      "elucid": 7271,
      "sectors": 7272,
      "2008": 7273,
      "##isting": 7274,
      "flight": 7275,
      "react": 7276,
      "che": 7277,
      "nab": 7278,
      "volumes": 7279,
      "astronomical": 7280,
      "completeness": 7281,
      "##hedral": 7282,
      "spir": 7283,
      "##bing": 7284,
      "unfort": 7285,
      "##arc": 7286,
      "tin": 7287,
      "going": 7288,
      "##ses": 7289,
      "radar": 7290,
      "##ians": 7291,
      "conjugate": 7292,
      "liouville": 7293,
      "##osynth": 7294,
      "acquired": 7295,
      "plasmas": 7296,
      "plasmon": 7297,
      "##vs": 7298,
      "boots": 7299,
      "tissue": 7300,
      "gtr": 7301,
      "iterations": 7302,
      "entirely": 7303,
      "2009": 7304,
      "triggered": 7305,
      "##ostic": 7306,
      "instantaneous": 7307,
      "databases": 7308,
      "##istration": 7309,
      "circul": 7310,
      "remove": 7311,
      "preferred": 7312,
      "heavily": 7313,
      "imped": 7314,
      "rb": 7315,
      "##romatic": 7316,
      "prescribed": 7317,
      "lm": 7318,
      "unification": 7319,
      "explor": 7320,
      "ghost": 7321,
      "intrigu": 7322,
      "greedy": 7323,
      "leptons": 7324,
      "##hs": 7325,
      "##critical": 7326,
      "##ners": 7327,
      "tangent": 7328,
      "attracted": 7329,
      "readily": 7330,
      "closer": 7331,
      "##trial": 7332,
      "drastic": 7333,
      "lstm": 7334,
      "guidance": 7335,
      "gordon": 7336,
      "instit": 7337,
      "supermassive": 7338,
      "##glow": 7339,
      "hash": 7340,
      "simplicial": 7341,
      "messages": 7342,
      "packing": 7343,
      "##enius": 7344,
      "##perturb": 7345,
      "linguistic": 7346,
      "##qa": 7347,
      "coincides": 7348,
      "contraction": 7349,
      "##irectional": 7350,
      "##35": 7351,
      "tt": 7352,
      "relational": 7353,
      "serves": 7354,
      "nanoc": 7355,
      "reasons": 7356,
      "amorph": 7357,
      "tok": 7358,
      "nonparam": 7359,
      "congru": 7360,
      "mism": 7361,
      "mw": 7362,
      "solvers": 7363,
      "connect": 7364,
      "metastable": 7365,
      "meet": 7366,
      "coexistence": 7367,
      "swift": 7368,
      "norms": 7369,
      "coloring": 7370,
      "wat": 7371,
      "discriminative": 7372,
      "quantification": 7373,
      "aimed": 7374,
      "reversible": 7375,
      "ubiquitous": 7376,
      "lp": 7377,
      "##load": 7378,
      "indicators": 7379,
      "lived": 7380,
      "overlapping": 7381,
      "replaced": 7382,
      "bootstrap": 7383,
      "ferroelectric": 7384,
      "proteins": 7385,
      "##sts": 7386,
      "devoted": 7387,
      "mathsf": 7388,
      "astronomy": 7389,
      "opening": 7390,
      "##ogenesis": 7391,
      "otimes": 7392,
      "unfortunately": 7393,
      "hypotheses": 7394,
      "tailored": 7395,
      "entries": 7396,
      "enhances": 7397,
      "marked": 7398,
      "##board": 7399,
      "##rication": 7400,
      "intriguing": 7401,
      "union": 7402,
      "ultracold": 7403,
      "tube": 7404,
      "checking": 7405,
      "##ativ": 7406,
      "preference": 7407,
      "flag": 7408,
      "submanifold": 7409,
      "##imetric": 7410,
      "reyn": 7411,
      "bic": 7412,
      "originally": 7413,
      "mss": 7414,
      "parent": 7415,
      "##ami": 7416,
      "arrival": 7417,
      "commercial": 7418,
      "sometimes": 7419,
      "supply": 7420,
      "stere": 7421,
      "targeted": 7422,
      "recall": 7423,
      "poorly": 7424,
      "concerned": 7425,
      "hoc": 7426,
      "grass": 7427,
      "ben": 7428,
      "hr": 7429,
      "supple": 7430,
      "##atern": 7431,
      "lett": 7432,
      "textr": 7433,
      "consuming": 7434,
      "2021": 7435,
      "nucleation": 7436,
      "neighbors": 7437,
      "accreting": 7438,
      "isospin": 7439,
      "ont": 7440,
      "pruning": 7441,
      "gtrsim": 7442,
      "##agger": 7443,
      "porous": 7444,
      "tune": 7445,
      "sle": 7446,
      "##ka": 7447,
      "functor": 7448,
      "multipar": 7449,
      "##iants": 7450,
      "76": 7451,
      "58": 7452,
      "branches": 7453,
      "reynolds": 7454,
      "##pty": 7455,
      "guaranteed": 7456,
      "##adic": 7457,
      "covered": 7458,
      "convective": 7459,
      "sey": 7460,
      "##ques": 7461,
      "##ams": 7462,
      "##oresistance": 7463,
      "##ticity": 7464,
      "regardless": 7465,
      "regul": 7466,
      "indis": 7467,
      "spectrograph": 7468,
      "##orov": 7469,
      "afterglow": 7470,
      "98": 7471,
      "aid": 7472,
      "hem": 7473,
      "scin": 7474,
      "outline": 7475,
      "coordination": 7476,
      "##plays": 7477,
      "seed": 7478,
      "invest": 7479,
      "filled": 7480,
      "textrm": 7481,
      "wi": 7482,
      "precession": 7483,
      "54": 7484,
      "grand": 7485,
      "deeper": 7486,
      "rhic": 7487,
      "microl": 7488,
      "permutations": 7489,
      "reconf": 7490,
      "schw": 7491,
      "magell": 7492,
      "subjects": 7493,
      "delayed": 7494,
      "virial": 7495,
      "implying": 7496,
      "##abor": 7497,
      "ci": 7498,
      "scintill": 7499,
      "ros": 7500,
      "promise": 7501,
      "concentrations": 7502,
      "fire": 7503,
      "couple": 7504,
      "owing": 7505,
      "conjectures": 7506,
      "lex": 7507,
      "damage": 7508,
      "lemma": 7509,
      "bp": 7510,
      "roots": 7511,
      "dramatically": 7512,
      "stein": 7513,
      "noncon": 7514,
      "whenever": 7515,
      "##icious": 7516,
      "blind": 7517,
      "coincide": 7518,
      "##inder": 7519,
      "astrom": 7520,
      "##acles": 7521,
      "nonparametric": 7522,
      "terminal": 7523,
      "resum": 7524,
      "inclination": 7525,
      "##onomy": 7526,
      "seyfer": 7527,
      "specification": 7528,
      "highlights": 7529,
      "locality": 7530,
      "nabla": 7531,
      "120": 7532,
      "mismatch": 7533,
      "tele": 7534,
      "pointed": 7535,
      "randomness": 7536,
      "weather": 7537,
      "measurable": 7538,
      "##32": 7539,
      "##uck": 7540,
      "runtime": 7541,
      "reionization": 7542,
      "regarded": 7543,
      "secondly": 7544,
      "stock": 7545,
      "push": 7546,
      "##while": 7547,
      "azimuthal": 7548,
      "disl": 7549,
      "confirms": 7550,
      "hypersurfaces": 7551,
      "##usive": 7552,
      "inac": 7553,
      "simulator": 7554,
      "smoothness": 7555,
      "##aporation": 7556,
      "patches": 7557,
      "superiority": 7558,
      "readout": 7559,
      "nonnegative": 7560,
      "##leigh": 7561,
      "intercon": 7562,
      "breaks": 7563,
      "governing": 7564,
      "maximizing": 7565,
      "integrability": 7566,
      "foli": 7567,
      "##esp": 7568,
      "solids": 7569,
      "rayleigh": 7570,
      "daily": 7571,
      "amorphous": 7572,
      "textual": 7573,
      "authentic": 7574,
      "multiplex": 7575,
      "incorporated": 7576,
      "bubbles": 7577,
      "il": 7578,
      "transportation": 7579,
      "believ": 7580,
      "##tile": 7581,
      "gravitation": 7582,
      "prol": 7583,
      "soph": 7584,
      "hexagonal": 7585,
      "quatern": 7586,
      "111": 7587,
      "successive": 7588,
      "tractable": 7589,
      "drug": 7590,
      "interpretability": 7591,
      "cred": 7592,
      "emotion": 7593,
      "langle": 7594,
      "oscillating": 7595,
      "nested": 7596,
      "conditioned": 7597,
      "##ina": 7598,
      "49": 7599,
      "north": 7600,
      "instanton": 7601,
      "##agg": 7602,
      "preval": 7603,
      "developers": 7604,
      "delays": 7605,
      "##eet": 7606,
      "countries": 7607,
      "##ama": 7608,
      "displays": 7609,
      "##omplish": 7610,
      "droplet": 7611,
      "cms": 7612,
      "##itaev": 7613,
      "##ool": 7614,
      "spitzer": 7615,
      "probed": 7616,
      "asynchron": 7617,
      "accomplish": 7618,
      "diction": 7619,
      "pixels": 7620,
      "lati": 7621,
      "##ogenic": 7622,
      "2007": 7623,
      "magnetoresistance": 7624,
      "eigenstates": 7625,
      "preparation": 7626,
      "##restrial": 7627,
      "rectang": 7628,
      "predom": 7629,
      "fig": 7630,
      "##24": 7631,
      "bang": 7632,
      "overd": 7633,
      "##haus": 7634,
      "xx": 7635,
      "spacing": 7636,
      "##enching": 7637,
      "emissions": 7638,
      "calibrated": 7639,
      "nas": 7640,
      "fabrication": 7641,
      "##eman": 7642,
      "##ryst": 7643,
      "kinetics": 7644,
      "equality": 7645,
      "unres": 7646,
      "metamaterial": 7647,
      "pricing": 7648,
      "hab": 7649,
      "recommendations": 7650,
      "fried": 7651,
      "##x10": 7652,
      "bilinear": 7653,
      "advance": 7654,
      "57": 7655,
      "board": 7656,
      "transist": 7657,
      "unp": 7658,
      "offs": 7659,
      "f1": 7660,
      "python": 7661,
      "twin": 7662,
      "unitarity": 7663,
      "propagator": 7664,
      "##ups": 7665,
      "moves": 7666,
      "ensuring": 7667,
      "synthesized": 7668,
      "##zen": 7669,
      "opinion": 7670,
      "cusp": 7671,
      "thesis": 7672,
      "mimic": 7673,
      "wider": 7674,
      "ionic": 7675,
      "wormh": 7676,
      "explaining": 7677,
      "##paign": 7678,
      "axisymmetric": 7679,
      "speeds": 7680,
      "city": 7681,
      "lob": 7682,
      "agb": 7683,
      "##sky": 7684,
      "modelled": 7685,
      "sentences": 7686,
      "2s": 7687,
      "tit": 7688,
      "quenching": 7689,
      "mesoscopic": 7690,
      "pain": 7691,
      "##ahed": 7692,
      "campaign": 7693,
      "recurrence": 7694,
      "substitution": 7695,
      "alma": 7696,
      "exceeds": 7697,
      "barriers": 7698,
      "keeping": 7699,
      "classifying": 7700,
      "mf": 7701,
      "catalogue": 7702,
      "##zy": 7703,
      "facility": 7704,
      "accelerate": 7705,
      "hope": 7706,
      "macro": 7707,
      "ks": 7708,
      "fes": 7709,
      "rapidity": 7710,
      "ultrafast": 7711,
      "approximating": 7712,
      "bm": 7713,
      "semiconductors": 7714,
      "wire": 7715,
      "nash": 7716,
      "slip": 7717,
      "micr": 7718,
      "##yi": 7719,
      "lange": 7720,
      "transparent": 7721,
      "posedness": 7722,
      "exclusive": 7723,
      "volatility": 7724,
      "obstacle": 7725,
      "scr": 7726,
      "jour": 7727,
      "minima": 7728,
      "pdes": 7729,
      "##odular": 7730,
      "renew": 7731,
      "thresholds": 7732,
      "geodesics": 7733,
      "baryonic": 7734,
      "waals": 7735,
      "cooperation": 7736,
      "##ohydro": 7737,
      "hundreds": 7738,
      "##pace": 7739,
      "collinear": 7740,
      "simplicity": 7741,
      "ups": 7742,
      "grids": 7743,
      "motivation": 7744,
      "informed": 7745,
      "197": 7746,
      "llm": 7747,
      "##eren": 7748,
      "bio": 7749,
      "decompositions": 7750,
      "scan": 7751,
      "nc": 7752,
      "dealing": 7753,
      "cardin": 7754,
      "orbitals": 7755,
      "advanc": 7756,
      "##za": 7757,
      "spinning": 7758,
      "110": 7759,
      "secret": 7760,
      "ago": 7761,
      "astrophysics": 7762,
      "preserves": 7763,
      "markets": 7764,
      "apart": 7765,
      "63": 7766,
      "##tible": 7767,
      "lidar": 7768,
      "fading": 7769,
      "latit": 7770,
      "langevin": 7771,
      "gross": 7772,
      "interfacial": 7773,
      "powered": 7774,
      "##linder": 7775,
      "##linear": 7776,
      "##ipolar": 7777,
      "lightweight": 7778,
      "cylinder": 7779,
      "hb": 7780,
      "beamforming": 7781,
      "incremental": 7782,
      "gin": 7783,
      "agns": 7784,
      "sophistic": 7785,
      "collect": 7786,
      "cameras": 7787,
      "differs": 7788,
      "agnostic": 7789,
      "##burg": 7790,
      "##ury": 7791,
      "##othermal": 7792,
      "monitor": 7793,
      "magnon": 7794,
      "played": 7795,
      "compressible": 7796,
      "broadening": 7797,
      "offset": 7798,
      "discrimination": 7799,
      "##using": 7800,
      "solves": 7801,
      "coroll": 7802,
      "meanwhile": 7803,
      "mapped": 7804,
      "mssm": 7805,
      "dens": 7806,
      "jupiter": 7807,
      "pil": 7808,
      "appearing": 7809,
      "clarify": 7810,
      "believed": 7811,
      "shortest": 7812,
      "plateau": 7813,
      "epidemic": 7814,
      "2006": 7815,
      "##amming": 7816,
      "frob": 7817,
      "defines": 7818,
      "registration": 7819,
      "sustain": 7820,
      "university": 7821,
      "wild": 7822,
      "helical": 7823,
      "develops": 7824,
      "multiscale": 7825,
      "##stone": 7826,
      "presentation": 7827,
      "endow": 7828,
      "rendering": 7829,
      "##use": 7830,
      "##atron": 7831,
      "cry": 7832,
      "continue": 7833,
      "##ych": 7834,
      "artifacts": 7835,
      "plasmonic": 7836,
      "gained": 7837,
      "topologies": 7838,
      "hamilton": 7839,
      "amen": 7840,
      "surrogate": 7841,
      "##kl": 7842,
      "seyfert": 7843,
      "aerial": 7844,
      "argued": 7845,
      "fibers": 7846,
      "hartree": 7847,
      "##bling": 7848,
      "lateral": 7849,
      "heterostructures": 7850,
      "hii": 7851,
      "statistic": 7852,
      "anticip": 7853,
      "modulo": 7854,
      "tens": 7855,
      "impul": 7856,
      "rain": 7857,
      "##ugg": 7858,
      "assessing": 7859,
      "antennas": 7860,
      "lmc": 7861,
      "##inescence": 7862,
      "protoplan": 7863,
      "controllable": 7864,
      "vr": 7865,
      "optimum": 7866,
      "hyperf": 7867,
      "realizations": 7868,
      "2005": 7869,
      "tradeoff": 7870,
      "eccentricity": 7871,
      "dominate": 7872,
      "frobenius": 7873,
      "rc": 7874,
      "workflow": 7875,
      "delivery": 7876,
      "aperture": 7877,
      "##oting": 7878,
      "##onov": 7879,
      "sketch": 7880,
      "##itory": 7881,
      "divided": 7882,
      "prepared": 7883,
      "say": 7884,
      "transparency": 7885,
      "striking": 7886,
      "schwinger": 7887,
      "##asser": 7888,
      "##ompass": 7889,
      "magnetohydro": 7890,
      "penalty": 7891,
      "wit": 7892,
      "bog": 7893,
      "##elike": 7894,
      "tracing": 7895,
      "pet": 7896,
      "reconfigur": 7897,
      "death": 7898,
      "choosing": 7899,
      "homogen": 7900,
      "descript": 7901,
      "paradox": 7902,
      "sugges": 7903,
      "dnns": 7904,
      "illumination": 7905,
      "##isc": 7906,
      "pronounced": 7907,
      "template": 7908,
      "cham": 7909,
      "##ociation": 7910,
      "toroidal": 7911,
      "distortions": 7912,
      "encompass": 7913,
      "5g": 7914,
      "97": 7915,
      "aided": 7916,
      "bcs": 7917,
      "finds": 7918,
      "##kd": 7919,
      "cancellation": 7920,
      "heart": 7921,
      "stored": 7922,
      "options": 7923,
      "##geometric": 7924,
      "portf": 7925,
      "kal": 7926,
      "heli": 7927,
      "gras": 7928,
      "lu": 7929,
      "##iii": 7930,
      "aiming": 7931,
      "varied": 7932,
      "eigenfunctions": 7933,
      "obey": 7934,
      "adoption": 7935,
      "reviews": 7936,
      "automorphisms": 7937,
      "grassmann": 7938,
      "##eterm": 7939,
      "logistic": 7940,
      "##scr": 7941,
      "vapor": 7942,
      "serious": 7943,
      "77": 7944,
      "##osystem": 7945,
      "irradiation": 7946,
      "contacts": 7947,
      "quantifying": 7948,
      "roles": 7949,
      "bottleneck": 7950,
      "##algebras": 7951,
      "##osynthesis": 7952,
      "gpt": 7953,
      "clump": 7954,
      "isotop": 7955,
      "quiescent": 7956,
      "52": 7957,
      "magellanic": 7958,
      "##nected": 7959,
      "continuation": 7960,
      "categorical": 7961,
      "##iar": 7962,
      "summarize": 7963,
      "sided": 7964,
      "eclips": 7965,
      "breakdown": 7966,
      "41": 7967,
      "criticality": 7968,
      "jud": 7969,
      "equally": 7970,
      "damped": 7971,
      "ko": 7972,
      "##plex": 7973,
      "resolutions": 7974,
      "##asc": 7975,
      "stem": 7976,
      "hf": 7977,
      "##care": 7978,
      "contributes": 7979,
      "constitute": 7980,
      "voc": 7981,
      "fulf": 7982,
      "##tl": 7983,
      "indi": 7984,
      "alf": 7985,
      "reconstruc": 7986,
      "ryd": 7987,
      "formally": 7988,
      "compil": 7989,
      "centrality": 7990,
      "relaxed": 7991,
      "manually": 7992,
      "##hertz": 7993,
      "adopting": 7994,
      "##emporal": 7995,
      "viewpoint": 7996,
      "informative": 7997,
      "exchang": 7998,
      "insp": 7999,
      "companions": 8000,
      "preserved": 8001,
      "fano": 8002,
      "magic": 8003,
      "bounding": 8004,
      "removing": 8005,
      "broader": 8006,
      "deple": 8007,
      "resonators": 8008,
      "reflecting": 8009,
      "exceed": 8010,
      "kol": 8011,
      "removed": 8012,
      "##ysical": 8013,
      "pumping": 8014,
      "substrates": 8015,
      "##edge": 8016,
      "inconsistent": 8017,
      "rid": 8018,
      "records": 8019,
      "purs": 8020,
      "interferometry": 8021,
      "echo": 8022,
      "saddle": 8023,
      "##points": 8024,
      "eeg": 8025,
      "uh": 8026,
      "##alan": 8027,
      "terrestrial": 8028,
      "##lines": 8029,
      "irre": 8030,
      "kg": 8031,
      "aggregate": 8032,
      "##uster": 8033,
      "relic": 8034,
      "evaporation": 8035,
      "dise": 8036,
      "forecast": 8037,
      "excitons": 8038,
      "oracle": 8039,
      "##ko": 8040,
      "##truction": 8041,
      "clumps": 8042,
      "genu": 8043,
      "##oreg": 8044,
      "hyperparam": 8045,
      "write": 8046,
      "##ithful": 8047,
      "##plus": 8048,
      "carrying": 8049,
      "rydberg": 8050,
      "gender": 8051,
      "healthcare": 8052,
      "intensities": 8053,
      "##ventional": 8054,
      "teacher": 8055,
      "autoencoder": 8056,
      "somew": 8057,
      "##formal": 8058,
      "hardness": 8059,
      "depos": 8060,
      "dominates": 8061,
      "alloc": 8062,
      "66": 8063,
      "pandemic": 8064,
      "eye": 8065,
      "proportion": 8066,
      "proposals": 8067,
      "001": 8068,
      "impossible": 8069,
      "##onym": 8070,
      "epis": 8071,
      "59": 8072,
      "##km": 8073,
      "ensures": 8074,
      "emitters": 8075,
      "hardy": 8076,
      "utilization": 8077,
      "transmitted": 8078,
      "eigenv": 8079,
      "national": 8080,
      "correlators": 8081,
      "rew": 8082,
      "oce": 8083,
      "positivity": 8084,
      "lip": 8085,
      "indicator": 8086,
      "alternatives": 8087,
      "##ison": 8088,
      "fluorescence": 8089,
      "tu": 8090,
      "noether": 8091,
      "persistence": 8092,
      "pf": 8093,
      "predominant": 8094,
      "berry": 8095,
      "##lar": 8096,
      "middle": 8097,
      "pac": 8098,
      "##terior": 8099,
      "assigned": 8100,
      "##tructured": 8101,
      "##ames": 8102,
      "gaas": 8103,
      "convexity": 8104,
      "mathscr": 8105,
      "eg": 8106,
      "##44": 8107,
      "hydrodynamical": 8108,
      "##uly": 8109,
      "consec": 8110,
      "lr": 8111,
      "vital": 8112,
      "battery": 8113,
      "quaternion": 8114,
      "brack": 8115,
      "tempor": 8116,
      "dynamo": 8117,
      "neq": 8118,
      "roll": 8119,
      "articles": 8120,
      "hosts": 8121,
      "exclusion": 8122,
      "witness": 8123,
      "##empl": 8124,
      "personalized": 8125,
      "semigroups": 8126,
      "##olum": 8127,
      "packets": 8128,
      "alleviate": 8129,
      "pg": 8130,
      "spatiot": 8131,
      "pulsed": 8132,
      "token": 8133,
      "defl": 8134,
      "chromatic": 8135,
      "sophisticated": 8136,
      "leakage": 8137,
      "multilayer": 8138,
      "recoil": 8139,
      "forb": 8140,
      "elasticity": 8141,
      "symbols": 8142,
      "unambigu": 8143,
      "bending": 8144,
      "paramagnetic": 8145,
      "claims": 8146,
      "sheaves": 8147,
      "arms": 8148,
      "iso": 8149,
      "tumor": 8150,
      "intermitt": 8151,
      "upl": 8152,
      "education": 8153,
      "broadc": 8154,
      "anc": 8155,
      "evolves": 8156,
      "german": 8157,
      "unconventional": 8158,
      "colored": 8159,
      "partitioning": 8160,
      "cif": 8161,
      "lac": 8162,
      "repulsion": 8163,
      "geometrically": 8164,
      "sor": 8165,
      "technological": 8166,
      "spontaneously": 8167,
      "neuro": 8168,
      "j0": 8169,
      "truncation": 8170,
      "restoration": 8171,
      "##standing": 8172,
      "##oks": 8173,
      "lithium": 8174,
      "fd": 8175,
      "2004": 8176,
      "##vent": 8177,
      "##gue": 8178,
      "##inated": 8179,
      "superc": 8180,
      "extrapol": 8181,
      "crack": 8182,
      "skin": 8183,
      "subtle": 8184,
      "explores": 8185,
      "doing": 8186,
      "##used": 8187,
      "periodicity": 8188,
      "imagenet": 8189,
      "tab": 8190,
      "proves": 8191,
      "concentrated": 8192,
      "faithful": 8193,
      "spur": 8194,
      "ws": 8195,
      "lb": 8196,
      "thousands": 8197,
      "separating": 8198,
      "purposes": 8199,
      "##lingual": 8200,
      "spectrometer": 8201,
      "enfor": 8202,
      "colloidal": 8203,
      "remnants": 8204,
      "trop": 8205,
      "compactness": 8206,
      "##eteq": 8207,
      "causality": 8208,
      "nmr": 8209,
      "##enstein": 8210,
      "vacancy": 8211,
      "robotics": 8212,
      "inductive": 8213,
      "anch": 8214,
      "comprom": 8215,
      "rod": 8216,
      "identifies": 8217,
      "kil": 8218,
      "53": 8219,
      "equator": 8220,
      "summarization": 8221,
      "frustrated": 8222,
      "popularity": 8223,
      "gar": 8224,
      "tach": 8225,
      "risks": 8226,
      "monoc": 8227,
      "absent": 8228,
      "##rect": 8229,
      "tails": 8230,
      "##where": 8231,
      "proceed": 8232,
      "suite": 8233,
      "##000": 8234,
      "equiv": 8235,
      "demands": 8236,
      "influenced": 8237,
      "attenuation": 8238,
      "##ensurate": 8239,
      "traveling": 8240,
      "skyrmion": 8241,
      "lect": 8242,
      "##ectral": 8243,
      "programm": 8244,
      "ultimately": 8245,
      "resolving": 8246,
      "borel": 8247,
      "parametrization": 8248,
      "twitter": 8249,
      "asynchronous": 8250,
      "hone": 8251,
      "satisfact": 8252,
      "cuprates": 8253,
      "diseases": 8254,
      "df": 8255,
      "distinguished": 8256,
      "ingredient": 8257,
      "89": 8258,
      "wol": 8259,
      "statement": 8260,
      "horizons": 8261,
      "exoplanets": 8262,
      "enriched": 8263,
      "living": 8264,
      "pauli": 8265,
      "gy": 8266,
      "##olec": 8267,
      "attractor": 8268,
      "leptonic": 8269,
      "obvious": 8270,
      "sand": 8271,
      "ineffici": 8272,
      "##roids": 8273,
      "presenting": 8274,
      "neighboring": 8275,
      "corner": 8276,
      "contamination": 8277,
      "dile": 8278,
      "primes": 8279,
      "peer": 8280,
      "compatibility": 8281,
      "thermoelectric": 8282,
      "nanotubes": 8283,
      "nh": 8284,
      "boun": 8285,
      "evid": 8286,
      "polymers": 8287,
      "gather": 8288,
      "##orth": 8289,
      "insu": 8290,
      "##bons": 8291,
      "birth": 8292,
      "##inter": 8293,
      "scalars": 8294,
      "prices": 8295,
      "waveform": 8296,
      "rul": 8297,
      "subc": 8298,
      "upgr": 8299,
      "conjunction": 8300,
      "69": 8301,
      "kp": 8302,
      "##ek": 8303,
      "hodge": 8304,
      "intended": 8305,
      "lasers": 8306,
      "##ivariate": 8307,
      "pretrained": 8308,
      "party": 8309,
      "alloys": 8310,
      "##lands": 8311,
      "exoplanet": 8312,
      "possesses": 8313,
      "influences": 8314,
      "depletion": 8315,
      "cb": 8316,
      "ster": 8317,
      "wasser": 8318,
      "swar": 8319,
      "originating": 8320,
      "stringent": 8321,
      "multilingual": 8322,
      "functionality": 8323,
      "rib": 8324,
      "insuffici": 8325,
      "##ford": 8326,
      "##oherent": 8327,
      "adsorption": 8328,
      "qs": 8329,
      "##ositions": 8330,
      "opac": 8331,
      "returns": 8332,
      "##gp": 8333,
      "##wave": 8334,
      "dose": 8335,
      "spatiotemporal": 8336,
      "feat": 8337,
      "wasserstein": 8338,
      "photoem": 8339,
      "transvers": 8340,
      "nucleosynthesis": 8341,
      "incidence": 8342,
      "notes": 8343,
      "establishes": 8344,
      "consecutive": 8345,
      "segreg": 8346,
      "beneficial": 8347,
      "##alc": 8348,
      "exterior": 8349,
      "deals": 8350,
      "imbalance": 8351,
      "fro": 8352,
      "##rid": 8353,
      "precon": 8354,
      "vorticity": 8355,
      "behave": 8356,
      "csi": 8357,
      "failures": 8358,
      "quantified": 8359,
      "##ativistic": 8360,
      "cifar": 8361,
      "schur": 8362,
      "controllers": 8363,
      "capacit": 8364,
      "ballistic": 8365,
      "facilitates": 8366,
      "chapter": 8367,
      "somewhat": 8368,
      "qa": 8369,
      "analogues": 8370,
      "##tia": 8371,
      "asr": 8372,
      "nine": 8373,
      "nlo": 8374,
      "subseteq": 8375,
      "irs": 8376,
      "obstacles": 8377,
      "upsilon": 8378,
      "tevatron": 8379,
      "nond": 8380,
      "fragments": 8381,
      "jan": 8382,
      "sett": 8383,
      "characterizations": 8384,
      "periodically": 8385,
      "##icate": 8386,
      "try": 8387,
      "talk": 8388,
      "suspension": 8389,
      "##istrib": 8390,
      "##zburg": 8391,
      "##exam": 8392,
      "cumulative": 8393,
      "hyperfine": 8394,
      "tera": 8395,
      "pseudoscalar": 8396,
      "haz": 8397,
      "##45": 8398,
      "##illary": 8399,
      "##erenkov": 8400,
      "perfectly": 8401,
      "##ops": 8402,
      "changed": 8403,
      "interpretations": 8404,
      "cherenkov": 8405,
      "option": 8406,
      "cycl": 8407,
      "resumm": 8408,
      "revisited": 8409,
      "##aking": 8410,
      "photoemission": 8411,
      "unim": 8412,
      "ends": 8413,
      "member": 8414,
      "##erkin": 8415,
      "cones": 8416,
      "constituent": 8417,
      "lev": 8418,
      "62": 8419,
      "##2o": 8420,
      "##omechanical": 8421,
      "gg": 8422,
      "##bre": 8423,
      "admis": 8424,
      "galerkin": 8425,
      "ginzburg": 8426,
      "##asts": 8427,
      "exempl": 8428,
      "deconf": 8429,
      "renormalized": 8430,
      "optimally": 8431,
      "recommender": 8432,
      "squeezed": 8433,
      "alice": 8434,
      "##antine": 8435,
      "##atomic": 8436,
      "empty": 8437,
      "extrapolation": 8438,
      "droplets": 8439,
      "alloy": 8440,
      "surpass": 8441,
      "##bone": 8442,
      "epochs": 8443,
      "european": 8444,
      "jumps": 8445,
      "ou": 8446,
      "virgo": 8447,
      "incorrect": 8448,
      "unclear": 8449,
      "wd": 8450,
      "visco": 8451,
      "fc": 8452,
      "##normal": 8453,
      "dilute": 8454,
      "looking": 8455,
      "##ront": 8456,
      "centric": 8457,
      "pdf": 8458,
      "countable": 8459,
      "2p": 8460,
      "##ils": 8461,
      "2k": 8462,
      "scope": 8463,
      "trading": 8464,
      "stabilized": 8465,
      "ladder": 8466,
      "shells": 8467,
      "offering": 8468,
      "generically": 8469,
      "##cript": 8470,
      "stacking": 8471,
      "excluded": 8472,
      "inhib": 8473,
      "##edia": 8474,
      "88": 8475,
      "practices": 8476,
      "brill": 8477,
      "melting": 8478,
      "vec": 8479,
      "##eto": 8480,
      "86": 8481,
      "reliably": 8482,
      "cpu": 8483,
      "##shitz": 8484,
      "autoreg": 8485,
      "client": 8486,
      "2003": 8487,
      "##espread": 8488,
      "widespread": 8489,
      "lagrange": 8490,
      "##align": 8491,
      "freely": 8492,
      "collisional": 8493,
      "microc": 8494,
      "journ": 8495,
      "##enue": 8496,
      "charging": 8497,
      "nonperturb": 8498,
      "attached": 8499,
      "naive": 8500,
      "voice": 8501,
      "superlat": 8502,
      "##iability": 8503,
      "stopping": 8504,
      "##ept": 8505,
      "balancing": 8506,
      "kd": 8507,
      "tow": 8508,
      "2022": 8509,
      "realizing": 8510,
      "beginning": 8511,
      "uc": 8512,
      "compositions": 8513,
      "debr": 8514,
      "biology": 8515,
      "pars": 8516,
      "belongs": 8517,
      "sof": 8518,
      "toy": 8519,
      "##ecke": 8520,
      "##iteness": 8521,
      "accordingly": 8522,
      "metallicities": 8523,
      "organized": 8524,
      "discusses": 8525,
      "absorbing": 8526,
      "leaves": 8527,
      "##oi": 8528,
      "edi": 8529,
      "ambiguity": 8530,
      "##bes": 8531,
      "cox": 8532,
      "clients": 8533,
      "hm": 8534,
      "launch": 8535,
      "##pless": 8536,
      "sudden": 8537,
      "subcl": 8538,
      "compositional": 8539,
      "protoplanetary": 8540,
      "brings": 8541,
      "belonging": 8542,
      "##phasing": 8543,
      "repeti": 8544,
      "magnetically": 8545,
      "phy": 8546,
      "##anted": 8547,
      "deduced": 8548,
      "poles": 8549,
      "superg": 8550,
      "permit": 8551,
      "82": 8552,
      "propagate": 8553,
      "##ampling": 8554,
      "hypersurface": 8555,
      "##orem": 8556,
      "phosph": 8557,
      "membership": 8558,
      "interlayer": 8559,
      "##ahn": 8560,
      "dictionary": 8561,
      "attraction": 8562,
      "correcting": 8563,
      "nanowires": 8564,
      "friend": 8565,
      "##asive": 8566,
      "malicious": 8567,
      "cardinality": 8568,
      "unve": 8569,
      "gradually": 8570,
      "ligo": 8571,
      "none": 8572,
      "##asso": 8573,
      "dress": 8574,
      "rectangular": 8575,
      "interferometric": 8576,
      "electronics": 8577,
      "tracks": 8578,
      "chirality": 8579,
      "aer": 8580,
      "defici": 8581,
      "practition": 8582,
      "rx": 8583,
      "processed": 8584,
      "cad": 8585,
      "fif": 8586,
      "easier": 8587,
      "emphasize": 8588,
      "showc": 8589,
      "##dington": 8590,
      "250": 8591,
      "repair": 8592,
      "lifshitz": 8593,
      "iterated": 8594,
      "##osh": 8595,
      "versatile": 8596,
      "78": 8597,
      "creates": 8598,
      "bn": 8599,
      "hyster": 8600,
      "facilities": 8601,
      "gase": 8602,
      "quantif": 8603,
      "linking": 8604,
      "debris": 8605,
      "rotations": 8606,
      "webs": 8607,
      "##ember": 8608,
      "ceph": 8609,
      "##eas": 8610,
      "microlensing": 8611,
      "mitigation": 8612,
      "electrodes": 8613,
      "thread": 8614,
      "relates": 8615,
      "killing": 8616,
      "keyw": 8617,
      "##atom": 8618,
      "driver": 8619,
      "commuting": 8620,
      "##ishing": 8621,
      "histories": 8622,
      "gpa": 8623,
      "accumulation": 8624,
      "tan": 8625,
      "inertia": 8626,
      "compactification": 8627,
      "assumes": 8628,
      "stiffness": 8629,
      "##ensitive": 8630,
      "wim": 8631,
      "signs": 8632,
      "tropical": 8633,
      "reactive": 8634,
      "aforem": 8635,
      "econom": 8636,
      "skelet": 8637,
      "pedestr": 8638,
      "backbone": 8639,
      "specialized": 8640,
      "##liers": 8641,
      "codimension": 8642,
      "aforementioned": 8643,
      "jord": 8644,
      "chines": 8645,
      "format": 8646,
      "##tw": 8647,
      "squeezing": 8648,
      "ask": 8649,
      "##onically": 8650,
      "orientations": 8651,
      "##galactic": 8652,
      "minimax": 8653,
      "convergent": 8654,
      "reproducing": 8655,
      "sterile": 8656,
      "hes": 8657,
      "actu": 8658,
      "##mog": 8659,
      "experiences": 8660,
      "5d": 8661,
      "indoor": 8662,
      "optimisation": 8663,
      "queue": 8664,
      "corpor": 8665,
      "irrever": 8666,
      "terahertz": 8667,
      "hysteresis": 8668,
      "##48": 8669,
      "calor": 8670,
      "chinese": 8671,
      "##uclear": 8672,
      "tokens": 8673,
      "##iling": 8674,
      "recep": 8675,
      "visibility": 8676,
      "##27": 8677,
      "folding": 8678,
      "unless": 8679,
      "dys": 8680,
      "quint": 8681,
      "grating": 8682,
      "monod": 8683,
      "live": 8684,
      "loading": 8685,
      "jordan": 8686,
      "reductions": 8687,
      "continued": 8688,
      "kolmog": 8689,
      "##sey": 8690,
      "fairly": 8691,
      "session": 8692,
      "##alcogen": 8693,
      "floquet": 8694,
      "##ectively": 8695,
      "##osis": 8696,
      "psr": 8697,
      "lc": 8698,
      "eos": 8699,
      "##ruption": 8700,
      "convenient": 8701,
      "##oped": 8702,
      "cache": 8703,
      "lightest": 8704,
      "2002": 8705,
      "eddington": 8706,
      "infinites": 8707,
      "heuristics": 8708,
      "centralized": 8709,
      "##ecraft": 8710,
      "corollary": 8711,
      "correctness": 8712,
      "bat": 8713,
      "metas": 8714,
      "exhibited": 8715,
      "distinguishing": 8716,
      "usefulness": 8717,
      "comprising": 8718,
      "precondition": 8719,
      "ther": 8720,
      "child": 8721,
      "##oto": 8722,
      "drastically": 8723,
      "incoherent": 8724,
      "##oked": 8725,
      "cuts": 8726,
      "quartic": 8727,
      "hecke": 8728,
      "recti": 8729,
      "##tening": 8730,
      "perovskite": 8731,
      "mb": 8732,
      "respond": 8733,
      "elabor": 8734,
      "isotopes": 8735,
      "pinning": 8736,
      "lifetimes": 8737,
      "rigorously": 8738,
      "bonds": 8739,
      "femt": 8740,
      "stretch": 8741,
      "tb": 8742,
      "isothermal": 8743,
      "dephasing": 8744,
      "##apes": 8745,
      "zeeman": 8746,
      "dic": 8747,
      "##rot": 8748,
      "transferred": 8749,
      "polytopes": 8750,
      "poli": 8751,
      "termed": 8752,
      "##uri": 8753,
      "cephe": 8754,
      "##ipl": 8755,
      "rp": 8756,
      "associative": 8757,
      "kl": 8758,
      "bd": 8759,
      "rock": 8760,
      "##astroph": 8761,
      "ner": 8762,
      "stagger": 8763,
      "indicated": 8764,
      "induction": 8765,
      "innovative": 8766,
      "motor": 8767,
      "said": 8768,
      "gapped": 8769,
      "magnets": 8770,
      "thermally": 8771,
      "##wards": 8772,
      "vulnerable": 8773,
      "##door": 8774,
      "nitr": 8775,
      "install": 8776,
      "analytics": 8777,
      "cliff": 8778,
      "gaseous": 8779,
      "cartan": 8780,
      "enj": 8781,
      "precurs": 8782,
      "kolmogorov": 8783,
      "anisotropies": 8784,
      "tachy": 8785,
      "orbiting": 8786,
      "mutually": 8787,
      "glasses": 8788,
      "favorable": 8789,
      "syst": 8790,
      "pathways": 8791,
      "##imer": 8792,
      "hypergeometric": 8793,
      "fabricated": 8794,
      "amenable": 8795,
      "##mid": 8796,
      "rd": 8797,
      "grom": 8798,
      "catastroph": 8799,
      "##akov": 8800,
      "bohm": 8801,
      "vacua": 8802,
      "51": 8803,
      "94": 8804,
      "iteratively": 8805,
      "pca": 8806,
      "##uit": 8807,
      "##antom": 8808,
      "divergences": 8809,
      "inflaton": 8810,
      "tess": 8811,
      "##iard": 8812,
      "undergoes": 8813,
      "arrangement": 8814,
      "##ime": 8815,
      "outliers": 8816,
      "affecting": 8817,
      "84": 8818,
      "##body": 8819,
      "sees": 8820,
      "concave": 8821,
      "##iodic": 8822,
      "autoc": 8823,
      "cern": 8824,
      "southern": 8825,
      "copies": 8826,
      "rash": 8827,
      "rms": 8828,
      "lost": 8829,
      "behavioral": 8830,
      "facts": 8831,
      "bacter": 8832,
      "exceeding": 8833,
      "yb": 8834,
      "##itively": 8835,
      "encountered": 8836,
      "##odi": 8837,
      "##utation": 8838,
      "denotes": 8839,
      "exposed": 8840,
      "archival": 8841,
      "receive": 8842,
      "impedance": 8843,
      "##tes": 8844,
      "mk": 8845,
      "fluctuating": 8846,
      "nebulae": 8847,
      "discipl": 8848,
      "examining": 8849,
      "180": 8850,
      "spike": 8851,
      "stations": 8852,
      "clip": 8853,
      "lorentzian": 8854,
      "##feld": 8855,
      "harmonics": 8856,
      "##ager": 8857,
      "infall": 8858,
      "imperfect": 8859,
      "##processing": 8860,
      "pressures": 8861,
      "gem": 8862,
      "wet": 8863,
      "upcoming": 8864,
[...]
